<unk>	0
<s>	0
</s>	0
▁a	-0
▁n	-1
▁t	-2
in	-3
he	-4
an	-5
▁m	-6
ar	-7
▁d	-8
▁s	-9
▁o	-10
re	-11
▁b	-12
▁k	-13
▁w	-14
▁i	-15
▁na	-16
at	-17
▁the	-18
▁y	-19
▁g	-20
on	-21
er	-22
▁h	-23
▁da	-24
▁c	-25
en	-26
ou	-27
▁an	-28
ke	-29
or	-30
es	-31
▁f	-32
as	-33
al	-34
▁A	-35
it	-36
wa	-37
▁e	-38
le	-39
ing	-40
▁ọ	-41
▁to	-42
is	-43
am	-44
▁of	-45
▁I	-46
▁p	-47
ed	-48
▁M	-49
un	-50
▁ya	-51
ere	-52
▁S	-53
▁N	-54
gh	-55
▁ma	-56
om	-57
▁T	-58
▁in	-59
ka	-60
▁and	-61
hi	-62
ma	-63
▁ha	-64
ur	-65
ll	-66
ya	-67
▁C	-68
▁th	-69
▁l	-70
us	-71
▁ka	-72
▁you	-73
kw	-74
▁"	-75
ara	-76
ut	-77
ch	-78
ri	-79
dị	-80
▁on	-81
▁G	-82
gb	-83
▁O	-84
id	-85
ion	-86
▁bụ	-87
▁H	-88
ab	-89
me	-90
ot	-91
ay	-92
▁B	-93
▁is	-94
ce	-95
ve	-96
ta	-97
ye	-98
ow	-99
▁ga	-100
▁be	-101
od	-102
▁W	-103
▁D	-104
▁J	-105
▁1	-106
os	-107
rụ	-108
ic	-109
ent	-110
▁ihe	-111
▁E	-112
▁K	-113
et	-114
▁z	-115
▁P	-116
la	-117
▁re	-118
ad	-119
we	-120
▁ndị	-121
▁j	-122
▁ị	-123
▁nke	-124
ir	-125
▁r	-126
▁for	-127
ghị	-128
▁ụ	-129
▁he	-130
el	-131
hụ	-132
ik	-133
▁2	-134
ct	-135
▁(	-136
▁F	-137
il	-138
ver	-139
kp	-140
yị	-141
ine	-142
▁ta	-143
▁that	-144
▁L	-145
▁The	-146
ol	-147
zi	-148
▁dị	-149
ee	-150
▁sa	-151
ga	-152
".	-153
▁ku	-154
▁Ch	-155
im	-156
▁-	-157
▁su	-158
▁nw	-159
ly	-160
ge	-161
and	-162
▁ab	-163
▁ne	-164
▁sh	-165
bi	-166
▁it	-167
▁Ọ	-168
ith	-169
▁Y	-170
kwu	-171
ra	-172
▁R	-173
▁ahụ	-174
▁An	-175
ill	-176
▁u	-177
▁gị	-178
▁as	-179
be	-180
ak	-181
ro	-182
▁wh	-183
ci	-184
ani	-185
ation	-186
ld	-187
▁anyị	-188
her	-189
ana	-190
▁un	-191
st	-192
▁ot	-193
▁st	-194
kwa	-195
ter	-196
um	-197
▁with	-198
zọ	-199
ul	-200
ji	-201
▁ba	-202
▁not	-203
▁was	-204
tụ	-205
▁U	-206
ah	-207
ann	-208
▁do	-209
▁kuma	-210
dụ	-211
▁are	-212
che	-213
ineke	-214
▁God	-215
▁your	-216
ess	-217
▁we	-218
are	-219
▁Chineke	-220
▁kw	-221
▁am	-222
ant	-223
uk	-224
op	-225
▁me	-226
ght	-227
uru	-228
se	-229
rị	-230
▁ni	-231
ai	-232
..	-233
th	-234
▁will	-235
ore	-236
ig	-237
▁al	-238
ụrụ	-239
gw	-240
ite	-241
if	-242
rom	-243
ata	-244
gbe	-245
▁have	-246
▁ch	-247
▁ike	-248
da	-249
any	-250
▁onye	-251
▁nwere	-252
all	-253
est	-254
rọ	-255
ist	-256
pp	-257
ers	-258
ba	-259
ok	-260
one	-261
mụ	-262
fi	-263
em	-264
▁3	-265
▁In	-266
▁at	-267
▁lo	-268
ile	-269
▁20	-270
▁com	-271
ity	-272
ud	-273
...	-274
ọrọ	-275
▁mma	-276
sa	-277
▁de	-278
▁us	-279
▁con	-280
pụ	-281
▁sam	-282
▁Ma	-283
hen	-284
▁they	-285
iy	-286
uwa	-287
▁aka	-288
▁He	-289
oun	-290
ck	-291
▁shi	-292
▁from	-293
▁all	-294
ime	-295
ate	-296
▁mere	-297
ịa	-298
iri	-299
▁en	-300
na	-301
ure	-302
ment	-303
▁can	-304
▁or	-305
ould	-306
ikin	-307
ive	-308
▁le	-309
chi	-310
▁this	-311
▁v	-312
▁St	-313
▁them	-314
ihi	-315
ha	-316
qu	-317
iv	-318
▁unu	-319
pe	-320
▁go	-321
▁On	-322
art	-323
▁by	-324
eme	-325
▁sị	-326
ama	-327
▁has	-328
ie	-329
▁ce	-330
una	-331
de	-332
▁kas	-333
▁wor	-334
▁ts	-335
▁za	-336
ari	-337
ust	-338
▁ji	-339
ome	-340
▁And	-341
ans	-342
▁don	-343
ub	-344
▁so	-345
out	-346
▁his	-347
▁niile	-348
▁Wh	-349
fe	-350
cin	-351
ard	-352
chị	-353
ide	-354
pt	-355
▁mgbe	-356
▁kar	-357
og	-358
bụ	-359
▁who	-360
gbu	-361
▁iya	-362
ang	-363
▁ex	-364
ort	-365
ear	-366
▁si	-367
annan	-368
▁him	-369
▁wee	-370
ov	-371
▁Na	-372
▁4	-373
▁mai	-374
our	-375
so	-376
eri	-377
ag	-378
ose	-379
iki	-380
wo	-381
res	-382
▁pro	-383
ind	-384
lọ	-385
00	-386
▁Th	-387
oro	-388
▁mat	-389
▁cikin	-390
now	-391
▁yi	-392
▁af	-393
▁bụla	-394
▁5	-395
▁wa	-396
▁one	-397
▁ad	-398
lee	-399
ord	-400
▁All	-401
ike	-402
ost	-403
anya	-404
fa	-405
▁ko	-406
▁mas	-407
hu	-408
▁maka	-409
ala	-410
▁otú	-411
ib	-412
▁up	-413
ance	-414
yan	-415
kọ	-416
zu	-417
ru	-418
▁mkp	-419
▁my	-420
ark	-421
kwụ	-422
▁kan	-423
▁bụrụ	-424
▁bay	-425
▁se	-426
▁said	-427
ong	-428
▁daga	-429
ight	-430
war	-431
iya	-432
ous	-433
ven	-434
▁what	-435
▁mmadụ	-436
to	-437
▁Ị	-438
ast	-439
ry	-440
▁'	-441
▁fa	-442
▁ọrụ	-443
▁mu	-444
▁ezi	-445
▁Ihe	-446
ze	-447
▁ọzọ	-448
wan	-449
ịrị	-450
▁know	-451
ame	-452
yi	-453
end	-454
:1	-455
▁ri	-456
▁say	-457
▁Ha	-458
je	-459
▁We	-460
ụọ	-461
▁la	-462
▁Is	-463
ia	-464
cc	-465
ach	-466
lu	-467
reat	-468
gbo	-469
gba	-470
anda	-471
ane	-472
▁aga	-473
here	-474
▁out	-475
very	-476
▁there	-477
bọ	-478
▁Je	-479
▁V	-480
▁had	-481
▁bu	-482
ction	-483
▁their	-484
▁about	-485
nị	-486
▁but	-487
go	-488
▁pr	-489
▁yan	-490
ọọ	-491
▁otu	-492
fin	-493
ies	-494
▁anya	-495
▁201	-496
ings	-497
ban	-498
▁kam	-499
▁ke	-500
▁obi	-501
arin	-502
▁day	-503
▁pe	-504
▁were	-505
▁Ka	-506
man	-507
▁wani	-508
▁Re	-509
▁ozi	-510
▁[	-511
▁our	-512
▁she	-513
ne	-514
▁nọ	-515
cha	-516
ob	-517
ink	-518
aba	-519
ca	-520
▁Z	-521
pụta	-522
fani	-523
▁whi	-524
▁You	-525
yere	-526
▁te	-527
▁It	-528
▁onwe	-529
▁kp	-530
ice	-531
?"	-532
gwu	-533
wu	-534
bu	-535
▁when	-536
led	-537
▁6	-538
ound	-539
ali	-540
ire	-541
▁Allah	-542
▁ebe	-543
▁man	-544
anin	-545
di	-546
▁ụmụ	-547
ople	-548
der	-549
▁ƙ	-550
mu	-551
▁any	-552
▁amfani	-553
▁loka	-554
ally	-555
▁Ji	-556
▁ru	-557
gha	-558
▁Gị	-559
▁wannan	-560
kụ	-561
▁19	-562
▁Ya	-563
ary	-564
▁cewa	-565
mp	-566
sel	-567
hin	-568
kar	-569
▁Un	-570
▁Ụ	-571
ree	-572
▁Ne	-573
▁nwe	-574
▁yana	-575
tụtụ	-576
nụ	-577
use	-578
▁What	-579
▁tare	-580
hov	-581
▁isi	-582
▁nwa	-583
▁Ndị	-584
▁no	-585
ions	-586
du	-587
lo	-588
▁But	-589
▁ar	-590
▁ra	-591
▁people	-592
▁sun	-593
▁ime	-594
.+	-595
▁Olee	-596
▁qu	-597
ren	-598
▁tr	-599
▁sp	-600
▁did	-601
▁sha	-602
▁.	-603
▁Jehov	-604
▁more	-605
vers	-606
su	-607
▁other	-608
ebe	-609
ish	-610
▁if	-611
esus	-612
▁How	-613
▁Ab	-614
▁time	-615
yar	-616
bọchị	-617
anyere	-618
▁De	-619
▁So	-620
kwe	-621
wụ	-622
aka	-623
ough	-624
other	-625
tara	-626
able	-627
▁res	-628
▁ala	-629
kwọ	-630
▁sab	-631
jụ	-632
▁okwu	-633
▁Jesus	-634
asị	-635
▁iche	-636
▁Am	-637
▁which	-638
own	-639
ise	-640
ọn	-641
▁wanda	-642
▁8	-643
ber	-644
▁comp	-645
▁gb	-646
▁mut	-647
ap	-648
fore	-649
int	-650
▁kwa	-651
aban	-652
kpe	-653
ife	-654
li	-655
▁Onye	-656
▁Da	-657
▁br	-658
ence	-659
▁7	-660
▁10	-661
▁been	-662
atar	-663
▁ci	-664
okwu	-665
ath	-666
ated	-667
▁Gịnị	-668
▁ndụ	-669
ina	-670
ather	-671
▁shall	-672
ps	-673
:2	-674
ress	-675
▁would	-676
zọs	-677
▁zuwa	-678
▁site	-679
gwa	-680
▁ọma	-681
▁Jizọs	-682
ass	-683
kwụkwọ	-684
enwe	-685
▁fe	-686
yin	-687
▁year	-688
ank	-689
zụ	-690
ook	-691
▁iji	-692
▁En	-693
▁Anyị	-694
▁saur	-695
ase	-696
ọdụ	-697
▁di	-698
▁kwuru	-699
ada	-700
▁banyere	-701
▁For	-702
ble	-703
▁chọrọ	-704
▁eme	-705
▁kya	-706
▁dis	-707
ult	-708
kwara	-709
▁Do	-710
▁ob	-711
▁As	-712
oh	-713
adị	-714
▁see	-715
▁make	-716
asa	-717
▁afọ	-718
oke	-719
▁get	-720
▁ik	-721
▁also	-722
▁suka	-723
ory	-724
).	-725
ug	-726
alla	-727
▁oge	-728
▁mm	-729
way	-730
anta	-731
▁Mgbe	-732
ac	-733
▁app	-734
do	-735
ign	-736
igh	-737
erv	-738
ons	-739
▁Mar	-740
▁fo	-741
▁duk	-742
▁9	-743
za	-744
▁har	-745
▁aiki	-746
▁masu	-747
▁way	-748
▁mee	-749
▁ụzọ	-750
ff	-751
ations	-752
▁Go	-753
les	-754
up	-755
hie	-756
▁ọtụtụ	-757
ount	-758
▁mme	-759
wara	-760
▁off	-761
ft	-762
▁pl	-763
▁nn	-764
▁some	-765
▁mmụ	-766
▁mar	-767
▁gu	-768
ita	-769
▁wat	-770
itt	-771
▁her	-772
iyar	-773
▁like	-774
▁sin	-775
ukwu	-776
ents	-777
ness	-778
▁Ba	-779
ida	-780
enye	-781
▁lokacin	-782
▁mag	-783
▁Al	-784
esịrị	-785
old	-786
cause	-787
▁how	-788
self	-789
▁This	-790
▁Ot	-791
day	-792
▁ear	-793
dan	-794
uta	-795
,+	-796
were	-797
▁ụlọ	-798
▁zai	-799
▁than	-800
▁Be	-801
anar	-802
▁Nke	-803
age	-804
tọ	-805
omin	-806
kin	-807
▁should	-808
esi	-809
arị	-810
▁over	-811
iz	-812
▁good	-813
▁into	-814
ical	-815
mume	-816
urn	-817
rin	-818
▁work	-819
▁may	-820
▁many	-821
▁mafi	-822
▁want	-823
▁every	-824
▁pre	-825
orm	-826
▁gr	-827
▁per	-828
▁Stone	-829
▁bú	-830
▁need	-831
▁take	-832
▁does	-833
▁mmụọ	-834
lic	-835
▁acc	-836
▁Jehova	-837
▁abụọ	-838
ku	-839
▁again	-840
▁mkpa	-841
▁chi	-842
ayin	-843
▁then	-844
tain	-845
per	-846
aa	-847
ham	-848
anị	-849
▁ah	-850
▁kamar	-851
olog	-852
▁ụbọchị	-853
com	-854
uka	-855
irst	-856
odu	-857
ked	-858
▁omume	-859
▁bel	-860
ami	-861
▁bab	-862
yo	-863
rist	-864
ue	-865
▁ana	-866
▁Ad	-867
ezi	-868
▁spe	-869
▁gwa	-870
anyị	-871
ụlọ	-872
▁mats	-873
iff	-874
▁/	-875
ible	-876
▁imp	-877
kpọ	-878
sọ	-879
nye	-880
▁ok	-881
▁right	-882
ọta	-883
▁15	-884
▁made	-885
ful	-886
▁things	-887
▁comm	-888
gụ	-889
elu	-890
▁If	-891
",	-892
gin	-893
kan	-894
▁those	-895
oss	-896
▁mus	-897
▁ca	-898
ws	-899
uma	-900
▁samar	-901
▁gir	-902
ting	-903
ph	-904
▁cont	-905
▁fi	-906
vid	-907
▁12	-908
▁zama	-909
els	-910
ken	-911
▁Q	-912
tị	-913
▁Sa	-914
▁elu	-915
▁kwesịrị	-916
▁iri	-917
ashin	-918
▁Com	-919
▁kayan	-920
unye	-921
▁because	-922
ces	-923
mar	-924
shi	-925
ple	-926
▁bụghị	-927
▁gh	-928
▁Mos	-929
▁kun	-930
eren	-931
ens	-932
cts	-933
ond	-934
▁abin	-935
▁sịrị	-936
ts	-937
vel	-938
iti	-939
▁these	-940
▁thr	-941
cl	-942
ki	-943
ition	-944
:3	-945
ull	-946
ace	-947
▁bl	-948
▁His	-949
ower	-950
▁hel	-951
▁They	-952
ves	-953
▁ama	-954
ute	-955
▁hany	-956
wn	-957
▁even	-958
▁aha	-959
▁ruo	-960
▁ang	-961
▁before	-962
▁cl	-963
▁far	-964
ily	-965
▁No	-966
▁ụwa	-967
▁Pro	-968
▁18	-969
ning	-970
▁adị	-971
▁yad	-972
te	-973
gr	-974
amb	-975
▁Con	-976
jin	-977
▁biy	-978
▁rep	-979
▁Le	-980
▁ego	-981
▁exp	-982
▁bayan	-983
king	-984
▁haka	-985
▁To	-986
▁part	-987
ote	-988
▁mal	-989
▁ọn	-990
▁great	-991
ered	-992
▁hal	-993
▁under	-994
▁Christ	-995
isi	-996
▁only	-997
▁suna	-998
▁ò	-999
▁11	-1000
ici	-1001
ors	-1002
▁yadda	-1003
tern	-1004
▁nan	-1005
▁des	-1006
▁nwoke	-1007
▁Af	-1008
▁first	-1009
▁wr	-1010
oda	-1011
▁world	-1012
ran	-1013
▁just	-1014
cy	-1015
igwe	-1016
obi	-1017
▁life	-1018
ual	-1019
▁down	-1020
att	-1021
▁bi	-1022
ene	-1023
▁years	-1024
line	-1025
gban	-1026
▁200	-1027
uwan	-1028
▁There	-1029
▁When	-1030
▁ngwa	-1031
eth	-1032
ates	-1033
▁atụ	-1034
uri	-1035
▁akwụkwọ	-1036
fọdụ	-1037
▁come	-1038
ja	-1039
▁help	-1040
▁supp	-1041
▁Se	-1042
utse	-1043
▁Lord	-1044
▁child	-1045
ima	-1046
▁ọnụ	-1047
000	-1048
▁Ar	-1049
▁game	-1050
ivers	-1051
▁Ò	-1052
usa	-1053
abb	-1054
form	-1055
xt	-1056
),	-1057
har	-1058
llow	-1059
atụ	-1060
▁now	-1061
▁mara	-1062
▁co	-1063
ansu	-1064
▁give	-1065
oge	-1066
▁nyere	-1067
cre	-1068
▁bet	-1069
▁ebi	-1070
ika	-1071
abi	-1072
▁after	-1073
▁Me	-1074
▁love	-1075
ced	-1076
▁che	-1077
▁...	-1078
▁kai	-1079
ian	-1080
▁ụtọ	-1081
uth	-1082
gbọ	-1083
▁maara	-1084
▁dịghị	-1085
ahụ	-1086
▁nso	-1087
▁Sp	-1088
▁hand	-1089
ving	-1090
▁hụrụ	-1091
▁gaba	-1092
aga	-1093
▁ro	-1094
▁13	-1095
ouse	-1096
aven	-1097
▁serv	-1098
▁Isra	-1099
atan	-1100
▁high	-1101
ihu	-1102
eji	-1103
urin	-1104
▁biyu	-1105
ashi	-1106
▁yawa	-1107
kara	-1108
ved	-1109
▁nna	-1110
The	-1111
ds	-1112
▁gwara	-1113
▁Igbo	-1114
ever	-1115
odo	-1116
▁two	-1117
▁diff	-1118
▁kyau	-1119
jọ	-1120
▁ná	-1121
ely	-1122
▁ikpe	-1123
▁Sh	-1124
ments	-1125
▁pla	-1126
oy	-1127
ayi	-1128
▁egwu	-1129
him	-1130
▁wasu	-1131
▁through	-1132
▁NA	-1133
▁Kuma	-1134
▁domin	-1135
iven	-1136
▁nwunye	-1137
ale	-1138
▁14	-1139
alị	-1140
ating	-1141
kpa	-1142
osi	-1143
▁name	-1144
ited	-1145
▁Why	-1146
ira	-1147
▁earth	-1148
ṅụ	-1149
▁hanyar	-1150
▁back	-1151
gwụ	-1152
▁belie	-1153
mb	-1154
ward	-1155
▁ukwu	-1156
ura	-1157
▁let	-1158
▁where	-1159
aring	-1160
gwọ	-1161
▁Him	-1162
▁kasa	-1163
▁ịhụ	-1164
▁new	-1165
als	-1166
uniya	-1167
eche	-1168
sị	-1169
▁its	-1170
▁naanị	-1171
▁Then	-1172
▁fark	-1173
▁yin	-1174
aki	-1175
cri	-1176
mn	-1177
lect	-1178
uo	-1179
▁night	-1180
▁&	-1181
▁shekar	-1182
oint	-1183
▁17	-1184
▁Te	-1185
eep	-1186
ics	-1187
▁She	-1188
▁Are	-1189
ms	-1190
▁Ta	-1191
▁ev	-1192
An	-1193
wai	-1194
▁gba	-1195
▁son	-1196
ware	-1197
20	-1198
▁nile	-1199
▁pri	-1200
▁own	-1201
▁nkwa	-1202
ope	-1203
ukan	-1204
ini	-1205
▁men	-1206
▁wad	-1207
▁My	-1208
yya	-1209
▁amma	-1210
oth	-1211
iversity	-1212
ghachi	-1213
ought	-1214
▁mbụ	-1215
red	-1216
eb	-1217
▁forg	-1218
▁pụrụ	-1219
ows	-1220
cial	-1221
itere	-1222
fiya	-1223
▁gas	-1224
▁could	-1225
eze	-1226
▁24	-1227
▁taima	-1228
▁ụfọdụ	-1229
inye	-1230
▁tsa	-1231
▁Israel	-1232
▁iwu	-1233
gar	-1234
come	-1235
▁bin	-1236
▁heaven	-1237
dom	-1238
▁nye	-1239
▁16	-1240
phe	-1241
-1	-1242
▁ing	-1243
thing	-1244
isa	-1245
HE	-1246
iss	-1247
▁Ph	-1248
▁Obi	-1249
▁ugbu	-1250
▁fam	-1251
▁Mo	-1252
vi	-1253
▁read	-1254
erson	-1255
ives	-1256
oma	-1257
▁ole	-1258
▁very	-1259
uni	-1260
▁lokaci	-1261
ung	-1262
asin	-1263
▁mba	-1264
▁irin	-1265
idan	-1266
lim	-1267
bụl	-1268
chọ	-1269
ities	-1270
▁nwaanyị	-1271
▁says	-1272
▁Bu	-1273
▁happ	-1274
▁$	-1275
▁days	-1276
oc	-1277
▁mụ	-1278
mm	-1279
▁pụ	-1280
▁gud	-1281
▁La	-1282
kpere	-1283
▁cons	-1284
▁against	-1285
ool	-1286
▁rel	-1287
▁akwa	-1288
▁ag	-1289
ick	-1290
▁Nig	-1291
iness	-1292
hụrụ	-1293
akin	-1294
orn	-1295
ekwu	-1296
owane	-1297
▁pray	-1298
si	-1299
▁enwe	-1300
less	-1301
ezie	-1302
▁ciki	-1303
▁such	-1304
mber	-1305
anụ	-1306
▁add	-1307
▁inst	-1308
▁Ex	-1309
jọọ	-1310
▁wom	-1311
▁king	-1312
▁idan	-1313
▁30	-1314
▁most	-1315
rel	-1316
IN	-1317
▁Jose	-1318
fo	-1319
▁At	-1320
▁Nwa	-1321
fu	-1322
▁differen	-1323
▁trans	-1324
ịbụl	-1325
▁akụ	-1326
▁That	-1327
ality	-1328
▁Baịbụl	-1329
oto	-1330
▁abụ	-1331
ghara	-1332
▁adịghị	-1333
iko	-1334
mi	-1335
▁agaghị	-1336
▁mmiri	-1337
▁think	-1338
▁int	-1339
arar	-1340
ove	-1341
hed	-1342
▁Dị	-1343
▁nnọọ	-1344
ati	-1345
▁cut	-1346
adi	-1347
▁ph	-1348
▁being	-1349
pl	-1350
▁Man	-1351
ility	-1352
▁tra	-1353
▁daya	-1354
arụ	-1355
▁*	-1356
af	-1357
zo	-1358
imes	-1359
ili	-1360
▁rec	-1361
ohn	-1362
▁atọ	-1363
▁ent	-1364
aye	-1365
arwa	-1366
▁ajụ	-1367
amu	-1368
▁set	-1369
▁Your	-1370
▁creat	-1371
fect	-1372
▁nat	-1373
min	-1374
▁long	-1375
read	-1376
▁produ	-1377
▁kowane	-1378
▁25	-1379
aha	-1380
▁Nigeri	-1381
▁New	-1382
▁away	-1383
▁duniya	-1384
ener	-1385
agba	-1386
Wh	-1387
▁prom	-1388
▁look	-1389
▁mkpụrụ	-1390
uwar	-1391
▁kawai	-1392
▁start	-1393
▁Tr	-1394
▁nk	-1395
▁taa	-1396
▁dec	-1397
▁must	-1398
▁mutane	-1399
▁Pl	-1400
▁follow	-1401
yy	-1402
cess	-1403
gide	-1404
▁use	-1405
▁sauran	-1406
arn	-1407
:4	-1408
▁came	-1409
▁ans	-1410
▁daban	-1411
abụ	-1412
▁uru	-1413
its	-1414
▁ahịa	-1415
lease	-1416
▁Don	-1417
ju	-1418
gram	-1419
▁ake	-1420
▁angels	-1421
RE	-1422
ty	-1423
anci	-1424
▁agha	-1425
ational	-1426
ihe	-1427
jen	-1428
▁ọjọọ	-1429
▁kasance	-1430
▁ac	-1431
arki	-1432
ures	-1433
kọta	-1434
alite	-1435
▁nd	-1436
ars	-1437
▁(1	-1438
▁wu	-1439
▁?	-1440
AN	-1441
angi	-1442
ideo	-1443
▁father	-1444
▁ste	-1445
▁yanzu	-1446
chukwu	-1447
▁quest	-1448
und	-1449
uring	-1450
▁ɗ	-1451
ric	-1452
▁farko	-1453
amp	-1454
ody	-1455
amman	-1456
▁kama	-1457
▁best	-1458
▁fit	-1459
jo	-1460
chie	-1461
▁karịa	-1462
ade	-1463
▁ye	-1464
▁tsarin	-1465
▁nuna	-1466
yst	-1467
▁Wor	-1468
▁tsak	-1469
▁Pr	-1470
▁med	-1471
achọ	-1472
sụ	-1473
gharị	-1474
▁put	-1475
▁form	-1476
iving	-1477
ters	-1478
▁house	-1479
edu	-1480
▁ruwa	-1481
▁tun	-1482
▁aikin	-1483
▁find	-1484
ats	-1485
▁tabb	-1486
cept	-1487
▁tas	-1488
▁zam	-1489
▁ụdị	-1490
▁Nna	-1491
▁sau	-1492
ron	-1493
▁act	-1494
the	-1495
▁kwere	-1496
▁Jehovah	-1497
▁University	-1498
etiti	-1499
▁lab	-1500
akwa	-1501
▁ntị	-1502
ict	-1503
▁Moses	-1504
▁going	-1505
▁fas	-1506
riend	-1507
▁sc	-1508
ject	-1509
▁0	-1510
▁anụ	-1511
▁kpọ	-1512
ology	-1513
▁Wannan	-1514
ants	-1515
▁Pa	-1516
▁cal	-1517
▁free	-1518
▁nau	-1519
▁online	-1520
▁ind	-1521
ude	-1522
ange	-1523
!"	-1524
▁gaghị	-1525
▁matsayin	-1526
▁wata	-1527
▁pres	-1528
ụzọ	-1529
▁Kra	-1530
▁mon	-1531
▁upon	-1532
asi	-1533
▁well	-1534
▁bang	-1535
▁kasar	-1536
▁ghara	-1537
▁end	-1538
▁hour	-1539
▁Ga	-1540
▁Can	-1541
ụwa	-1542
▁saboda	-1543
▁nri	-1544
▁another	-1545
▁count	-1546
pen	-1547
▁Father	-1548
of	-1549
▁heart	-1550
▁Eb	-1551
▁reg	-1552
ti	-1553
bangi	-1554
bs	-1555
ng	-1556
ero	-1557
▁Mu	-1558
,000	-1559
ased	-1560
▁yake	-1561
▁power	-1562
adịghị	-1563
▁buk	-1564
esị	-1565
get	-1566
▁abub	-1567
▁Dutse	-1568
▁mata	-1569
▁place	-1570
▁tar	-1571
▁ekw	-1572
▁nj	-1573
▁oké	-1574
▁list	-1575
▁nsogbu	-1576
▁tell	-1577
▁person	-1578
▁Bible	-1579
gy	-1580
▁à	-1581
zin	-1582
▁sm	-1583
▁today	-1584
atin	-1585
▁samun	-1586
KW	-1587
▁feel	-1588
▁Otú	-1589
▁car	-1590
▁girma	-1591
pect	-1592
▁ukwuu	-1593
▁Set	-1594
▁faith	-1595
selves	-1596
▁Or	-1597
▁dai	-1598
asara	-1599
ks	-1600
won	-1601
iew	-1602
▁usoro	-1603
▁100	-1604
stand	-1605
▁kafa	-1606
▁mmehie	-1607
▁why	-1608
▁different	-1609
hip	-1610
ged	-1611
ild	-1612
kam	-1613
▁min	-1614
▁kere	-1615
▁gidan	-1616
▁babban	-1617
▁Ike	-1618
▁21	-1619
vern	-1620
▁mutum	-1621
▁magana	-1622
▁ezigbo	-1623
▁masana	-1624
oly	-1625
▁same	-1626
ufa	-1627
ular	-1628
▁fil	-1629
▁each	-1630
▁ọhụrụ	-1631
gbanwe	-1632
ịst	-1633
▁shug	-1634
ko	-1635
▁nwee	-1636
▁bus	-1637
cer	-1638
ins	-1639
▁ikike	-1640
ayan	-1641
▁brother	-1642
oney	-1643
zrel	-1644
▁22	-1645
yana	-1646
ode	-1647
▁By	-1648
▁hụ	-1649
▁ụgwọ	-1650
▁Kraịst	-1651
▁children	-1652
▁stud	-1653
▁found	-1654
ids	-1655
▁gaa	-1656
ash	-1657
nu	-1658
otu	-1659
▁One	-1660
ording	-1661
▁samu	-1662
▁Pre	-1663
▁unto	-1664
eso	-1665
bar	-1666
kwasị	-1667
ele	-1668
▁gara	-1669
▁Br	-1670
▁Who	-1671
▁Ubangi	-1672
▁land	-1673
▁Mus	-1674
gosi	-1675
▁ekpere	-1676
bo	-1677
▁sai	-1678
▁John	-1679
▁Su	-1680
▁Res	-1681
let	-1682
▁og	-1683
▁With	-1684
daban	-1685
land	-1686
▁Che	-1687
▁num	-1688
uba	-1689
▁att	-1690
iyo	-1691
AR	-1692
upu	-1693
▁yourself	-1694
▁here	-1695
▁Bab	-1696
itta	-1697
antu	-1698
▁cin	-1699
anni	-1700
kon	-1701
▁Ts	-1702
▁dep	-1703
▁eze	-1704
▁ekwe	-1705
ni	-1706
▁Ony	-1707
amar	-1708
eter	-1709
▁kaya	-1710
▁eziokwu	-1711
▁tru	-1712
▁done	-1713
▁cr	-1714
▁san	-1715
▁bat	-1716
▁ayy	-1717
▁Jer	-1718
▁os	-1719
▁mgb	-1720
▁mana	-1721
akar	-1722
ys	-1723
azụ	-1724
▁lead	-1725
gu	-1726
uku	-1727
▁ND	-1728
▁ins	-1729
irit	-1730
▁ever	-1731
ering	-1732
▁sub	-1733
▁much	-1734
chiche	-1735
ip	-1736
▁import	-1737
▁•	-1738
▁gl	-1739
uki	-1740
▁er	-1741
▁adv	-1742
▁nsọ	-1743
▁rece	-1744
▁rub	-1745
▁sama	-1746
▁speak	-1747
▁|	-1748
gburu	-1749
▁mgba	-1750
▁play	-1751
alin	-1752
ges	-1753
▁anọ	-1754
▁might	-1755
▁musamman	-1756
▁col	-1757
ogle	-1758
uss	-1759
▁mb	-1760
▁ụgbọ	-1761
▁fara	-1762
▁23	-1763
ised	-1764
▁ajụjụ	-1765
▁used	-1766
▁Now	-1767
▁bir	-1768
▁sent	-1769
.1	-1770
asu	-1771
▁Sink	-1772
▁Izrel	-1773
▁Us	-1774
▁US	-1775
KE	-1776
akọ	-1777
▁nche	-1778
▁hann	-1779
▁ì	-1780
book	-1781
▁Our	-1782
▁post	-1783
▁saying	-1784
▁stand	-1785
▁gab	-1786
▁nwụrụ	-1787
▁inv	-1788
▁ịn	-1789
▁bayyana	-1790
co	-1791
akpọ	-1792
ines	-1793
▁book	-1794
▁Let	-1795
▁sign	-1796
ried	-1797
▁whom	-1798
pụtara	-1799
▁obodo	-1800
▁turn	-1801
▁fact	-1802
▁among	-1803
▁som	-1804
▁tal	-1805
alth	-1806
ution	-1807
▁Shi	-1808
▁ref	-1809
til	-1810
▁bo	-1811
tt	-1812
▁cho	-1813
▁cle	-1814
▁Home	-1815
▁Mai	-1816
▁Of	-1817
▁sur	-1818
tic	-1819
ziri	-1820
▁inter	-1821
▁wan	-1822
▁ịbụ	-1823
▁given	-1824
unan	-1825
▁shekaru	-1826
▁ndi	-1827
▁sabon	-1828
▁yawan	-1829
▁akp	-1830
▁Ins	-1831
▁others	-1832
▁shine	-1833
ano	-1834
ood	-1835
▁em	-1836
weta	-1837
▁mot	-1838
▁Gwa	-1839
ori	-1840
▁Za	-1841
kiya	-1842
▁+	-1843
▁bịa	-1844
ger	-1845
▁Marble	-1846
▁Nigeria	-1847
ystem	-1848
▁ọchị	-1849
▁dum	-1850
▁three	-1851
▁bar	-1852
▁old	-1853
▁cika	-1854
ublic	-1855
ket	-1856
▁resp	-1857
outh	-1858
eous	-1859
▁call	-1860
▁went	-1861
▁ntụ	-1862
▁video	-1863
▁Har	-1864
▁Good	-1865
ished	-1866
io	-1867
ledge	-1868
▁sanya	-1869
▁nor	-1870
ọl	-1871
ames	-1872
▁uche	-1873
▁Ju	-1874
fanin	-1875
con	-1876
▁really	-1877
ween	-1878
▁mis	-1879
▁never	-1880
▁friend	-1881
aro	-1882
▁fiye	-1883
chn	-1884
zis	-1885
med	-1886
okp	-1887
▁Ì	-1888
hịa	-1889
▁May	-1890
▁App	-1891
ific	-1892
▁suke	-1893
ident	-1894
ave	-1895
ices	-1896
▁agba	-1897
▁ed	-1898
▁conf	-1899
▁Satan	-1900
▁ju	-1901
▁gare	-1902
▁show	-1903
ustom	-1904
ghọ	-1905
ason	-1906
ites	-1907
▁ele	-1908
▁pur	-1909
ona	-1910
▁care	-1911
▁light	-1912
▁Google	-1913
wit	-1914
okin	-1915
▁eji	-1916
gwure	-1917
▁keep	-1918
▁gburu	-1919
gwuregwu	-1920
▁pa	-1921
kacin	-1922
▁command	-1923
mara	-1924
▁while	-1925
▁home	-1926
▁ret	-1927
▁hank	-1928
aic	-1929
▁et	-1930
act	-1931
ater	-1932
▁Face	-1933
gboro	-1934
▁gida	-1935
zinụlọ	-1936
anna	-1937
▁gbasara	-1938
▁ọbụ	-1939
//	-1940
velop	-1941
ctions	-1942
▁sal	-1943
▁become	-1944
gan	-1945
▁hum	-1946
▁Mozis	-1947
▁sec	-1948
ụbọchị	-1949
▁anaghị	-1950
▁Iji	-1951
eluigwe	-1952
▁Rep	-1953
▁nwekwara	-1954
▁Setan	-1955
anye	-1956
ative	-1957
yocha	-1958
://	-1959
wer	-1960
atta	-1961
▁Son	-1962
▁kasị	-1963
▁Sl	-1964
▁Lo	-1965
▁gịnị	-1966
▁pụtara	-1967
▁mean	-1968
▁called	-1969
▁lafiya	-1970
▁del	-1971
▁Ubangiji	-1972
▁ap	-1973
▁created	-1974
▁Sam	-1975
▁tabbatar	-1976
▁until	-1977
▁water	-1978
▁mer	-1979
▁anyi	-1980
▁times	-1981
▁requ	-1982
▁baya	-1983
▁truth	-1984
ghi	-1985
▁aika	-1986
▁fore	-1987
▁month	-1988
ital	-1989
▁sami	-1990
ancin	-1991
▁akwai	-1992
".+	-1993
ship	-1994
▁war	-1995
▁ọgwụ	-1996
▁yau	-1997
▁poss	-1998
▁hearing	-1999
▁understand	-2000
▁Chi	-2001
▁akan	-2002
▁kind	-2003
ined	-2004
ention	-2005
ifi	-2006
ụsụ	-2007
▁ibe	-2008
va	-2009
▁tụ	-2010
ision	-2011
akụ	-2012
▁Nw	-2013
▁David	-2014
▁ja	-2015
▁az	-2016
ther	-2017
Ka	-2018
ism	-2019
▁cha	-2020
▁nakwa	-2021
nanya	-2022
▁still	-2023
zie	-2024
pụrụ	-2025
▁guda	-2026
▁samf	-2027
▁eluigwe	-2028
ying	-2029
▁htt	-2030
▁shir	-2031
▁important	-2032
ches	-2033
▁sauransu	-2034
▁China	-2035
▁between	-2036
▁nu	-2037
▁Med	-2038
▁anwụ	-2039
ract	-2040
▁family	-2041
▁Ob	-2042
▁ask	-2043
▁nne	-2044
lack	-2045
ually	-2046
▁believe	-2047
orts	-2048
hari	-2049
lish	-2050
▁data	-2051
bara	-2052
▁ọmụ	-2053
vious	-2054
:5	-2055
ared	-2056
anọ	-2057
▁able	-2058
And	-2059
▁got	-2060
▁quality	-2061
▁Okwu	-2062
agor	-2063
▁open	-2064
ukar	-2065
▁Sol	-2066
▁tsakanin	-2067
▁met	-2068
▁ohu	-2069
▁However	-2070
▁echiche	-2071
chool	-2072
▁tupu	-2073
▁amaghị	-2074
angu	-2075
▁too	-2076
▁1.	-2077
rịa	-2078
▁Any	-2079
▁Otu	-2080
▁ọkụ	-2081
▁without	-2082
iga	-2083
ging	-2084
▁dace	-2085
▁full	-2086
▁50	-2087
adin	-2088
▁ray	-2089
▁heard	-2090
alt	-2091
▁ọsọ	-2092
anne	-2093
ones	-2094
▁huk	-2095
cript	-2096
ural	-2097
▁sake	-2098
▁incl	-2099
▁Gran	-2100
ways	-2101
▁pass	-2102
▁rana	-2103
▁enye	-2104
▁dere	-2105
ghar	-2106
jeri	-2107
▁es	-2108
▁told	-2109
▁sim	-2110
raham	-2111
▁sure	-2112
▁live	-2113
afọ	-2114
rol	-2115
▁test	-2116
▁par	-2117
▁shugaban	-2118
▁dev	-2119
▁Co	-2120
AS	-2121
▁Comm	-2122
▁shekara	-2123
utu	-2124
▁Gr	-2125
▁fl	-2126
▁waje	-2127
agb	-2128
ched	-2129
▁learn	-2130
pr	-2131
▁money	-2132
▁jud	-2133
....	-2134
▁Facebook	-2135
himman	-2136
▁iwe	-2137
▁lot	-2138
ube	-2139
▁28	-2140
▁evil	-2141
cture	-2142
▁egbu	-2143
▁abalị	-2144
▁Mosaic	-2145
▁X	-2146
▁Granite	-2147
▁Ind	-2148
▁dama	-2149
NY	-2150
▁Qu	-2151
▁Tag	-2152
wor	-2153
ator	-2154
araoh	-2155
ctor	-2156
chara	-2157
ugh	-2158
urar	-2159
ething	-2160
▁eat	-2161
▁kara	-2162
▁litt	-2163
▁ụmụn	-2164
ling	-2165
ghọta	-2166
▁Buhari	-2167
▁mur	-2168
ọrụ	-2169
aik	-2170
din	-2171
▁bring	-2172
▁Amer	-2173
▁inye	-2174
▁thing	-2175
▁shiga	-2176
▁amụ	-2177
▁righteous	-2178
ining	-2179
▁meet	-2180
▁asị	-2181
▁jin	-2182
▁cer	-2183
▁wal	-2184
▁thou	-2185
▁abụghị	-2186
▁dr	-2187
iting	-2188
▁damar	-2189
▁Cl	-2190
5.	-2191
▁bị	-2192
▁ter	-2193
arr	-2194
ial	-2195
room	-2196
den	-2197
▁asked	-2198
ream	-2199
▁ori	-2200
▁Mat	-2201
▁eb	-2202
▁exam	-2203
gbanye	-2204
Th	-2205
▁Ezi	-2206
▁sol	-2207
▁King	-2208
▁bisa	-2209
▁ef	-2210
arge	-2211
▁tri	-2212
cle	-2213
▁gener	-2214
▁Abraham	-2215
▁mfe	-2216
▁ƙar	-2217
▁Ann	-2218
▁Kas	-2219
iyya	-2220
▁Pharaoh	-2221
▁Eur	-2222
ikwa	-2223
▁Paul	-2224
▁Word	-2225
formation	-2226
▁26	-2227
▁fin	-2228
▁lam	-2229
ologo	-2230
PC	-2231
akp	-2232
asy	-2233
▁words	-2234
▁Ebe	-2235
▁hankali	-2236
rịta	-2237
gi	-2238
▁death	-2239
▁>	-2240
▁dire	-2241
ither	-2242
▁2.	-2243
ived	-2244
▁ass	-2245
▁str	-2246
ịtị	-2247
▁Day	-2248
▁around	-2249
▁okwukwe	-2250
ety	-2251
▁Mary	-2252
▁karfe	-2253
▁agb	-2254
▁ilim	-2255
▁enyi	-2256
▁Kar	-2257
▁azụ	-2258
▁ig	-2259
▁support	-2260
ebi	-2261
▁pay	-2262
▁sad	-2263
ional	-2264
▁Get	-2265
▁awa	-2266
▁Adam	-2267
▁eke	-2268
▁point	-2269
agụ	-2270
▁kach	-2271
orin	-2272
▁Fero	-2273
▁wife	-2274
▁bless	-2275
oup	-2276
▁talla	-2277
▁prophe	-2278
▁Ụlọ	-2279
▁Col	-2280
▁Ste	-2281
▁#	-2282
▁ita	-2283
▁hard	-2284
▁haɗ	-2285
▁fear	-2286
▁Joseph	-2287
▁according	-2288
gen	-2289
▁zo	-2290
▁United	-2291
▁egwuregwu	-2292
kpu	-2293
ened	-2294
▁News	-2295
▁something	-2296
▁gudanar	-2297
▁sos	-2298
▁wajen	-2299
▁dukan	-2300
utar	-2301
▁ty	-2302
▁Did	-2303
▁jami	-2304
▁number	-2305
"?	-2306
▁gave	-2307
▁Sin	-2308
▁word	-2309
▁giz	-2310
▁yanar	-2311
she	-2312
▁gi	-2313
cks	-2314
unci	-2315
▁abu	-2316
▁ext	-2317
▁kus	-2318
▁Comp	-2319
▁zuru	-2320
gine	-2321
okpuru	-2322
▁order	-2323
▁nt	-2324
▁kayayya	-2325
ọs	-2326
▁World	-2327
▁yar	-2328
jeriya	-2329
▁contin	-2330
▁je	-2331
reak	-2332
▁dutse	-2333
▁olee	-2334
▁mah	-2335
▁Ọrụ	-2336
lla	-2337
beghị	-2338
▁binci	-2339
ashen	-2340
▁everything	-2341
OR	-2342
eld	-2343
▁begin	-2344
edi	-2345
enyere	-2346
▁ugboro	-2347
nin	-2348
ott	-2349
▁Ama	-2350
▁bai	-2351
▁ịna	-2352
▁mother	-2353
▁wanka	-2354
agbanye	-2355
anai	-2356
▁arụ	-2357
▁mil	-2358
▁ahú	-2359
uke	-2360
ries	-2361
iyan	-2362
▁sar	-2363
▁jir	-2364
▁sons	-2365
▁cour	-2366
atọ	-2367
amin	-2368
▁Will	-2369
▁cent	-2370
▁ebu	-2371
ME	-2372
▁IHE	-2373
▁Sab	-2374
▁sosai	-2375
▁govern	-2376
mail	-2377
▁blo	-2378
▁Dis	-2379
▁ranar	-2380
▁during	-2381
▁ebighị	-2382
jà	-2383
▁dead	-2384
▁jụrụ	-2385
9.	-2386
You	-2387
ift	-2388
▁inda	-2389
▁rụ	-2390
▁saw	-2391
load	-2392
▁á	-2393
hing	-2394
gement	-2395
▁proble	-2396
▁ado	-2397
▁malite	-2398
ftware	-2399
enweghị	-2400
omat	-2401
erest	-2402
▁Idan	-2403
▁199	-2404
ilt	-2405
▁Akwa	-2406
▁27	-2407
▁nweghị	-2408
▁40	-2409
hold	-2410
erve	-2411
▁kọ	-2412
AT	-2413
▁_	-2414
▁blog	-2415
▁Americ	-2416
▁inganta	-2417
GB	-2418
rop	-2419
▁iko	-2420
ozi	-2421
ccess	-2422
agwa	-2423
alle	-2424
▁kpọrọ	-2425
anu	-2426
anet	-2427
▁always	-2428
▁Mma	-2429
chụ	-2430
hamma	-2431
jal	-2432
▁bene	-2433
▁bind	-2434
▁kowa	-2435
▁wadannan	-2436
ede	-2437
▁dal	-2438
▁fun	-2439
▁hear	-2440
▁return	-2441
▁{	-2442
antar	-2443
▁Pe	-2444
▁face	-2445
yes	-2446
▁loc	-2447
▁Pol	-2448
▁ehi	-2449
ashe	-2450
▁Mun	-2451
earch	-2452
▁women	-2453
▁gra	-2454
▁ibu	-2455
▁About	-2456
▁kachasị	-2457
▁Eme	-2458
ately	-2459
▁prote	-2460
kere	-2461
▁Gu	-2462
▁cur	-2463
▁last	-2464
Gị	-2465
▁Jọn	-2466
duc	-2467
wed	-2468
▁develop	-2469
50	-2470
KWU	-2471
▁left	-2472
▁system	-2473
6.	-2474
uto	-2475
atun	-2476
▁ezinụlọ	-2477
ER	-2478
lụ	-2479
▁doing	-2480
▁custom	-2481
▁Wind	-2482
▁yanayin	-2483
agbanyeghị	-2484
anyi	-2485
fice	-2486
▁Sun	-2487
▁business	-2488
▁dist	-2489
▁More	-2490
▁question	-2491
▁After	-2492
▁law	-2493
▁taimaka	-2494
▁uku	-2495
▁ọbọ	-2496
▁ịgba	-2497
ized	-2498
▁ima	-2499
▁nweta	-2500
▁woman	-2501
▁Eze	-2502
▁caca	-2503
▁kung	-2504
antarki	-2505
▁State	-2506
▁jihar	-2507
▁few	-2508
▁true	-2509
▁Ònye	-2510
▁fall	-2511
▁ọnwụ	-2512
▁enweghị	-2513
▁bayar	-2514
oni	-2515
▁means	-2516
▁yayin	-2517
▁didn	-2518
▁launi	-2519
▁ann	-2520
▁fus	-2521
▁ihu	-2522
inn	-2523
▁kula	-2524
▁cor	-2525
▁Well	-2526
ister	-2527
▁knowledge	-2528
▁Duk	-2529
▁dog	-2530
▁build	-2531
▁Kedu	-2532
abịa	-2533
▁chọ	-2534
▁Have	-2535
▁Kọ	-2536
▁manyan	-2537
▁Unu	-2538
▁rest	-2539
arai	-2540
▁eche	-2541
▁Ụmụ	-2542
bin	-2543
▁opp	-2544
▁Tur	-2545
ission	-2546
▁Europe	-2547
▁sins	-2548
aser	-2549
vert	-2550
▁Far	-2551
▁gar	-2552
▁ọṅụ	-2553
▁Ọbụ	-2554
▁head	-2555
▁gwamn	-2556
▁little	-2557
achị	-2558
▁ago	-2559
▁2017	-2560
▁matsal	-2561
▁Akwụkwọ	-2562
▁ogologo	-2563
ump	-2564
zed	-2565
▁both	-2566
▁mind	-2567
ES	-2568
4.	-2569
▁tak	-2570
zugbo	-2571
ration	-2572
▁nde	-2573
▁tem	-2574
annin	-2575
atara	-2576
▁food	-2577
▁jiri	-2578
ikọ	-2579
▁nas	-2580
ired	-2581
▁alaeze	-2582
▁Ala	-2583
view	-2584
▁better	-2585
1.	-2586
▁bayanai	-2587
atu	-2588
gani	-2589
▁(2	-2590
▁Muhamma	-2591
GH	-2592
efe	-2593
mit	-2594
▁took	-2595
▁Not	-2596
▁top	-2597
▁2018	-2598
amụ	-2599
▁gburugburu	-2600
:8	-2601
eto	-2602
▁el	-2603
▁stop	-2604
▁akụkọ	-2605
▁Yana	-2606
▁https	-2607
Gịnị	-2608
unin	-2609
▁city	-2610
tagram	-2611
▁langu	-2612
▁kamata	-2613
▁pol	-2614
ists	-2615
▁hada	-2616
ekpe	-2617
▁kira	-2618
▁val	-2619
kpara	-2620
gg	-2621
▁Ana	-2622
▁ise	-2623
▁mod	-2624
▁Night	-2625
▁cikak	-2626
▁Ro	-2627
uthor	-2628
▁From	-2629
▁speci	-2630
▁ayyukan	-2631
▁himself	-2632
▁Ni	-2633
ortun	-2634
oul	-2635
fic	-2636
ense	-2637
▁ide	-2638
▁state	-2639
▁Ugbu	-2640
hir	-2641
We	-2642
:10	-2643
irin	-2644
▁Inst	-2645
-2	-2646
▁run	-2647
▁body	-2648
RI	-2649
▁Bo	-2650
MA	-2651
ej	-2652
▁ziri	-2653
umar	-2654
word	-2655
▁gaban	-2656
biyar	-2657
▁try	-2658
asino	-2659
yon	-2660
▁cond	-2661
gypt	-2662
▁vis	-2663
vent	-2664
▁est	-2665
▁won	-2666
▁Does	-2667
▁ciniki	-2668
raw	-2669
ton	-2670
▁sl	-2671
▁esi	-2672
▁dang	-2673
iver	-2674
▁prof	-2675
ership	-2676
▁kacha	-2677
urka	-2678
▁rem	-2679
▁account	-2680
▁lantarki	-2681
▁dan	-2682
▁po	-2683
▁dest	-2684
▁comes	-2685
WA	-2686
anen	-2687
▁nta	-2688
▁jiki	-2689
▁ways	-2690
witter	-2691
▁example	-2692
aron	-2693
▁2019	-2694
▁Egypt	-2695
▁Josef	-2696
ho	-2697
▁NDỊ	-2698
▁High	-2699
▁nnukwu	-2700
▁Wa	-2701
▁hot	-2702
▁having	-2703
tụrụ	-2704
What	-2705
họrọ	-2706
▁process	-2707
2.	-2708
▁saut	-2709
aika	-2710
▁Mas	-2711
▁bincike	-2712
▁manufa	-2713
▁obere	-2714
▁sakam	-2715
jiya	-2716
mer	-2717
▁Yes	-2718
▁yet	-2719
▁Where	-2720
▁ẹ	-2721
▁vers	-2722
▁sakamak	-2723
▁bindiga	-2724
▁amin	-2725
▁Next	-2726
ards	-2727
▁ọdị	-2728
DP	-2729
ubu	-2730
▁kok	-2731
gether	-2732
▁since	-2733
▁together	-2734
▁sta	-2735
matụ	-2736
▁prov	-2737
▁ọgụ	-2738
uli	-2739
▁3.	-2740
▁amụma	-2741
▁id	-2742
osed	-2743
▁Ekw	-2744
▁sit	-2745
▁mi	-2746
▁Intern	-2747
▁thought	-2748
▁Si	-2749
▁dem	-2750
▁kayayyakin	-2751
ently	-2752
▁mess	-2753
▁tsaya	-2754
himmanci	-2755
▁malitere	-2756
▁Ap	-2757
uwanci	-2758
kra	-2759
▁Amurka	-2760
▁forgiven	-2761
men	-2762
▁Mon	-2763
▁ọnwa	-2764
▁result	-2765
tact	-2766
▁abok	-2767
▁ban	-2768
▁karịrị	-2769
▁abubuwa	-2770
iken	-2771
▁whole	-2772
tụta	-2773
▁cry	-2774
▁chere	-2775
gal	-2776
ider	-2777
▁cre	-2778
▁Kw	-2779
▁gw	-2780
▁service	-2781
▁someone	-2782
▁ajọ	-2783
▁week	-2784
▁bịara	-2785
▁company	-2786
▁ak	-2787
ises	-2788
:9	-2789
allam	-2790
▁certain	-2791
ages	-2792
ases	-2793
▁news	-2794
osp	-2795
▁Shu	-2796
▁listen	-2797
Unu	-2798
▁ọbụna	-2799
.)	-2800
▁Mee	-2801
▁seen	-2802
▁Devid	-2803
▁software	-2804
ID	-2805
▁gy	-2806
▁kir	-2807
ified	-2808
▁kingdom	-2809
ON	-2810
ils	-2811
▁Ko	-2812
▁iP	-2813
yinye	-2814
▁near	-2815
uts	-2816
▁Gwamn	-2817
▁hours	-2818
une	-2819
▁die	-2820
kọrịta	-2821
zọpụta	-2822
▁information	-2823
ught	-2824
▁Amma	-2825
▁Read	-2826
bịa	-2827
ature	-2828
▁masa	-2829
ert	-2830
ito	-2831
▁ple	-2832
alm	-2833
lite	-2834
▁experi	-2835
▁kwụ	-2836
▁ilimi	-2837
▁kim	-2838
esa	-2839
ịta	-2840
oyin	-2841
▁whe	-2842
ready	-2843
▁tsara	-2844
▁kwe	-2845
▁Ọtụtụ	-2846
▁kamfanin	-2847
▁change	-2848
ended	-2849
▁Ukra	-2850
▁provid	-2851
▁agụ	-2852
▁kpe	-2853
▁second	-2854
▁Instagram	-2855
▁din	-2856
▁bid	-2857
bsite	-2858
▁issu	-2859
▁daida	-2860
▁anything	-2861
▁Kp	-2862
▁hu	-2863
▁Pres	-2864
▁though	-2865
▁aud	-2866
nt	-2867
ƙi	-2868
ral	-2869
▁ọchịchị	-2870
▁questions	-2871
▁Up	-2872
▁dri	-2873
ury	-2874
▁suff	-2875
▁Twitter	-2876
▁Yan	-2877
▁IS	-2878
▁Ib	-2879
▁achọ	-2880
▁includ	-2881
▁hon	-2882
atch	-2883
▁country	-2884
▁send	-2885
fan	-2886
▁Here	-2887
3.	-2888
ikpe	-2889
0.	-2890
oli	-2891
▁brought	-2892
▁Min	-2893
▁dara	-2894
▁answer	-2895
▁design	-2896
cip	-2897
Do	-2898
oko	-2899
ọnụ	-2900
▁gbara	-2901
▁hakan	-2902
▁Annabi	-2903
new	-2904
edit	-2905
▁ol	-2906
▁thy	-2907
▁kashe	-2908
cing	-2909
oice	-2910
umma	-2911
▁Lee	-2912
▁Spe	-2913
▁Biko	-2914
▁Par	-2915
▁Mana	-2916
▁osisi	-2917
athroom	-2918
▁god	-2919
;+	-2920
ef	-2921
ully	-2922
TA	-2923
▁dịrị	-2924
▁mult	-2925
▁Eng	-2926
▁kansa	-2927
He	-2928
▁abubuwan	-2929
▁Rom	-2930
▁asaa	-2931
yl	-2932
▁mp	-2933
ushe	-2934
ERE	-2935
▁Muna	-2936
▁spirit	-2937
vail	-2938
▁Some	-2939
▁main	-2940
▁already	-2941
▁disc	-2942
wee	-2943
▁ọrịa	-2944
aching	-2945
▁Pri	-2946
illed	-2947
▁worship	-2948
▁hold	-2949
▁bukatar	-2950
▁ekwesị	-2951
gth	-2952
▁Dr	-2953
▁Lab	-2954
▁vari	-2955
▁njem	-2956
gn	-2957
▁Prophe	-2958
▁supply	-2959
uw	-2960
amihe	-2961
▁tafi	-2962
▁ki	-2963
▁chaa	-2964
manụ	-2965
itten	-2966
jalis	-2967
▁ikwu	-2968
▁bit	-2969
▁oke	-2970
reham	-2971
▁ekwu	-2972
▁chang	-2973
chnology	-2974
gwè	-2975
laim	-2976
▁202	-2977
▁watan	-2978
deed	-2979
▁samfurin	-2980
anan	-2981
▁ịga	-2982
icial	-2983
▁babu	-2984
▁next	-2985
▁wind	-2986
▁themselves	-2987
CH	-2988
ead	-2989
obile	-2990
right	-2991
aut	-2992
▁Other	-2993
▁Onyenwe	-2994
kwụsị	-2995
▁trust	-2996
-3	-2997
In	-2998
▁Car	-2999
▁izu	-3000
rib	-3001
cen	-3002
▁wis	-3003
▁easy	-3004
▁asụsụ	-3005
▁clear	-3006
oo	-3007
tu	-3008
▁Ok	-3009
▁wadanda	-3010
▁imm	-3011
▁Afri	-3012
▁mor	-3013
oura	-3014
▁Shug	-3015
▁hanya	-3016
▁sabis	-3017
▁Bụ	-3018
etara	-3019
▁States	-3020
▁ịdị	-3021
▁cann	-3022
:-	-3023
iles	-3024
▁Isa	-3025
▁Please	-3026
▁=	-3027
▁knows	-3028
▁young	-3029
▁eyes	-3030
cted	-3031
▁prep	-3032
▁waɗ	-3033
▁halin	-3034
wered	-3035
▁tara	-3036
ọnwụ	-3037
▁taken	-3038
▁Ebreham	-3039
ƙa	-3040
oud	-3041
▁29	-3042
omi	-3043
▁im	-3044
ands	-3045
imiri	-3046
▁bara	-3047
▁bas	-3048
lex	-3049
▁ebube	-3050
▁interest	-3051
illion	-3052
▁shigar	-3053
!!	-3054
kọwa	-3055
▁Was	-3056
kk	-3057
▁Ra	-3058
▁Des	-3059
for	-3060
▁elect	-3061
sh	-3062
iru	-3063
▁Ndi	-3064
▁fire	-3065
▁appear	-3066
irc	-3067
▁real	-3068
▁pop	-3069
▁treat	-3070
mà	-3071
tar	-3072
▁opt	-3073
idi	-3074
came	-3075
▁Oge	-3076
▁rashin	-3077
hes	-3078
▁Di	-3079
▁Sai	-3080
▁akpọ	-3081
▁four	-3082
▁rage	-3083
▁peace	-3084
iwu	-3085
▁Tra	-3086
▁known	-3087
▁wurin	-3088
▁brothers	-3089
:7	-3090
karị	-3091
ided	-3092
ciken	-3093
eru	-3094
▁kafin	-3095
▁pos	-3096
:6	-3097
uci	-3098
ịza	-3099
▁cap	-3100
▁dig	-3101
▁ina	-3102
▁Fr	-3103
leep	-3104
nyere	-3105
▁Domin	-3106
▁abokan	-3107
ner	-3108
urch	-3109
▁Pita	-3110
▁Lokacin	-3111
▁Just	-3112
▁mach	-3113
▁small	-3114
▁nle	-3115
umi	-3116
iber	-3117
▁Yah	-3118
▁div	-3119
utere	-3120
era	-3121
▁PC	-3122
fully	-3123
▁anyone	-3124
▁reason	-3125
enụ	-3126
olu	-3127
ahịa	-3128
▁ume	-3129
umin	-3130
▁soul	-3131
▁bụkwa	-3132
▁answered	-3133
ony	-3134
▁""	-3135
▁Top	-3136
▁Kachi	-3137
▁const	-3138
eziokwu	-3139
▁nothing	-3140
ekw	-3141
▁Ed	-3142
▁Abu	-3143
▁ikom	-3144
▁wrong	-3145
▁jama	-3146
▁Enwere	-3147
onus	-3148
itions	-3149
▁31	-3150
▁Russ	-3151
aled	-3152
zon	-3153
ues	-3154
▁Part	-3155
▁leave	-3156
▁Windows	-3157
▁halitta	-3158
▁ịhụnanya	-3159
▁narị	-3160
▁Bayan	-3161
jalisar	-3162
ariya	-3163
▁commun	-3164
▁human	-3165
▁ozugbo	-3166
used	-3167
▁Jud	-3168
▁ikon	-3169
▁reme	-3170
▁appro	-3171
▁artic	-3172
▁intern	-3173
▁amamihe	-3174
ista	-3175
▁Slab	-3176
▁became	-3177
▁inf	-3178
▁siri	-3179
▁incre	-3180
▁Therefore	-3181
lam	-3182
kwanụ	-3183
▁doro	-3184
▁Mba	-3185
▁bango	-3186
OU	-3187
ify	-3188
▁mkpu	-3189
▁shafin	-3190
▁36	-3191
ikan	-3192
▁APC	-3193
ement	-3194
ories	-3195
▁stat	-3196
ots	-3197
rid	-3198
ten	-3199
icked	-3200
istory	-3201
▁transl	-3202
▁Sc	-3203
▁nụrụ	-3204
▁line	-3205
IS	-3206
▁Jo	-3207
▁Sha	-3208
▁big	-3209
▁friends	-3210
▁Ke	-3211
▁fasaha	-3212
erm	-3213
▁Has	-3214
▁wasan	-3215
ush	-3216
▁started	-3217
adu	-3218
aru	-3219
yle	-3220
▁ada	-3221
▁occ	-3222
▁gaskiya	-3223
itness	-3224
▁Cor	-3225
▁yanayi	-3226
unk	-3227
▁Pọl	-3228
▁kwuo	-3229
▁bad	-3230
▁sla	-3231
▁duba	-3232
▁ganin	-3233
▁kokarin	-3234
▁Ozi	-3235
▁break	-3236
▁materi	-3237
ians	-3238
raid	-3239
▁nanị	-3240
▁allow	-3241
▁gina	-3242
▁kusa	-3243
▁ƴ	-3244
ewe	-3245
aren	-3246
rap	-3247
▁fata	-3248
▁kudi	-3249
▁mmasị	-3250
ouch	-3251
▁within	-3252
ros	-3253
▁SE	-3254
enweta	-3255
▁haske	-3256
▁aikace	-3257
▁Previous	-3258
zz	-3259
▁60	-3260
▁ƴan	-3261
eti	-3262
akpa	-3263
▁Cont	-3264
vo	-3265
▁equ	-3266
▁gabatar	-3267
▁drink	-3268
mf	-3269
▁ngw	-3270
▁case	-3271
inyere	-3272
▁hands	-3273
▁meere	-3274
▁coming	-3275
ọk	-3276
ery	-3277
pos	-3278
▁ir	-3279
bel	-3280
cient	-3281
▁Trans	-3282
▁website	-3283
▁32	-3284
adda	-3285
apan	-3286
cent	-3287
▁rema	-3288
usal	-3289
ED	-3290
▁Art	-3291
▁uwe	-3292
▁success	-3293
ock	-3294
▁gani	-3295
oration	-3296
▁concer	-3297
▁Fa	-3298
▁mụrụ	-3299
▁abinci	-3300
ansa	-3301
▁sani	-3302
▁cutar	-3303
▁living	-3304
▁Cent	-3305
▁buru	-3306
▁rese	-3307
▁Best	-3308
▁zane	-3309
▁control	-3310
▁mov	-3311
egosi	-3312
▁2020	-3313
▁Musul	-3314
yoyin	-3315
▁Mic	-3316
▁red	-3317
▁making	-3318
▁written	-3319
▁Mr	-3320
▁mun	-3321
rag	-3322
▁4.	-3323
idar	-3324
▁Zamu	-3325
▁Anyasi	-3326
▁flo	-3327
▁Abin	-3328
▁Holy	-3329
▁Post	-3330
ruction	-3331
ison	-3332
▁kare	-3333
▁puku	-3334
▁side	-3335
▁ọnọdụ	-3336
▁nwanyị	-3337
uality	-3338
▁strong	-3339
aaKa	-3340
▁Kachifo	-3341
▁ỌbụaaKa	-3342
ilar	-3343
obin	-3344
▁language	-3345
▁receive	-3346
▁dole	-3347
▁once	-3348
▁wasa	-3349
ny	-3350
▁past	-3351
▁bayani	-3352
utes	-3353
▁Kayan	-3354
▁effect	-3355
▁present	-3356
▁Mme	-3357
emgbe	-3358
gress	-3359
wards	-3360
▁Isi	-3361
ịs	-3362
▁sing	-3363
▁applic	-3364
▁cikakken	-3365
▁ahu	-3366
▁Play	-3367
▁prayer	-3368
▁yankin	-3369
▁rị	-3370
roid	-3371
▁job	-3372
▁Aust	-3373
arch	-3374
▁olu	-3375
▁makes	-3376
:11	-3377
lling	-3378
▁Japan	-3379
▁offer	-3380
▁ruwan	-3381
▁afraid	-3382
▁shekarar	-3383
▁Mak	-3384
▁ịma	-3385
▁Prophet	-3386
▁sy	-3387
▁PDP	-3388
▁haif	-3389
"."	-3390
ghe	-3391
▁bapt	-3392
▁dịka	-3393
▁ohere	-3394
▁ehihie	-3395
▁school	-3396
add	-3397
biri	-3398
idai	-3399
▁Acc	-3400
▁low	-3401
asure	-3402
▁memb	-3403
▁cannot	-3404
aper	-3405
▁Produ	-3406
▁Spirit	-3407
▁choose	-3408
kpo	-3409
▁tab	-3410
▁Make	-3411
▁knew	-3412
gs	-3413
eries	-3414
ped	-3415
▁Net	-3416
▁These	-3417
ability	-3418
▁Fe	-3419
rent	-3420
:18	-3421
...]	-3422
▁inwe	-3423
▁following	-3424
▁relations	-3425
org	-3426
emekwa	-3427
▁tsaro	-3428
ccen	-3429
chaa	-3430
maka	-3431
shen	-3432
▁Noa	-3433
▁needs	-3434
ency	-3435
vailable	-3436
▁gyara	-3437
▁Jac	-3438
▁reve	-3439
▁Jami	-3440
ret	-3441
▁Mụ	-3442
▁age	-3443
▁2016	-3444
▁ib	-3445
:15	-3446
ising	-3447
ọpụta	-3448
▁Black	-3449
▁ọka	-3450
▁wasanni	-3451
▁gre	-3452
▁sil	-3453
▁duka	-3454
▁perform	-3455
uture	-3456
lection	-3457
▁bayyan	-3458
▁kull	-3459
▁Jerusal	-3460
10	-3461
▁→	-3462
▁San	-3463
▁forgive	-3464
▁Per	-3465
▁kwu	-3466
▁Nn	-3467
▁lee	-3468
▁[...]	-3469
▁kungiyar	-3470
▁possible	-3471
▁Gb	-3472
warar	-3473
▁alama	-3474
▁Peter	-3475
elf	-3476
ayil	-3477
port	-3478
ato	-3479
kwuo	-3480
▁Take	-3481
▁zafi	-3482
▁stone	-3483
▁,	-3484
▁hope	-3485
▁enough	-3486
▁Ina	-3487
▁Nor	-3488
▁fur	-3489
▁kuwa	-3490
ducation	-3491
▁Mmadụ	-3492
▁began	-3493
▁public	-3494
AL	-3495
far	-3496
▁thir	-3497
▁daidai	-3498
▁shirin	-3499
▁bil	-3500
▁bro	-3501
▁ákw	-3502
bur	-3503
▁Bl	-3504
amara	-3505
▁Akwai	-3506
▁sound	-3507
▁months	-3508
▁sannan	-3509
▁Ah	-3510
Olee	-3511
ekwe	-3512
banye	-3513
▁tamb	-3514
▁doesn	-3515
▁Christian	-3516
▁please	-3517
kpụrụ	-3518
▁First	-3519
But	-3520
▁1,	-3521
▁Bar	-3522
▁died	-3523
▁inji	-3524
▁kunne	-3525
▁zaman	-3526
▁shirya	-3527
▁Jerusalem	-3528
oles	-3529
▁emp	-3530
▁2015	-3531
▁bakin	-3532
▁course	-3533
▁students	-3534
▁enter	-3535
▁share	-3536
▁indust	-3537
?+	-3538
:13	-3539
▁Mal	-3540
▁dab	-3541
▁nwanne	-3542
oki	-3543
▁Im	-3544
▁gha	-3545
▁net	-3546
▁gizo	-3547
▁story	-3548
vir	-3549
unta	-3550
▁mom	-3551
▁hannu	-3552
▁worth	-3553
▁sauti	-3554
zuk	-3555
▁CH	-3556
▁Sm	-3557
▁mak	-3558
▁zan	-3559
▁wanted	-3560
onwe	-3561
▁Job	-3562
For	-3563
▁morning	-3564
▁Site	-3565
▁benef	-3566
▁using	-3567
àjà	-3568
akwụkwọ	-3569
▁oper	-3570
▁hannun	-3571
▁working	-3572
▁products	-3573
nwa	-3574
▁key	-3575
▁kill	-3576
IT	-3577
ateg	-3578
ides	-3579
▁nzu	-3580
▁Because	-3581
▁English	-3582
OS	-3583
iqu	-3584
row	-3585
▁Fin	-3586
▁rah	-3587
▁else	-3588
▁isii	-3589
▁South	-3590
▁wants	-3591
abe	-3592
ource	-3593
▁Maka	-3594
:14	-3595
ria	-3596
▁Bel	-3597
▁para	-3598
ically	-3599
▁accept	-3600
▁specific	-3601
▁tana	-3602
▁angel	-3603
▁stri	-3604
▁Ọkpara	-3605
assa	-3606
lied	-3607
▁eff	-3608
▁mes	-3609
erede	-3610
▁girl	-3611
▁Babban	-3612
▁laghachi	-3613
Ma	-3614
ram	-3615
▁stay	-3616
anks	-3617
▁Abụ	-3618
▁blood	-3619
▁National	-3620
▁umar	-3621
▁dream	-3622
▁ọmụmụ	-3623
▁misali	-3624
▁version	-3625
ned	-3626
▁ezu	-3627
▁stru	-3628
▁sauki	-3629
▁mid	-3630
ulation	-3631
▁kyauta	-3632
alụ	-3633
▁Bet	-3634
It	-3635
This	-3636
▁ANY	-3637
▁kasashen	-3638
▁born	-3639
▁ingancin	-3640
▁jagor	-3641
▁least	-3642
hone	-3643
▁daugh	-3644
▁author	-3645
▁therefore	-3646
kwo	-3647
hazi	-3648
rafa	-3649
▁anti	-3650
▁later	-3651
gwà	-3652
ayar	-3653
SS	-3654
my	-3655
udu	-3656
▁Many	-3657
▁ones	-3658
▁matsa	-3659
ols	-3660
▁Aga	-3661
▁email	-3662
▁article	-3663
LE	-3664
ora	-3665
usb	-3666
▁lik	-3667
▁zara	-3668
cturer	-3669
wun	-3670
▁33	-3671
▁getting	-3672
▁Whi	-3673
▁grow	-3674
▁Ukraine	-3675
ota	-3676
ulf	-3677
▁ịch	-3678
lad	-3679
▁Ku	-3680
▁happy	-3681
▁njọ	-3682
▁Meri	-3683
ufe	-3684
▁ịm	-3685
rịrị	-3686
ences	-3687
ubere	-3688
▁Free	-3689
▁ó	-3690
▁Mess	-3691
lished	-3692
▁report	-3693
urs	-3694
▁Noah	-3695
▁Serv	-3696
▁maza	-3697
▁onyinye	-3698
xy	-3699
▁lamb	-3700
:17	-3701
▁ịtụ	-3702
▁Para	-3703
▁dalib	-3704
was	-3705
asar	-3706
pped	-3707
▁yarda	-3708
▁Muhammad	-3709
▁available	-3710
▁kana	-3711
utt	-3712
▁Aka	-3713
allen	-3714
▁wall	-3715
▁wuri	-3716
▁mutanen	-3717
lick	-3718
▁tatt	-3719
hic	-3720
egbu	-3721
▁Haram	-3722
▁ikpeazụ	-3723
▁GA	-3724
▁whether	-3725
woro	-3726
▁Sub	-3727
kwuru	-3728
▁isiokwu	-3729
▁farashin	-3730
▁gụ	-3731
▁sk	-3732
▁host	-3733
▁waya	-3734
▁bonus	-3735
▁stren	-3736
▁special	-3737
▁government	-3738
hè	-3739
"..	-3740
▁Ge	-3741
▁kark	-3742
▁muna	-3743
▁cause	-3744
oyi	-3745
▁Mm	-3746
▁haifar	-3747
▁nyocha	-3748
▁everyone	-3749
cut	-3750
▁Feb	-3751
▁riga	-3752
▁experience	-3753
ewa	-3754
mme	-3755
▁Oh	-3756
▁nụ	-3757
aman	-3758
kkya	-3759
▁page	-3760
▁farin	-3761
▁voice	-3762
▁ɗa	-3763
▁matsalar	-3764
irm	-3765
▁CO	-3766
▁biri	-3767
▁fayil	-3768
▁sakamakon	-3769
▁Jagor	-3770
▁Tsarin	-3771
work	-3772
▁rayuwa	-3773
▁kawo	-3774
▁shafi	-3775
▁taking	-3776
▁Sy	-3777
▁tsawon	-3778
ila	-3779
▁TV	-3780
▁Ben	-3781
ounter	-3782
cce	-3783
▁parents	-3784
▁43	-3785
▁ọmụma	-3786
▁35	-3787
pping	-3788
ney	-3789
▁El	-3790
ayen	-3791
▁Ang	-3792
▁estab	-3793
▁Quality	-3794
kè	-3795
▁ụra	-3796
▁Boko	-3797
eder	-3798
▁See	-3799
▁Marmara	-3800
If	-3801
▁Iran	-3802
▁cast	-3803
▁Jacob	-3804
▁above	-3805
▁media	-3806
▁President	-3807
ets	-3808
▁fre	-3809
▁NKE	-3810
abata	-3811
▁Every	-3812
▁makar	-3813
▁sanar	-3814
▁Online	-3815
br	-3816
họ	-3817
:12	-3818
▁akw	-3819
▁etc	-3820
▁Onyx	-3821
cience	-3822
▁Ci	-3823
onye	-3824
▁ọcha	-3825
▁Fl	-3826
dalla	-3827
▁Wall	-3828
▁beginning	-3829
:20	-3830
uck	-3831
▁MA	-3832
▁Year	-3833
▁ije	-3834
lem	-3835
▁jo	-3836
lace	-3837
▁Phi	-3838
▁promise	-3839
comm	-3840
▁Ọzọ	-3841
▁Book	-3842
▁Ja	-3843
ior	-3844
pụghị	-3845
▁respect	-3846
iet	-3847
▁save	-3848
bie	-3849
▁thee	-3850
ugu	-3851
▁akụkụ	-3852
▁Alaeze	-3853
▁zitere	-3854
▁provide	-3855
▁bada	-3856
ountain	-3857
joy	-3858
▁Ca	-3859
Onye	-3860
ibility	-3861
▁wisdom	-3862
▁sarrafa	-3863
▁Em	-3864
▁Tun	-3865
omatik	-3866
▁jar	-3867
▁kasuwanci	-3868
face	-3869
▁abịa	-3870
▁akpa	-3871
▁less	-3872
chụàjà	-3873
eje	-3874
▁Gl	-3875
zukọ	-3876
gharịa	-3877
▁wicked	-3878
▁taimakon	-3879
BI	-3880
▁Jam	-3881
▁jer	-3882
uran	-3883
▁ez	-3884
▁program	-3885
fer	-3886
kwas	-3887
▁Bay	-3888
▁arz	-3889
▁obs	-3890
▁Laser	-3891
▁aut	-3892
▁Musa	-3893
▁Ụfọdụ	-3894
▁destro	-3895
▁perfect	-3896
▁binciken	-3897
gre	-3898
▁nkw	-3899
▁obe	-3900
▁2013	-3901
▁thous	-3902
▁tsari	-3903
▁Stud	-3904
▁neman	-3905
▁tsaye	-3906
KA	-3907
dd	-3908
▁Jon	-3909
▁alb	-3910
▁iPhone	-3911
8.	-3912
:16	-3913
▁Lead	-3914
▁dịkwa	-3915
▁often	-3916
Ya	-3917
▁Dep	-3918
ejere	-3919
itted	-3920
▁Know	-3921
▁Shugaban	-3922
kpụ	-3923
▁War	-3924
▁ver	-3925
▁kwan	-3926
▁gives	-3927
inks	-3928
obodo	-3929
▁yayi	-3930
▁yiri	-3931
Mat	-3932
urity	-3933
▁enem	-3934
▁sleep	-3935
▁Android	-3936
ping	-3937
▁fav	-3938
astic	-3939
ouble	-3940
▁5.	-3941
▁mo	-3942
ruit	-3943
▁kowace	-3944
▁Najeriya	-3945
kai	-3946
▁City	-3947
▁along	-3948
oub	-3949
▁ụjọ	-3950
▁camp	-3951
pes	-3952
kewa	-3953
▁beh	-3954
▁price	-3955
ams	-3956
▁Og	-3957
▁Bus	-3958
▁Gre	-3959
conom	-3960
▁Kano	-3961
▁ụmụnna	-3962
YA	-3963
▁Aha	-3964
▁happen	-3965
▁heavens	-3966
head	-3967
▁cov	-3968
▁saka	-3969
▁conne	-3970
chịkọta	-3971
▁jirgin	-3972
▁Bathroom	-3973
osiri	-3974
ending	-3975
▁ready	-3976
▁short	-3977
▁myself	-3978
▁ahụhụ	-3979
▁works	-3980
▁Govern	-3981
ẹn	-3982
urre	-3983
▁kashi	-3984
▁remember	-3985
4,	-3986
Na	-3987
hew	-3988
irs	-3989
▁forgiveness	-3990
iw	-3991
zar	-3992
agen	-3993
▁husb	-3994
▁longer	-3995
▁ụgbọala	-3996
yom	-3997
ilin	-3998
ivid	-3999
▁Oct	-4000
▁atta	-4001
1,	-4002
son	-4003
▁du	-4004
▁Supp	-4005
most	-4006
▁Abub	-4007
▁Solom	-4008
▁opportun	-4009
itus	-4010
▁ụka	-4011
▁ọgụgụ	-4012
▁future	-4013
ured	-4014
▁oriri	-4015
▁karanta	-4016
gment	-4017
▁beaut	-4018
where	-4019
▁fahim	-4020
▁respons	-4021
▁waɗanda	-4022
▁Nd	-4023
play	-4024
▁Her	-4025
▁Tim	-4026
▁Enwe	-4027
▁move	-4028
▁Musulunci	-4029
▁ịmụ	-4030
▁Even	-4031
▁dalla	-4032
▁press	-4033
▁problem	-4034
cewa	-4035
abalị	-4036
▁igwe	-4037
▁watch	-4038
.'	-4039
▁Kam	-4040
▁ndu	-4041
▁rea	-4042
▁level	-4043
▁yara	-4044
artment	-4045
▁Allahu	-4046
▁neither	-4047
top	-4048
ring	-4049
erence	-4050
▁health	-4051
▁research	-4052
iter	-4053
▁Dan	-4054
▁Law	-4055
▁enc	-4056
ption	-4057
▁music	-4058
▁sallam	-4059
▁isn	-4060
▁buga	-4061
ụkwụ	-4062
kwute	-4063
OL	-4064
▁agwa	-4065
▁step	-4066
mes	-4067
soci	-4068
mahịa	-4069
▁Life	-4070
▁chọọ	-4071
9,	-4072
ront	-4073
jojin	-4074
▁gban	-4075
gbochi	-4076
itting	-4077
par	-4078
▁họ	-4079
woke	-4080
▁Saboda	-4081
▁fast	-4082
▁proper	-4083
by	-4084
ills	-4085
▁okp	-4086
▁bude	-4087
gbakọ	-4088
▁Chukwu	-4089
▁hà	-4090
▁mos	-4091
▁nufin	-4092
▁bã	-4093
aran	-4094
▁musu	-4095
▁type	-4096
▁sauri	-4097
▁tre	-4098
▁Mere	-4099
ileanya	-4100
2,	-4101
uter	-4102
▁fulf	-4103
▁expla	-4104
7.	-4105
▁hana	-4106
▁ụgha	-4107
▁karfi	-4108
▁hy	-4109
ored	-4110
akụkụ	-4111
▁mouth	-4112
▁ɓ	-4113
▁Off	-4114
▁alihi	-4115
▁alone	-4116
▁matter	-4117
Ch	-4118
NA	-4119
dọ	-4120
atiu	-4121
▁burn	-4122
▁Os	-4123
▁nji	-4124
▁List	-4125
▁nọrọ	-4126
25	-4127
ances	-4128
▁decl	-4129
▁pụta	-4130
▁canza	-4131
▁however	-4132
▁nations	-4133
▁ngwaahịa	-4134
ems	-4135
0000	-4136
dide	-4137
▁eru	-4138
▁mul	-4139
▁situ	-4140
atthew	-4141
▁quick	-4142
▁atụmatụ	-4143
eds	-4144
▁Kor	-4145
▁nku	-4146
▁ìgwè	-4147
▁style	-4148
ensu	-4149
utun	-4150
▁sat	-4151
▁kwal	-4152
▁pati	-4153
▁jerin	-4154
ious	-4155
acher	-4156
▁gosi	-4157
▁juya	-4158
▁talk	-4159
ably	-4160
ober	-4161
▁Kwa	-4162
veral	-4163
▁Kama	-4164
atever	-4165
▁birth	-4166
.,	-4167
pu	-4168
Why	-4169
ughe	-4170
ember	-4171
▁trad	-4172
▁farkon	-4173
▁destroy	-4174
▁happened	-4175
pa	-4176
oday	-4177
pose	-4178
▁Out	-4179
press	-4180
salla	-4181
▁biya	-4182
▁loss	-4183
ciples	-4184
▁Nat	-4185
cking	-4186
itute	-4187
▁complet	-4188
▁kusan	-4189
icult	-4190
utsen	-4191
▁gano	-4192
aikata	-4193
AD	-4194
OD	-4195
▁Hot	-4196
▁ewu	-4197
▁Nsọ	-4198
zation	-4199
▁Ọma	-4200
hief	-4201
aling	-4202
▁Cons	-4203
▁àgwà	-4204
▁ụkwụ	-4205
mba	-4206
▁kụ	-4207
▁Samu	-4208
▁necess	-4209
▁looking	-4210
ern	-4211
▁198	-4212
▁tsan	-4213
▁forth	-4214
▁America	-4215
▁←	-4216
▁ịrụ	-4217
time	-4218
aniel	-4219
▁100%	-4220
▁Down	-4221
▁shak	-4222
">	-4223
▁fito	-4224
▁tree	-4225
ourage	-4226
▁mmalite	-4227
mas	-4228
ril	-4229
ests	-4230
▁image	-4231
▁gwajin	-4232
▁received	-4233
can	-4234
▁alụ	-4235
▁wucin	-4236
cret	-4237
▁Men	-4238
oring	-4239
▁close	-4240
▁cover	-4241
▁enjoy	-4242
▁kwụsị	-4243
▁Casino	-4244
▁hak	-4245
▁hig	-4246
▁ruru	-4247
▁married	-4248
▁Would	-4249
▁goyon	-4250
amba	-4251
yanwụ	-4252
15	-4253
▁Nso	-4254
▁hor	-4255
eriod	-4256
▁ákwá	-4257
▁Islam	-4258
▁Business	-4259
60	-4260
Abụ	-4261
3)	-4262
ebuli	-4263
▁Paris	-4264
▁expect	-4265
aku	-4266
cil	-4267
val	-4268
▁KA	-4269
riage	-4270
▁House	-4271
▁glory	-4272
▁witness	-4273
-4	-4274
ghịkwa	-4275
▁kyakkya	-4276
▁bur	-4277
▁plan	-4278
▁People	-4279
▁Bir	-4280
▁ìhè	-4281
kwala	-4282
▁lie	-4283
istan	-4284
▁taron	-4285
▁shirye	-4286
▁addition	-4287
▁consider	-4288
▁Yadda	-4289
▁Yanzu	-4290
▁buy	-4291
▁Great	-4292
▁loved	-4293
▁pract	-4294
▁weebụ	-4295
▁Africa	-4296
gọ	-4297
▁Ac	-4298
▁Nche	-4299
▁kemgbe	-4300
▁miliyan	-4301
Bet	-4302
ORD	-4303
lete	-4304
mọdụ	-4305
▁Sec	-4306
▁spoke	-4307
IC	-4308
sy	-4309
allon	-4310
▁Power	-4311
▁achie	-4312
▁kansu	-4313
▁servants	-4314
nd	-4315
oft	-4316
▁gbu	-4317
▁Solomon	-4318
▁actually	-4319
void	-4320
▁biko	-4321
▁servant	-4322
▁fal	-4323
▁Start	-4324
▁gosiri	-4325
▁atomatik	-4326
▁including	-4327
▁34	-4328
ners	-4329
anuary	-4330
▁muhimmanci	-4331
ights	-4332
utions	-4333
tr	-4334
ela	-4335
▁matakin	-4336
cus	-4337
▁Mi	-4338
▁Ear	-4339
▁bra	-4340
▁Daga	-4341
aly	-4342
▁Ụdị	-4343
cially	-4344
ential	-4345
▁mercy	-4346
innitus	-4347
▁azụmahịa	-4348
ehi	-4349
enes	-4350
anetị	-4351
▁group	-4352
uwancin	-4353
ahar	-4354
▁Sim	-4355
▁akara	-4356
essional	-4357
iful	-4358
▁turned	-4359
▁million	-4360
▁gift	-4361
▁zabi	-4362
▁games	-4363
▁saịtị	-4364
▁search	-4365
▁Contact	-4366
uf	-4367
godị	-4368
▁Iwu	-4369
▁boy	-4370
▁path	-4371
▁zuci	-4372
ividual	-4373
▁School	-4374
▁ourselves	-4375
llo	-4376
▁pun	-4377
▁five	-4378
▁koma	-4379
▁black	-4380
▁yanke	-4381
asha	-4382
aniya	-4383
zọụkwụ	-4384
▁ochie	-4385
▁Sup	-4386
▁Look	-4387
▁dalibai	-4388
▁exce	-4389
asinos	-4390
▁mayar	-4391
▁tafiya	-4392
ep	-4393
▁Bra	-4394
ideos	-4395
▁based	-4396
▁girman	-4397
▁mmetụta	-4398
▁6.	-4399
lege	-4400
▁SEO	-4401
▁kal	-4402
▁win	-4403
▁ezie	-4404
kwaghị	-4405
ication	-4406
▁problems	-4407
tù	-4408
▁siff	-4409
▁White	-4410
▁kudin	-4411
▁mmanụ	-4412
30	-4413
ux	-4414
zing	-4415
itive	-4416
▁market	-4417
▁January	-4418
▁countries	-4419
ido	-4420
Anyị	-4421
lesh	-4422
▁rufe	-4423
▁Health	-4424
chiri	-4425
jects	-4426
▁amsa	-4427
▁injin	-4428
▁seven	-4429
▁osimiri	-4430
▁ịrị	-4431
▁relationship	-4432
▁Mag	-4433
▁view	-4434
rew	-4435
ror	-4436
abin	-4437
▁joy	-4438
▁Nwere	-4439
▁atụrụ	-4440
▁cibiyar	-4441
/?	-4442
LA	-4443
ips	-4444
ball	-4445
side	-4446
▁Dec	-4447
aikace	-4448
▁access	-4449
▁mobile	-4450
ain	-4451
▁Atụ	-4452
ruary	-4453
etimes	-4454
debe	-4455
ament	-4456
▁impro	-4457
elt	-4458
▁Tal	-4459
keting	-4460
▁makam	-4461
EN	-4462
jụjụ	-4463
▁eto	-4464
▁isa	-4465
▁mam	-4466
▁njikọ	-4467
gwù	-4468
▁hop	-4469
▁inyom	-4470
▁ve	-4471
raph	-4472
anel	-4473
▁lat	-4474
▁tot	-4475
▁bank	-4476
▁kuna	-4477
uselem	-4478
▁history	-4479
▁Jeruselem	-4480
▁x	-4481
▁cost	-4482
▁shar	-4483
itical	-4484
▁litta	-4485
▁mataki	-4486
▁mgbanwe	-4487
▁non	-4488
▁sex	-4489
▁kamfan	-4490
Yan	-4491
iyi	-4492
▁Fo	-4493
▁Air	-4494
▁Rel	-4495
▁rai	-4496
▁LORD	-4497
▁large	-4498
▁kpatara	-4499
▁karkashin	-4500
▁wo	-4501
▁deb	-4502
▁righteousness	-4503
nọ	-4504
ese	-4505
▁Test	-4506
▁kwamf	-4507
WU	-4508
▁Mad	-4509
▁roba	-4510
▁shalt	-4511
▁hasken	-4512
▁period	-4513
▁Kingdom	-4514
▁Sat	-4515
▁six	-4516
▁Most	-4517
akan	-4518
▁Say	-4519
▁Name	-4520
pecially	-4521
My	-4522
fort	-4523
itin	-4524
amban	-4525
▁dark	-4526
▁India	-4527
▁technology	-4528
▁Act	-4529
ivity	-4530
▁hund	-4531
▁kada	-4532
resent	-4533
▁accom	-4534
▁mkpọrọ	-4535
▁building	-4536
ɓi	-4537
abar	-4538
▁whose	-4539
▁protect	-4540
▁90	-4541
Press	-4542
aract	-4543
▁ANYỊ	-4544
chamara	-4545
▁February	-4546
umb	-4547
▁dak	-4548
▁ill	-4549
▁gadi	-4550
▁serve	-4551
▁Daniel	-4552
▁nation	-4553
apa	-4554
ross	-4555
attle	-4556
▁Tare	-4557
▁Stand	-4558
▁nhọrọ	-4559
▁nasara	-4560
wel	-4561
onse	-4562
▁hid	-4563
▁size	-4564
▁saman	-4565
HA	-4566
gwo	-4567
ethod	-4568
iyyar	-4569
▁Time	-4570
▁difficult	-4571
kọb	-4572
mat	-4573
▁Eke	-4574
▁lay	-4575
▁circ	-4576
▁scre	-4577
▁several	-4578
lin	-4579
yịn	-4580
ewed	-4581
▁Mac	-4582
▁sadarwa	-4583
▁ù	-4584
Ihe	-4585
aima	-4586
▁ọdụ	-4587
▁Gener	-4588
▁recog	-4589
How	-4590
▁Reg	-4591
▁air	-4592
▁Karfe	-4593
▁flesh	-4594
▁dauki	-4595
▁lives	-4596
▁takes	-4597
▁visit	-4598
ady	-4599
olic	-4600
▁ris	-4601
cious	-4602
▁Today	-4603
attauna	-4604
ungiyar	-4605
▁development	-4606
▁ile	-4607
abere	-4608
▁walk	-4609
▁dashi	-4610
wasound	-4611
▁management	-4612
Be	-4613
ARA	-4614
▁MP	-4615
eweda	-4616
▁+0000	-4617
▁ndụmọdụ	-4618
▁tattalin	-4619
ola	-4620
oked	-4621
▁fem	-4622
fects	-4623
zarin	-4624
▁ƙasa	-4625
iwatar	-4626
▁Samuel	-4627
▁indeed	-4628
▁magani	-4629
raft	-4630
▁Ụzọ	-4631
ishin	-4632
▁jakar	-4633
▁truly	-4634
▁Should	-4635
▁amount	-4636
▁kimiyya	-4637
ley	-4638
irar	-4639
tery	-4640
▁fari	-4641
-19	-4642
acy	-4643
▁art	-4644
▁wel	-4645
▁area	-4646
▁Jekọb	-4647
▁Usoro	-4648
▁record	-4649
▁forever	-4650
▁individual	-4651
▁Es	-4652
alci	-4653
eria	-4654
▁Hel	-4655
▁gaf	-4656
▁2014	-4657
▁2021	-4658
▁direct	-4659
▁okenye	-4660
▁ụmụaka	-4661
▁husband	-4662
onụ	-4663
▁37	-4664
▁80	-4665
▁IT	-4666
icip	-4667
▁ịzụ	-4668
▁Kamar	-4669
▁fitar	-4670
▁popular	-4671
▁respond	-4672
▁Ahụ	-4673
lement	-4674
▁claim	-4675
urrection	-4676
▁download	-4677
ubi	-4678
▁fr	-4679
▁Juu	-4680
▁Ndụ	-4681
▁Jade	-4682
▁holy	-4683
rosoft	-4684
▁Script	-4685
▁ụmụnne	-4686
▁Ime	-4687
istry	-4688
▁kuka	-4689
▁ịkpọ	-4690
OT	-4691
▁iz	-4692
▁Yor	-4693
▁clean	-4694
▁Natural	-4695
ij	-4696
▁char	-4697
▁class	-4698
▁Comments	-4699
▁material	-4700
aṅụ	-4701
▁Dece	-4702
▁hath	-4703
▁Ajụjụ	-4704
▁Ijipt	-4705
▁sunan	-4706
▁megide	-4707
▁Akụ	-4708
▁Jos	-4709
▁wid	-4710
▁gold	-4711
ession	-4712
▁fruit	-4713
▁October	-4714
▁UK	-4715
▁aik	-4716
▁rul	-4717
▁ten	-4718
▁soro	-4719
chọpụta	-4720
▁arziki	-4721
ZI	-4722
kes	-4723
▁Ag	-4724
▁Bi	-4725
▁Ver	-4726
▁muka	-4727
▁Apple	-4728
▁Ty	-4729
akwụ	-4730
▁arri	-4731
▁foot	-4732
▁wuce	-4733
▁wuta	-4734
▁asatọ	-4735
zụzụ	-4736
▁ran	-4737
▁carry	-4738
:28	-4739
bed	-4740
ọma	-4741
▁--	-4742
▁Gal	-4743
▁rik	-4744
ification	-4745
rọn	-4746
iled	-4747
▁Eli	-4748
▁Yin	-4749
▁Aaron	-4750
:19	-4751
▁Port	-4752
▁exist	-4753
jar	-4754
alli	-4755
sure	-4756
▁taka	-4757
▁early	-4758
▁ekele	-4759
▁reali	-4760
awa	-4761
ler	-4762
▁Fri	-4763
▁Eche	-4764
4)	-4765
5,	-4766
rench	-4767
viron	-4768
▁except	-4769
▁needed	-4770
▁bukatun	-4771
▁current	-4772
▁hukumar	-4773
],	-4774
▁Ee	-4775
▁197	-4776
▁abs	-4777
▁ghọ	-4778
▁raba	-4779
▁nchụàjà	-4780
fafa	-4781
obal	-4782
▁teach	-4783
▁strength	-4784
▁tw	-4785
▁Jin	-4786
▁aid	-4787
▁kore	-4788
▁various	-4789
▁~	-4790
▁Mut	-4791
▁room	-4792
▁taba	-4793
▁labarai	-4794
icy	-4795
▁Hal	-4796
▁ayyuka	-4797
▁apology	-4798
key	-4799
▁iro	-4800
kwere	-4801
▁Prof	-4802
▁rele	-4803
▁otuto	-4804
▁content	-4805
▁deta	-4806
▁WordPress	-4807
SA	-4808
gest	-4809
edebe	-4810
itude	-4811
▁Egwu	-4812
▁fadi	-4813
▁repent	-4814
▁rubuta	-4815
▁Microsoft	-4816
▁tsoh	-4817
▁International	-4818
▁Ru	-4819
▁Sal	-4820
▁muku	-4821
▁kwesị	-4822
▁Imp	-4823
▁Blog	-4824
▁belong	-4825
▁casinos	-4826
arewa	-4827
▁Ol	-4828
ming	-4829
▁Bin	-4830
▁pra	-4831
▁àmà	-4832
▁giving	-4833
▁mmanya	-4834
▁address	-4835
▁challen	-4836
▁require	-4837
▁December	-4838
WE	-4839
▁Gir	-4840
▁Nai	-4841
▁wak	-4842
▁phot	-4843
▁create	-4844
▁minutes	-4845
7,	-4846
bia	-4847
aria	-4848
▁Pay	-4849
▁gane	-4850
▁behind	-4851
onin	-4852
abara	-4853
idere	-4854
▁iska	-4855
▁rawa	-4856
allace	-4857
▁product	-4858
▁Wr	-4859
▁ịjụ	-4860
▁Sept	-4861
▁American	-4862
▁university	-4863
lls	-4864
▁team	-4865
verter	-4866
▁judgment	-4867
ado	-4868
▁faru	-4869
▁tunani	-4870
▁tinnitus	-4871
iyoyin	-4872
▁organi	-4873
▁anyanwụ	-4874
▁greater	-4875
▁Republic	-4876
inch	-4877
▁ubi	-4878
▁ekpe	-4879
enesis	-4880
▁gizon	-4881
▁position	-4882
lier	-4883
▁lim	-4884
▁pụọ	-4885
▁kids	-4886
▁gaske	-4887
▁relig	-4888
▁baby	-4889
▁lost	-4890
xBet	-4891
▁gil	-4892
▁sho	-4893
daịs	-4894
just	-4895
▁ịkp	-4896
▁igbu	-4897
▁okpu	-4898
▁Russia	-4899
ighb	-4900
▁led	-4901
▁cyan	-4902
▁nkwadide	-4903
adem	-4904
ointed	-4905
▁quite	-4906
▁advice	-4907
BA	-4908
SO	-4909
Jọn	-4910
bibi	-4911
itle	-4912
ument	-4913
▁poor	-4914
▁song	-4915
▁marriage	-4916
ako	-4917
ris	-4918
rate	-4919
▁gur	-4920
▁adalci	-4921
▁killed	-4922
▁aiwatar	-4923
3,	-4924
TM	-4925
agaghị	-4926
▁depart	-4927
▁continu	-4928
▁decision	-4929
▁hanyoyin	-4930
kee	-4931
▁ee	-4932
unch	-4933
▁Blu	-4934
▁machine	-4935
ding	-4936
atures	-4937
▁zamani	-4938
ikh	-4939
▁Sk	-4940
▁Yet	-4941
▁inc	-4942
▁laa	-4943
▁Jews	-4944
ternal	-4945
▁Child	-4946
▁attention	-4947
▁olileanya	-4948
All	-4949
umm	-4950
▁THE	-4951
▁pie	-4952
▁anim	-4953
▁study	-4954
▁value	-4955
▁bri	-4956
▁members	-4957
▁continue	-4958
▁pub	-4959
itable	-4960
▁takard	-4961
▁industry	-4962
▁38	-4963
fiyar	-4964
▁Anya	-4965
▁Keep	-4966
▁draw	-4967
kwunye	-4968
▁perse	-4969
▁ọkachamara	-4970
▁Ƙ	-4971
hab	-4972
▁dee	-4973
▁steel	-4974
▁ground	-4975
▁meeting	-4976
▁daidaita	-4977
▁Nj	-4978
▁vi	-4979
adum	-4980
▁Mis	-4981
▁foto	-4982
▁North	-4983
IL	-4984
201	-4985
▁Ibe	-4986
▁Ken	-4987
▁achị	-4988
▁obey	-4989
akwado	-4990
▁Bakin	-4991
▁nkịtị	-4992
▁birnin	-4993
▁promised	-4994
▁self	-4995
▁fight	-4996
▁launin	-4997
▁fasahar	-4998
▁purpose	-4999
):	-5000
bet	-5001
▁aff	-5002
▁pain	-5003
▁choice	-5004
▁former	-5005
▁taimako	-5006
▁ntụkwasị	-5007
ET	-5008
hah	-5009
▁48	-5010
▁lõ	-5011
aiah	-5012
anwụ	-5013
gara	-5014
▁vir	-5015
▁Nwoke	-5016
▁Ezigbo	-5017
▁Majalisar	-5018
▁necessary	-5019
Tube	-5020
ergy	-5021
▁buƙ	-5022
▁tso	-5023
kpughe	-5024
EC	-5025
eal	-5026
▁Fil	-5027
▁Oke	-5028
▁becom	-5029
▁single	-5030
▁Ụbọchị	-5031
▁forward	-5032
▁whatever	-5033
fofin	-5034
▁sassa	-5035
▁abokin	-5036
▁reward	-5037
▁gwamnatin	-5038
▁Az	-5039
body	-5040
ster	-5041
▁def	-5042
▁hur	-5043
▁udo	-5044
▁dawo	-5045
urance	-5046
▁Video	-5047
▁musul	-5048
▁white	-5049
▁ọbara	-5050
▁inyere	-5051
God	-5052
"...	-5053
▁YOU	-5054
▁wah	-5055
arkin	-5056
▁express	-5057
▁sw	-5058
▁okè	-5059
▁sea	-5060
▁ụtụtụ	-5061
▁travel	-5062
ige	-5063
atic	-5064
iews	-5065
▁Shin	-5066
▁dare	-5067
▁soon	-5068
▁touch	-5069
kanin	-5070
▁pers	-5071
▁event	-5072
▁takar	-5073
nam	-5074
▁agh	-5075
▁eld	-5076
▁rev	-5077
ously	-5078
▁rule	-5079
▁James	-5080
Is	-5081
ibr	-5082
▁45	-5083
▁IN	-5084
▁due	-5085
arden	-5086
emember	-5087
▁gọ	-5088
acka	-5089
▁eye	-5090
▁Ụwa	-5091
ators	-5092
▁Yesu	-5093
▁date	-5094
▁sana	-5095
▁color	-5096
▁labarin	-5097
eke	-5098
▁194	-5099
ummar	-5100
▁gudun	-5101
▁kullum	-5102
▁Gi	-5103
▁Eji	-5104
▁Kpọ	-5105
There	-5106
anced	-5107
▁half	-5108
▁seek	-5109
▁issue	-5110
▁nwanna	-5111
▁contain	-5112
▁revealed	-5113
▁ịnọ	-5114
▁clos	-5115
▁entire	-5116
▁origin	-5117
▁According	-5118
icin	-5119
▁ugwu	-5120
bata	-5121
board	-5122
▁dauke	-5123
▁table	-5124
▁videos	-5125
PS	-5126
▁À	-5127
▁Fam	-5128
quare	-5129
▁Creat	-5130
▁Inter	-5131
▁invol	-5132
▁watsa	-5133
▁tattauna	-5134
▁especially	-5135
:22	-5136
zim	-5137
kaci	-5138
reme	-5139
▁prophet	-5140
▁complete	-5141
nihu	-5142
over	-5143
▁oji	-5144
▁sul	-5145
▁Mafi	-5146
▁dauka	-5147
▁discuss	-5148
▁Nigerian	-5149
▁faithful	-5150
Let	-5151
ray	-5152
arka	-5153
atsu	-5154
▁Del	-5155
▁chụ	-5156
▁Count	-5157
elekọta	-5158
itation	-5159
RA	-5160
▁ut	-5161
kwal	-5162
▁glad	-5163
▁deter	-5164
▁malla	-5165
▁invest	-5166
▁regard	-5167
▁Cibiyar	-5168
ING	-5169
Who	-5170
ege	-5171
▁maj	-5172
▁June	-5173
▁wasn	-5174
▁nzukọ	-5175
▁ghaghị	-5176
▁social	-5177
▁Christians	-5178
vy	-5179
xed	-5180
▁41	-5181
amma	-5182
▁ọla	-5183
enger	-5184
usion	-5185
▁Agha	-5186
▁nauyi	-5187
olution	-5188
▁mountain	-5189
olin	-5190
▁Lin	-5191
▁ife	-5192
▁jam	-5193
apter	-5194
chapụ	-5195
▁Find	-5196
▁Saul	-5197
▁deal	-5198
▁port	-5199
▁Medical	-5200
KP	-5201
bon	-5202
▁March	-5203
▁emplo	-5204
▁bidiyo	-5205
▁recomm	-5206
▁tabbata	-5207
As	-5208
▁Nan	-5209
inese	-5210
▁parts	-5211
Mar	-5212
upụrụ	-5213
▁kwand	-5214
istance	-5215
▁disciples	-5216
OM	-5217
atal	-5218
rodu	-5219
sịrị	-5220
▁fig	-5221
▁plu	-5222
asing	-5223
▁Uche	-5224
▁ofufe	-5225
tallace	-5226
▁YouTube	-5227
vironment	-5228
▁ekwesịghị	-5229
▁production	-5230
DC	-5231
▁ur	-5232
oved	-5233
semb	-5234
▁ọtọ	-5235
▁bear	-5236
▁marasa	-5237
▁njikere	-5238
So	-5239
INE	-5240
▁ayi	-5241
▁July	-5242
▁fass	-5243
▁jiji	-5244
ermany	-5245
▁Turai	-5246
▁hearts	-5247
▁lõkacin	-5248
hon	-5249
xim	-5250
▁Aud	-5251
▁kiya	-5252
▁wutar	-5253
▁aikata	-5254
▁taught	-5255
▁changed	-5256
▁mechara	-5257
John	-5258
unwa	-5259
▁Aug	-5260
▁Love	-5261
▁saved	-5262
mission	-5263
▁engine	-5264
▁blessed	-5265
Ndị	-5266
▁Leg	-5267
▁iyi	-5268
▁Sing	-5269
▁goes	-5270
▁April	-5271
▁ịchọta	-5272
▁Internet	-5273
gun	-5274
hib	-5275
uff	-5276
▁0.	-5277
▁oru	-5278
▁àjà	-5279
▁Erọn	-5280
vation	-5281
▁defin	-5282
▁tinye	-5283
az	-5284
▁39	-5285
▁Add	-5286
▁Cal	-5287
▁sig	-5288
▁Feder	-5289
▁nachi	-5290
▁samuwa	-5291
aị	-5292
▁ere	-5293
▁eri	-5294
alika	-5295
▁Mark	-5296
▁Over	-5297
▁ùgwù	-5298
▁bread	-5299
▁steps	-5300
▁bamban	-5301
▁kweere	-5302
▁Hearing	-5303
▁2,	-5304
▁zie	-5305
▁jini	-5306
▁Chinese	-5307
▁prophets	-5308
▁JI	-5309
iche	-5310
jibi	-5311
▁kee	-5312
▁asus	-5313
▁Daban	-5314
▁Reply	-5315
▁asali	-5316
▁karshe	-5317
▁inganci	-5318
▁Nọ	-5319
entị	-5320
▁Cle	-5321
▁Int	-5322
▁Char	-5323
▁phone	-5324
odi	-5325
ingo	-5326
▁aji	-5327
▁exact	-5328
▁oil	-5329
▁gone	-5330
▁inte	-5331
▁grace	-5332
▁French	-5333
▁Sheikh	-5334
▁wonder	-5335
▁BỤ	-5336
▁(1)	-5337
▁Luk	-5338
▁Ukwu	-5339
▁hats	-5340
▁Under	-5341
▁tashi	-5342
▁dukkan	-5343
▁charact	-5344
▁factory	-5345
US	-5346
mma	-5347
They	-5348
ikwu	-5349
▁Tags	-5350
▁third	-5351
▁Social	-5352
▁method	-5353
▁rayuwar	-5354
mala	-5355
vest	-5356
BC	-5357
ourn	-5358
athan	-5359
▁text	-5360
uwatsu	-5361
▁rather	-5362
ends	-5363
▁Hon	-5364
▁dise	-5365
▁felt	-5366
▁reach	-5367
▁inweta	-5368
▁opportunity	-5369
dle	-5370
ted	-5371
lands	-5372
▁gini	-5373
▁salon	-5374
▁female	-5375
▁immedi	-5376
osen	-5377
▁Ngwa	-5378
▁Media	-5379
▁dogon	-5380
▁sacri	-5381
▁thousand	-5382
,,	-5383
▁Wom	-5384
enant	-5385
▁ịgwa	-5386
▁Elect	-5387
▁Matiu	-5388
▁Quest	-5389
▁ebere	-5390
▁kiwon	-5391
▁umarnin	-5392
akw	-5393
▁GỊ	-5394
▁il	-5395
ires	-5396
issa	-5397
▁emb	-5398
▁Cheta	-5399
▁subject	-5400
efu	-5401
put	-5402
▁70	-5403
kwem	-5404
▁Ask	-5405
▁den	-5406
▁mbọ	-5407
antly	-5408
▁Hausa	-5409
▁fiber	-5410
▁Friday	-5411
▁partic	-5412
▁Germany	-5413
▁onyeisi	-5414
▁shawarar	-5415
▁anw	-5416
▁Aids	-5417
▁baki	-5418
▁kanan	-5419
▁neighb	-5420
-5	-5421
unar	-5422
▁USB	-5423
▁Naanị	-5424
▁write	-5425
▁Matthew	-5426
ete	-5427
Then	-5428
▁janye	-5429
▁Church	-5430
▁HU	-5431
▁OT	-5432
▁196	-5433
▁500	-5434
▁sus	-5435
▁redu	-5436
▁baara	-5437
▁kasuwa	-5438
asọ	-5439
▁Ir	-5440
ayer	-5441
▁dam	-5442
▁siy	-5443
amụta	-5444
mkwem	-5445
▁almost	-5446
▁karatu	-5447
ZỌ	-5448
▁Tso	-5449
▁ịme	-5450
ahapụ	-5451
▁rejo	-5452
▁beautiful	-5453
▁@	-5454
▁·	-5455
▁aw	-5456
▁ara	-5457
▁Sara	-5458
▁code	-5459
▁feed	-5460
▁field	-5461
▁prin	-5462
ificial	-5463
▁prayers	-5464
▁results	-5465
chọrọ	-5466
kokin	-5467
▁Dutsen	-5468
▁mention	-5469
▁enyemaka	-5470
▁understanding	-5471
mai	-5472
mon	-5473
▁cop	-5474
▁dand	-5475
▁multi	-5476
cription	-5477
▁European	-5478
▁commanded	-5479
:25	-5480
▁Ser	-5481
▁gwi	-5482
iling	-5483
▁raga	-5484
▁zasu	-5485
▁favor	-5486
▁lamba	-5487
ambling	-5488
▁message	-5489
▁laghachiri	-5490
RỤ	-5491
hia	-5492
▁zaa	-5493
belie	-5494
▁indic	-5495
▁separ	-5496
▁digiri	-5497
▁mama	-5498
▁priv	-5499
▁naghị	-5500
▁mgbaghara	-5501
▁Ful	-5502
▁web	-5503
rahim	-5504
▁cele	-5505
▁sand	-5506
zalika	-5507
▁ident	-5508
▁murab	-5509
0,	-5510
ays	-5511
lly	-5512
cked	-5513
though	-5514
▁arịrị	-5515
▁System	-5516
▁dogara	-5517
▁hundred	-5518
▁services	-5519
:23	-5520
don	-5521
▁oh	-5522
▁Red	-5523
▁Sur	-5524
fukan	-5525
▁akwụ	-5526
▁male	-5527
arorin	-5528
attara	-5529
▁conditions	-5530
▁Kat	-5531
▁sace	-5532
▁apost	-5533
ụn	-5534
rye	-5535
izim	-5536
eech	-5537
wute	-5538
▁moment	-5539
▁tsohon	-5540
ex	-5541
arịọ	-5542
▁Mach	-5543
▁pict	-5544
▁tuna	-5545
▁grant	-5546
▁Amazon	-5547
▁office	-5548
▁series	-5549
▁kananan	-5550
NYE	-5551
ply	-5552
▁Rem	-5553
▁Ter	-5554
ively	-5555
▁Mart	-5556
▁Thus	-5557
agbalị	-5558
▁ajiya	-5559
▁convers	-5560
▁í	-5561
lock	-5562
osing	-5563
▁gbaa	-5564
galaba	-5565
▁adadin	-5566
▁daughter	-5567
hua	-5568
▁ọm	-5569
▁rie	-5570
▁yes	-5571
▁Gold	-5572
▁hapụ	-5573
▁nkọwa	-5574
▁AL	-5575
oken	-5576
▁Nri	-5577
▁nkụ	-5578
▁ser	-5579
▁Imam	-5580
▁chee	-5581
▁kept	-5582
▁vict	-5583
▁mashah	-5584
▁College	-5585
▁promises	-5586
▁training	-5587
99	-5588
CC	-5589
Ha	-5590
:21	-5591
▁42	-5592
ender	-5593
uminum	-5594
▁audio	-5595
▁check	-5596
▁quickly	-5597
▁certainly	-5598
bol	-5599
ulu	-5600
▁Ọn	-5601
annu	-5602
▁Kore	-5603
▁mmụta	-5604
▁kyawun	-5605
▁Ibrahim	-5606
no	-5607
▁€	-5608
jir	-5609
When	-5610
▁Cour	-5611
▁Lear	-5612
▁gaya	-5613
▁sight	-5614
▁replied	-5615
▁willing	-5616
ww	-5617
▁II	-5618
▁195	-5619
▁Bit	-5620
▁Met	-5621
▁dru	-5622
▁fad	-5623
▁2012	-5624
▁Ikpe	-5625
▁kewa	-5626
▁yanki	-5627
▁ịmụta	-5628
▁either	-5629
▁meaning	-5630
▁response	-5631
▁Ilu	-5632
▁cli	-5633
▁Give	-5634
▁hung	-5635
▁Jihar	-5636
▁decided	-5637
▁kwakwal	-5638
▁mmekọrịta	-5639
▁treatment	-5640
▁Gh	-5641
▁Gab	-5642
▁leg	-5643
▁opened	-5644
▁deliver	-5645
istration	-5646
▁kyakkyawan	-5647
imi	-5648
gers	-5649
▁efu	-5650
▁zar	-5651
atory	-5652
ilite	-5653
▁Were	-5654
▁Watch	-5655
▁focus	-5656
▁kasuwar	-5657
ebu	-5658
▁7.	-5659
back	-5660
tage	-5661
▁box	-5662
owing	-5663
▁Also	-5664
▁zaka	-5665
▁cewar	-5666
▁maima	-5667
▁obibi	-5668
aikacen	-5669
arkokin	-5670
erubere	-5671
▁Canada	-5672
▁surely	-5673
▁tashar	-5674
▁September	-5675
▁mahimmanci	-5676
▁AN	-5677
▁Ego	-5678
▁Hol	-5679
▁mir	-5680
▁rag	-5681
▁Open	-5682
ources	-5683
▁built	-5684
▁daily	-5685
▁karin	-5686
▁Before	-5687
▁tasiri	-5688
▁comfort	-5689
▁kammala	-5690
ening	-5691
▁fọrọ	-5692
▁nwụọ	-5693
▁wish	-5694
▁cross	-5695
▁tsada	-5696
▁evening	-5697
▁teaching	-5698
▁SI	-5699
acha	-5700
uses	-5701
▁Ali	-5702
▁Kan	-5703
▁alh	-5704
▁ess	-5705
▁front	-5706
▁users	-5707
▁Heaven	-5708
▁trying	-5709
▁Austral	-5710
▁bayanan	-5711
▁medical	-5712
▁nchekwa	-5713
▁mad	-5714
emere	-5715
ụtara	-5716
▁Data	-5717
order	-5718
▁road	-5719
▁judge	-5720
▁saukar	-5721
:26	-5722
▁op	-5723
esiri	-5724
urare	-5725
▁Neja	-5726
gharala	-5727
ization	-5728
▁forget	-5729
▁higher	-5730
▁contact	-5731
▁yourselves	-5732
wari	-5733
▁bott	-5734
▁Abuja	-5735
▁Akụkọ	-5736
▁Super	-5737
▁Tiles	-5738
▁Commun	-5739
▁agbanwe	-5740
ɗi	-5741
▁iy	-5742
dise	-5743
wers	-5744
▁Step	-5745
▁Tile	-5746
▁cibi	-5747
▁mota	-5748
▁pret	-5749
▁ọzụzụ	-5750
vin	-5751
▁below	-5752
▁Fulani	-5753
▁kariya	-5754
DA	-5755
RU	-5756
bers	-5757
▁Adv	-5758
▁Had	-5759
▁zur	-5760
▁York	-5761
▁econom	-5762
▁particular	-5763
EM	-5764
ikak	-5765
lead	-5766
▁pot	-5767
iyoyi	-5768
▁wait	-5769
▁model	-5770
▁towards	-5771
otes	-5772
▁kat	-5773
amasị	-5774
▁babbar	-5775
▁karfin	-5776
▁education	-5777
kay	-5778
weh	-5779
▁obu	-5780
▁swe	-5781
ushen	-5782
▁akpụ	-5783
▁avoid	-5784
▁dangane	-5785
▁instead	-5786
ix	-5787
Nke	-5788
ied	-5789
▁Ye	-5790
▁sugg	-5791
arraba	-5792
kwụnye	-5793
▁doctor	-5794
▁tallafin	-5795
ọdị	-5796
ores	-5797
oses	-5798
▁Huk	-5799
▁Wee	-5800
▁upd	-5801
hered	-5802
redit	-5803
▁Dire	-5804
gation	-5805
▁biyar	-5806
▁dabar	-5807
aikatan	-5808
▁cututt	-5809
▁likita	-5810
▁master	-5811
▁toward	-5812
▁karshen	-5813
▁mahadum	-5814
▁mberede	-5815
po	-5816
▁Ẹ	-5817
pro	-5818
▁gig	-5819
▁Masu	-5820
▁Nkwa	-5821
gbọghọ	-5822
▁mahai	-5823
▁customers	-5824
12	-5825
mahụ	-5826
▁Elu	-5827
▁Ima	-5828
oster	-5829
▁kụzi	-5830
▁France	-5831
▁casino	-5832
▁desire	-5833
▁simple	-5834
▁tarihi	-5835
▁Remember	-5836
▁personal	-5837
zy	-5838
▁q	-5839
▁Sọ	-5840
▁rụọ	-5841
▁Work	-5842
▁doub	-5843
▁tawa	-5844
asting	-5845
okwukwe	-5846
▁Service	-5847
▁achieve	-5848
▁littafin	-5849
▁prepared	-5850
IA	-5851
mọn	-5852
cies	-5853
anish	-5854
ọkịta	-5855
▁Gree	-5856
▁gbuo	-5857
▁held	-5858
orobịa	-5859
▁charge	-5860
▁further	-5861
▁kpọmkwem	-5862
IV	-5863
orrow	-5864
▁Swed	-5865
▁eight	-5866
▁mkpebi	-5867
▁tallace	-5868
▁creation	-5869
ique	-5870
oton	-5871
xbet	-5872
▁Wad	-5873
INEKE	-5874
▁tụrụ	-5875
▁range	-5876
▁yunwa	-5877
iku	-5878
por	-5879
▁Jen	-5880
▁bre	-5881
▁idea	-5882
▁ndọrọ	-5883
▁nkeji	-5884
▁kiyaye	-5885
▁weight	-5886
▁install	-5887
:0	-5888
▁Jere	-5889
▁none	-5890
▁Light	-5891
▁green	-5892
▁nghọta	-5893
▁nupụrụ	-5894
▁Atụmatụ	-5895
▁dukkanin	-5896
▁situation	-5897
vil	-5898
▁Cha	-5899
▁Fre	-5900
▁Pat	-5901
▁Gidan	-5902
edience	-5903
▁natural	-5904
▁Products	-5905
▁sir	-5906
▁door	-5907
ograph	-5908
▁consid	-5909
▁Muhammadu	-5910
ih	-5911
ajụ	-5912
ƙin	-5913
tụla	-5914
▁Mod	-5915
erved	-5916
▁lura	-5917
▁miss	-5918
▁sayar	-5919
▁enwere	-5920
▁presence	-5921
▁application	-5922
erc	-5923
▁om	-5924
ando	-5925
▁Mot	-5926
▁jụọ	-5927
▁Only	-5928
▁deep	-5929
▁load	-5930
▁bukata	-5931
▁sister	-5932
▁request	-5933
▁gilashin	-5934
▁nkà	-5935
▁Chin	-5936
▁Host	-5937
▁ngwá	-5938
▁signs	-5939
▁Custom	-5940
▁£	-5941
gbụ	-5942
empt	-5943
▁Two	-5944
▁mic	-5945
▁ogb	-5946
▁Conf	-5947
▁total	-5948
▁comment	-5949
▁introdu	-5950
▁believers	-5951
▁resurrection	-5952
enu	-5953
ịlụ	-5954
▁HA	-5955
▁Ig	-5956
▁Yi	-5957
fety	-5958
itor	-5959
race	-5960
▁Lat	-5961
▁kud	-5962
▁via	-5963
▁shan	-5964
▁yasa	-5965
▁garga	-5966
▁nwata	-5967
▁Office	-5968
▁chosen	-5969
▁bụrụkwa	-5970
▁kwanaki	-5971
▁surface	-5972
8,	-5973
▁dar	-5974
▁safe	-5975
Marble	-5976
▁devil	-5977
▁drive	-5978
▁nkume	-5979
▁Manufa	-5980
▁button	-5981
velation	-5982
▁learned	-5983
▁Tri	-5984
▁bak	-5985
▁gam	-5986
atawa	-5987
urori	-5988
▁alka	-5989
▁ịrịba	-5990
▁announ	-5991
▁feeling	-5992
ufi	-5993
aics	-5994
arant	-5995
▁mita	-5996
▁Israelites	-5997
unt	-5998
▁AB	-5999
know	-6000
▁dun	-6001
asons	-6002
▁Bank	-6003
▁Like	-6004
▁kpọọ	-6005
▁Sinks	-6006
▁mosaics	-6007
6,	-6008
ofer	-6009
▁Dem	-6010
▁Ger	-6011
▁Kya	-6012
▁gan	-6013
▁kur	-6014
ziaka	-6015
amaghị	-6016
▁zauna	-6017
▁ịmata	-6018
▁format	-6019
▁CHINEKE	-6020
▁manufacturer	-6021
ml	-6022
ald	-6023
faf	-6024
▁Est	-6025
▁lar	-6026
▁Wani	-6027
▁expl	-6028
verage	-6029
▁thinking	-6030
▁mashahuri	-6031
▁Nye	-6032
▁Web	-6033
▁Mult	-6034
▁akwu	-6035
▁lala	-6036
etinye	-6037
isions	-6038
▁raised	-6039
▁agbọghọ	-6040
xic	-6041
▁YA	-6042
coin	-6043
▁Hum	-6044
▁exc	-6045
▁kalm	-6046
▁Group	-6047
▁Download	-6048
▁internet	-6049
▁gbagharala	-6050
ns	-6051
abta	-6052
enty	-6053
▁Ngw	-6054
▁Som	-6055
▁ido	-6056
▁oche	-6057
▁town	-6058
▁ahead	-6059
▁condu	-6060
▁gabata	-6061
▁places	-6062
ological	-6063
▁akwatin	-6064
▁counter	-6065
?"+	-6066
dep	-6067
▁Ass	-6068
▁Alex	-6069
▁Gumi	-6070
edom	-6071
▁Nwe	-6072
▁thank	-6073
▁ahụkwa	-6074
▁achọghị	-6075
▁nwetara	-6076
▁reading	-6077
▁Kamfanin	-6078
OW	-6079
ọkụ	-6080
▁IP	-6081
rest	-6082
adịrị	-6083
▁fita	-6084
▁prob	-6085
▁surpr	-6086
▁asusun	-6087
▁rubutu	-6088
%.	-6089
▁44	-6090
▁kn	-6091
▁Sil	-6092
▁kpa	-6093
▁zun	-6094
▁asib	-6095
▁biyan	-6096
▁weeks	-6097
▁Duniya	-6098
▁gasịrị	-6099
▁mgbasa	-6100
▁Ekwensu	-6101
▁effects	-6102
▁function	-6103
No	-6104
▁00	-6105
▁Taa	-6106
▁emi	-6107
ewere	-6108
utara	-6109
iction	-6110
inihin	-6111
▁cinye	-6112
▁!	-6113
GHA	-6114
cel	-6115
hel	-6116
iyu	-6117
▁lea	-6118
▁Nove	-6119
▁Rasha	-6120
▁ziyar	-6121
amalite	-6122
▁Tsohon	-6123
▁rawaya	-6124
▁general	-6125
▁Nijeriya	-6126
▁Artificial	-6127
▁Isaac	-6128
▁hadin	-6129
▁koyar	-6130
kwasịrị	-6131
▁descri	-6132
▁foreign	-6133
▁knowing	-6134
▁similar	-6135
▁Jonathan	-6136
▁greatest	-6137
ushi	-6138
vani	-6139
▁Rec	-6140
▁Sen	-6141
phone	-6142
▁rụrụ	-6143
▁thus	-6144
▁shows	-6145
▁Russian	-6146
▁Australia	-6147
▁Loc	-6148
▁http	-6149
▁instru	-6150
▁prison	-6151
▁source	-6152
▁Enweghị	-6153
▁enemies	-6154
fied	-6155
haps	-6156
▁Mid	-6157
urịta	-6158
▁Coun	-6159
ension	-6160
▁shawo	-6161
▁offers	-6162
tainless	-6163
mo	-6164
▁Iv	-6165
ụghọ	-6166
itory	-6167
▁shah	-6168
▁lived	-6169
▁satis	-6170
▁sulhu	-6171
▁teacher	-6172
▁therein	-6173
▁authority	-6174
lt	-6175
sal	-6176
▁dõ	-6177
yyar	-6178
▁ord	-6179
▁Cikak	-6180
▁kinds	-6181
▁sense	-6182
▁condition	-6183
▁majalisar	-6184
wh	-6185
kun	-6186
▁Tren	-6187
▁wato	-6188
anning	-6189
▁nhazi	-6190
▁Eziokwu	-6191
▁immediately	-6192
▁●	-6193
▁PR	-6194
▁Zam	-6195
▁apụ	-6196
ondon	-6197
ronic	-6198
▁Onwe	-6199
▁ọkwa	-6200
▁Speak	-6201
▁lalle	-6202
▁mesịa	-6203
▁shaida	-6204
▁gụnyere	-6205
▁Institute	-6206
MS	-6207
▁jụ	-6208
ears	-6209
inin	-6210
▁alam	-6211
▁kunn	-6212
▁mint	-6213
▁stra	-6214
abụkwa	-6215
uraren	-6216
urorin	-6217
▁Design	-6218
▁outside	-6219
▁cy	-6220
▁iru	-6221
▁baƙi	-6222
▁hara	-6223
▁seri	-6224
▁Those	-6225
▁ekwentị	-6226
▁fassara	-6227
▁hatsari	-6228
40	-6229
pper	-6230
▁Mem	-6231
▁Val	-6232
▁nrọ	-6233
▁gama	-6234
▁party	-6235
▁Paradaịs	-6236
VID	-6237
doro	-6238
inku	-6239
▁Flo	-6240
▁MGB	-6241
ciety	-6242
ospel	-6243
▁mezu	-6244
▁Right	-6245
▁excell	-6246
▁recogn	-6247
▁project	-6248
▁running	-6249
▁concerning	-6250
Nna	-6251
▁Id	-6252
▁LED	-6253
alata	-6254
ikwuu	-6255
rough	-6256
▁Sign	-6257
▁summ	-6258
▁aminci	-6259
▁Chinyere	-6260
].	-6261
▁tọ	-6262
▁Rub	-6263
▁improve	-6264
▁matsaka	-6265
▁specification	-6266
tak	-6267
▁DA	-6268
hapụ	-6269
▁ghọọ	-6270
▁hang	-6271
▁muke	-6272
ananan	-6273
uments	-6274
▁smart	-6275
▁super	-6276
▁spoken	-6277
▁exactly	-6278
▁provided	-6279
▁Department	-6280
Ònye	-6281
▁Cho	-6282
▁Anyi	-6283
▁wise	-6284
▁inher	-6285
▁Yahweh	-6286
▁events	-6287
▁Kwesịrị	-6288
▁rubutun	-6289
ppy	-6290
▁Ho	-6291
yoyi	-6292
zuru	-6293
▁Mgb	-6294
cknow	-6295
▁Back	-6296
▁Resp	-6297
▁dake	-6298
▁mutu	-6299
▁ƙarfi	-6300
▁kwarewa	-6301
▁November	-6302
TH	-6303
Don	-6304
▁RE	-6305
▁nje	-6306
▁rab	-6307
▁hell	-6308
▁Which	-6309
▁exper	-6310
▁honor	-6311
▁techn	-6312
▁tells	-6313
▁changes	-6314
▁represent	-6315
▁translation	-6316
oti	-6317
▁300	-6318
▁pow	-6319
light	-6320
▁activ	-6321
▁Isaiah	-6322
ãn	-6323
www	-6324
▁Game	-6325
▁Jiri	-6326
▁fada	-6327
▁goma	-6328
▁pros	-6329
▁Categ	-6330
▁Earth	-6331
▁Trump	-6332
▁mmekọ	-6333
▁wrote	-6334
▁Sunday	-6335
▁itself	-6336
▁talking	-6337
▁Nwachukwu	-6338
gree	-6339
ller	-6340
▁ọha	-6341
▁mada	-6342
▁skin	-6343
▁filin	-6344
olesale	-6345
▁chance	-6346
▁display	-6347
▁shawara	-6348
▁kazalika	-6349
▁powerful	-6350
▁Kasuwancin	-6351
HỤ	-6352
▁ep	-6353
alar	-6354
inka	-6355
▁Uru	-6356
▁inn	-6357
alaka	-6358
▁agụụ	-6359
▁occur	-6360
▁Mallam	-6361
▁celebr	-6362
▁member	-6363
▁ngwaọrụ	-6364
▁suffering	-6365
▁established	-6366
rect	-6367
▁kom	-6368
▁Fore	-6369
▁Mkpa	-6370
▁fail	-6371
▁speaking	-6372
IP	-6373
▁daɗ	-6374
▁kpam	-6375
ipment	-6376
▁types	-6377
▁Family	-6378
▁Lafiya	-6379
▁London	-6380
▁dọkịta	-6381
▁prevent	-6382
ii	-6383
cher	-6384
▁Ọnụ	-6385
arkar	-6386
assan	-6387
▁Full	-6388
▁nway	-6389
arihin	-6390
ouches	-6391
ikpeazụ	-6392
▁baptizim	-6393
▁president	-6394
6)	-6395
net	-6396
▁Hà	-6397
▁191	-6398
▁Use	-6399
▁film	-6400
▁tube	-6401
▁Ịgba	-6402
▁initi	-6403
▁Review	-6404
▁simply	-6405
▁Spanish	-6406
▁mbilite	-6407
▁suggest	-6408
▁gbaghara	-6409
▁solution	-6410
▁taimakawa	-6411
▁um	-6412
,...	-6413
▁mem	-6414
anies	-6415
anner	-6416
umber	-6417
▁local	-6418
▁issues	-6419
▁passed	-6420
▁Instead	-6421
▁accompl	-6422
▁sinners	-6423
▁required	-6424
▁returned	-6425
-8	-6426
imma	-6427
▁Gas	-6428
ambobin	-6429
▁behold	-6430
▁church	-6431
▁darajar	-6432
DỤ	-6433
reet	-6434
▁Ele	-6435
▁Heb	-6436
▁ize	-6437
▁kau	-6438
▁rich	-6439
▁canja	-6440
▁laser	-6441
▁compet	-6442
▁plugin	-6443
▁sitere	-6444
▁ghọtara	-6445
▁Gwamnoni	-6446
▁Technology	-6447
hiri	-6448
▁dwe	-6449
itary	-6450
jejen	-6451
▁Ebee	-6452
ourney	-6453
▁famfo	-6454
▁Advert	-6455
▁cities	-6456
▁aghụghọ	-6457
▁sakamako	-6458
▁Cy	-6459
▁Nne	-6460
▁Old	-6461
▁gri	-6462
▁tsanani	-6463
▁kwanduna	-6464
▁tsakiyar	-6465
zil	-6466
▁1:	-6467
salm	-6468
▁ịgụ	-6469
▁mamaki	-6470
▁praise	-6471
▁select	-6472
▁matakan	-6473
EE	-6474
Lee	-6475
ich	-6476
pir	-6477
agha	-6478
▁ata	-6479
▁rob	-6480
ching	-6481
gency	-6482
▁role	-6483
▁banye	-6484
▁percent	-6485
▁shafukan	-6486
▁sometimes	-6487
▁statement	-6488
▁Mah	-6489
▁ewe	-6490
▁iso	-6491
▁aids	-6492
▁card	-6493
▁mụta	-6494
▁yaya	-6495
▁fadin	-6496
▁chọpụta	-6497
▁include	-6498
▁particip	-6499
▁Education	-6500
kà	-6501
hil	-6502
que	-6503
rad	-6504
▁Gaa	-6505
▁Hak	-6506
▁Pet	-6507
▁desc	-6508
▁batun	-6509
Chineke	-6510
▁ensure	-6511
▁interp	-6512
wul	-6513
▁2:	-6514
▁Hi	-6515
cast	-6516
vere	-6517
▁Sọl	-6518
▁neg	-6519
▁Cong	-6520
▁books	-6521
▁ngosi	-6522
▁punish	-6523
▁environment	-6524
:32	-6525
▁..	-6526
▁Kr	-6527
▁ON	-6528
egwu	-6529
hern	-6530
itis	-6531
▁Mer	-6532
▁Sak	-6533
▁Judah	-6534
▁review	-6535
▁Company	-6536
MP	-6537
▁SA	-6538
▁ho	-6539
chite	-6540
harma	-6541
▁viol	-6542
▁common	-6543
▁ability	-6544
jan	-6545
uty	-6546
hood	-6547
▁Rev	-6548
otion	-6549
▁Mata	-6550
▁gets	-6551
▁gods	-6552
▁zaku	-6553
▁azịza	-6554
▁kadan	-6555
▁mgbapụta	-6556
lị	-6557
▁Hany	-6558
▁gine	-6559
▁kake	-6560
▁wuya	-6561
▁While	-6562
▁wills	-6563
▁amince	-6564
▁congre	-6565
▁dacewa	-6566
▁related	-6567
asinjojin	-6568
hụụ	-6569
more	-6570
▁Afọ	-6571
▁added	-6572
▁false	-6573
▁fuska	-6574
▁speed	-6575
▁helped	-6576
▁mụtara	-6577
▁shugab	-6578
▁zuciya	-6579
▁trouble	-6580
app	-6581
àmà	-6582
wise	-6583
▁pen	-6584
▁disp	-6585
▁phys	-6586
▁sara	-6587
ashing	-6588
atives	-6589
▁acknow	-6590
▁asking	-6591
▁commit	-6592
▁faruwa	-6593
▁Jagororin	-6594
▁<	-6595
▁Od	-6596
list	-6597
sequ	-6598
idence	-6599
▁gwamnati	-6600
▁protection	-6601
:24	-6602
▁fir	-6603
▁gat	-6604
aster	-6605
▁Real	-6606
▁magantu	-6607
▁gambling	-6608
bn	-6609
vey	-6610
▁cam	-6611
▁zin	-6612
▁ịnụ	-6613
▁Call	-6614
▁kuke	-6615
▁Since	-6616
▁gaara	-6617
▁major	-6618
▁nwanyi	-6619
▁advanta	-6620
▁maganin	-6621
ɓa	-6622
Con	-6623
ops	-6624
▁Sad	-6625
▁maf	-6626
▁band	-6627
▁heat	-6628
▁sick	-6629
▁paper	-6630
▁gigice	-6631
▁Kasuwanci	-6632
▁cibiyoyin	-6633
alu	-6634
kọrọ	-6635
▁aro	-6636
▁crow	-6637
▁emer	-6638
ibrary	-6639
▁brand	-6640
▁ƙasar	-6641
▁Center	-6642
▁device	-6643
▁Develop	-6644
▁marmara	-6645
▁covenant	-6646
ocr	-6647
mama	-6648
▁inj	-6649
ridge	-6650
tọala	-6651
▁agre	-6652
othing	-6653
▁hapụrụ	-6654
▁wealth	-6655
▁ainihin	-6656
▁okpukpe	-6657
--	-6658
edo	-6659
RIWA	-6660
aben	-6661
▁ton	-6662
ength	-6663
hụnanya	-6664
OP	-6665
▁ṅ	-6666
▁BA	-6667
tala	-6668
▁jur	-6669
antin	-6670
uguda	-6671
▁Fran	-6672
▁dece	-6673
▁layi	-6674
▁HURIWA	-6675
▁Yuguda	-6676
▁matasa	-6677
▁thanks	-6678
▁believed	-6679
▁kasancewa	-6680
ahú	-6681
▁tu	-6682
▁vol	-6683
▁addu	-6684
▁atụla	-6685
▁datta	-6686
▁jikin	-6687
▁plant	-6688
▁achịcha	-6689
▁ngalaba	-6690
▁nnyocha	-6691
▁tunanin	-6692
▁salvation	-6693
▁Fasinjojin	-6694
ɗa	-6695
alịa	-6696
inst	-6697
▁Emp	-6698
▁cult	-6699
▁join	-6700
▁names	-6701
▁purch	-6702
▁terms	-6703
▁ọbụla	-6704
▁Indeed	-6705
akpọlite	-6706
▁Government	-6707
LC	-6708
kets	-6709
▁Pen	-6710
▁haɓ	-6711
jista	-6712
▁West	-6713
▁dõmin	-6714
aikatar	-6715
▁siyasa	-6716
▁speech	-6717
▁possess	-6718
▁zi	-6719
▁End	-6720
▁Exp	-6721
▁fee	-6722
enced	-6723
▁hali	-6724
▁jaka	-6725
▁weak	-6726
▁agadi	-6727
▁writing	-6728
▁Research	-6729
▁applications	-6730
▁Po	-6731
door	-6732
▁chị	-6733
▁pat	-6734
▁cire	-6735
achara	-6736
tained	-6737
▁Check	-6738
▁Green	-6739
▁admin	-6740
▁kaadị	-6741
▁filled	-6742
▁located	-6743
▁nzọụkwụ	-6744
cho	-6745
zụga	-6746
▁Big	-6747
▁Que	-6748
▁Prin	-6749
▁seed	-6750
▁secret	-6751
▁ịghọta	-6752
▁gidajen	-6753
▁computer	-6754
▁reported	-6755
500	-6756
bes	-6757
fai	-6758
yen	-6759
▁Abdu	-6760
▁agwụ	-6761
▁Spain	-6762
▁slave	-6763
azọpụta	-6764
▁Author	-6765
▁inherit	-6766
▁takarda	-6767
▁kwamfuta	-6768
emi	-6769
ụntụ	-6770
▁Kad	-6771
▁Ole	-6772
▁Tru	-6773
▁Wed	-6774
▁hom	-6775
▁horo	-6776
ishing	-6777
▁August	-6778
▁lambar	-6779
▁remain	-6780
▁rights	-6781
▁ụkpụrụ	-6782
▁automat	-6783
▁construction	-6784
)?	-6785
▁CB	-6786
▁Ik	-6787
▁li	-6788
▁(2)	-6789
▁MMA	-6790
▁bal	-6791
▁gef	-6792
▁Tupu	-6793
▁bauta	-6794
▁Et	-6795
▁Gụọ	-6796
▁bul	-6797
▁cri	-6798
▁hit	-6799
asụsụ	-6800
essel	-6801
▁East	-6802
▁Juda	-6803
▁Ogbu	-6804
▁anal	-6805
▁mgbu	-6806
icient	-6807
▁Money	-6808
▁rauni	-6809
agbanwe	-6810
▁threat	-6811
▁wajibi	-6812
▁wezụga	-6813
▁disease	-6814
▁fathers	-6815
▁benefits	-6816
▁progress	-6817
CA	-6818
▁°	-6819
ica	-6820
▁dí	-6821
ọnwa	-6822
wokwa	-6823
▁abun	-6824
▁gawa	-6825
▁hudu	-6826
▁Court	-6827
▁broken	-6828
▁temper	-6829
▁increase	-6830
▁AD	-6831
adio	-6832
oolu	-6833
vior	-6834
▁ụda	-6835
wanye	-6836
▁Note	-6837
▁dali	-6838
▁rasa	-6839
▁taro	-6840
▁ọhịa	-6841
▁hourly	-6842
▁nchịkọta	-6843
ox	-6844
▁ƙa	-6845
▁10.	-6846
rican	-6847
▁Dang	-6848
▁Gida	-6849
▁task	-6850
▁yiwu	-6851
gbụgba	-6852
sembly	-6853
▁wayar	-6854
▁across	-6855
▁damuwa	-6856
▁agaghịkwa	-6857
xi	-6858
fta	-6859
zer	-6860
ague	-6861
▁Adị	-6862
▁Wal	-6863
▁hat	-6864
▁idi	-6865
akari	-6866
arịta	-6867
▁Priv	-6868
▁Wasu	-6869
▁firm	-6870
▁ghọrọ	-6871
▁kunna	-6872
▁rịọrọ	-6873
▁sauya	-6874
▁inside	-6875
▁zọpụta	-6876
▁answers	-6877
▁fitarwa	-6878
5%	-6879
waa	-6880
▁Aị	-6881
ifts	-6882
▁pee	-6883
▁feet	-6884
▁yank	-6885
depend	-6886
ọọment	-6887
▁Steel	-6888
▁shigo	-6889
▁ịzụta	-6890
▁Joshua	-6891
▁Science	-6892
▁welcome	-6893
▁gaghịkwa	-6894
▁Dri	-6895
▁oma	-6896
▁Babu	-6897
▁Care	-6898
▁panel	-6899
▁spend	-6900
▁itoolu	-6901
▁tushen	-6902
▁wurare	-6903
▁features	-6904
);	-6905
▁mã	-6906
oted	-6907
▁400	-6908
▁2011	-6909
▁beha	-6910
▁nice	-6911
▁rate	-6912
▁Arewa	-6913
▁Water	-6914
▁ciyar	-6915
▁During	-6916
▁nkwado	-6917
▁nwayọọ	-6918
▁scient	-6919
▁measure	-6920
leadership	-6921
▁establish	-6922
bit	-6923
owed	-6924
ults	-6925
▁eas	-6926
▁Brit	-6927
▁hair	-6928
▁lord	-6929
▁risk	-6930
▁tour	-6931
nyeere	-6932
▁Solar	-6933
▁ciwon	-6934
▁German	-6935
▁Korona	-6936
▁caused	-6937
▁itinye	-6938
▁Hukumar	-6939
▁girmama	-6940
▁matsayi	-6941
▁tarayya	-6942
▁darkness	-6943
mdi	-6944
usi	-6945
▁Ep	-6946
▁OF	-6947
naya	-6948
ulty	-6949
▁Hib	-6950
▁Ogb	-6951
▁Ori	-6952
▁guz	-6953
▁Kuna	-6954
abụghị	-6955
assion	-6956
isters	-6957
▁enweta	-6958
▁nauyin	-6959
▁tawagar	-6960
▁ịgbanwe	-6961
wordpress	-6962
▁thoughts	-6963
Sa	-6964
mụọ	-6965
ryen	-6966
▁Vir	-6967
▁mpa	-6968
▁adop	-6969
▁blind	-6970
asọpụrụ	-6971
▁Banyere	-6972
▁Nwaanyị	-6973
▁followed	-6974
fụ	-6975
▁Tụ	-6976
chan	-6977
▁dro	-6978
▁fla	-6979
▁zuk	-6980
inian	-6981
ouses	-6982
▁coun	-6983
ambaya	-6984
▁fagen	-6985
▁Muslim	-6986
▁reject	-6987
▁ahụmahụ	-6988
▁electric	-6989
▁international	-6990
kind	-6991
rial	-6992
▁Fac	-6993
▁Kim	-6994
▁Van	-6995
▁fili	-6996
▁Chọrọ	-6997
▁floor	-6998
▁nature	-6999
▁player	-7000
▁pretty	-7001
▁murabus	-7002
▁security	-7003
11	-7004
CT	-7005
oshi	-7006
▁Bri	-7007
▁Mil	-7008
ctors	-7009
ropri	-7010
yịnya	-7011
▁File	-7012
▁sett	-7013
itution	-7014
▁Public	-7015
▁nasarar	-7016
▁tasirin	-7017
▁gathered	-7018
▁offering	-7019
▁previous	-7020
ls	-7021
▁bud	-7022
▁Ahịa	-7023
▁Prom	-7024
▁gudu	-7025
▁kirk	-7026
▁zaɓi	-7027
▁sheep	-7028
▁determin	-7029
ipe	-7030
owa	-7031
oned	-7032
▁uwa	-7033
Atụla	-7034
Lingo	-7035
esonụ	-7036
▁jide	-7037
▁mace	-7038
▁action	-7039
▁priest	-7040
▁Islamic	-7041
▁daughters	-7042
hy	-7043
ọt	-7044
▁NW	-7045
asan	-7046
▁gụọ	-7047
▁lai	-7048
icine	-7049
wayon	-7050
▁hade	-7051
▁mill	-7052
▁nuni	-7053
istant	-7054
▁Bless	-7055
▁Krist	-7056
▁refer	-7057
▁Person	-7058
▁daɗewa	-7059
▁garden	-7060
▁ilimin	-7061
▁General	-7062
▁fayiloli	-7063
▁probably	-7064
:30	-7065
▁8.	-7066
▁Nt	-7067
▁qual	-7068
▁sword	-7069
▁tebur	-7070
▁tried	-7071
ilities	-7072
▁honest	-7073
▁matukar	-7074
ena	-7075
ịka	-7076
ival	-7077
▁fill	-7078
▁star	-7079
▁imani	-7080
▁youth	-7081
▁cutting	-7082
▁kwallon	-7083
80	-7084
▁CN	-7085
anto	-7086
▁Ada	-7087
▁vid	-7088
▁ókè	-7089
▁Luke	-7090
▁ịkwụ	-7091
istics	-7092
▁ƙarin	-7093
vention	-7094
▁Leadership	-7095
VC	-7096
▁И	-7097
=5.	-7098
laị	-7099
lip	-7100
ubo	-7101
▁Ez	-7102
▁WH	-7103
▁òtù	-7104
rogen	-7105
▁Help	-7106
▁Mara	-7107
▁file	-7108
▁goal	-7109
▁ahapụ	-7110
▁Master	-7111
▁gather	-7112
▁rejoice	-7113
▁bathroom	-7114
▁pressure	-7115
▁committed	-7116
▁completely	-7117
IF	-7118
amm	-7119
▁GB	-7120
fest	-7121
▁Den	-7122
▁JIN	-7123
▁Zan	-7124
▁cra	-7125
arshe	-7126
▁ònye	-7127
▁ɓang	-7128
atform	-7129
▁store	-7130
▁Associ	-7131
▁looked	-7132
▁temple	-7133
▁Himself	-7134
▁gargajiya	-7135
▁kwakwalwa	-7136
▁materials	-7137
sì	-7138
uro	-7139
amai	-7140
chle	-7141
▁kari	-7142
▁laun	-7143
arning	-7144
▁nzuzo	-7145
▁enyere	-7146
▁haɗewa	-7147
▁fulfill	-7148
▁justice	-7149
пр	-7150
▁150	-7151
▁Kit	-7152
▁Nde	-7153
▁Ndu	-7154
ivery	-7155
limin	-7156
▁Acts	-7157
▁Haka	-7158
▁wide	-7159
▁Nweta	-7160
▁breat	-7161
▁fatan	-7162
▁professional	-7163
-7	-7164
бо	-7165
гбо	-7166
▁rọ	-7167
irka	-7168
▁kab	-7169
▁sie	-7170
▁gain	-7171
▁Игбо	-7172
▁COVID	-7173
▁force	-7174
▁ghọta	-7175
▁nkiri	-7176
▁siffo	-7177
▁Mother	-7178
▁Nsogbu	-7179
▁window	-7180
PA	-7181
isha	-7182
▁Tas	-7183
▁lok	-7184
Where	-7185
▁Ekwe	-7186
▁Women	-7187
▁fully	-7188
▁tsare	-7189
▁guarant	-7190
▁hanyoyi	-7191
▁Abubakar	-7192
▁2)	-7193
ensị	-7194
▁Lim	-7195
cover	-7196
imate	-7197
mputa	-7198
▁Họrọ	-7199
▁juna	-7200
▁tool	-7201
▁wine	-7202
menala	-7203
▁Found	-7204
▁Never	-7205
▁gwada	-7206
▁lalata	-7207
▁Federal	-7208
▁benefit	-7209
▁hoputara	-7210
▁Management	-7211
CE	-7212
ав	-7213
▁jọ	-7214
oper	-7215
▁Bas	-7216
round	-7217
▁coll	-7218
▁paid	-7219
abanye	-7220
▁sanyi	-7221
shiryen	-7222
▁leaders	-7223
▁nazarin	-7224
ua	-7225
ит	-7226
olf	-7227
▁46	-7228
ayya	-7229
▁Key	-7230
alaxy	-7231
uncin	-7232
▁Click	-7233
▁files	-7234
▁gwiwa	-7235
▁micro	-7236
▁ọkara	-7237
▁Second	-7238
▁watanni	-7239
▁mpaghara	-7240
arewasound	-7241
▁character	-7242
▁difference	-7243
esh	-7244
ogi	-7245
▁Kh	-7246
▁od	-7247
▁cell	-7248
▁desp	-7249
▁haɗu	-7250
▁juru	-7251
▁named	-7252
▁compla	-7253
▁courage	-7254
▁kwalban	-7255
▁signific	-7256
inu	-7257
udo	-7258
▁UN	-7259
▁ṅụ	-7260
aign	-7261
file	-7262
kure	-7263
uche	-7264
agara	-7265
▁Fire	-7266
▁lies	-7267
▁warn	-7268
▁apply	-7269
▁deliv	-7270
▁minti	-7271
▁ọṅụṅụ	-7272
▁Wholesale	-7273
▁WorldLingo	-7274
-0	-7275
UN	-7276
▁Ing	-7277
▁MGBE	-7278
▁echi	-7279
▁court	-7280
▁print	-7281
▁associ	-7282
▁eleghị	-7283
▁kwarar	-7284
▁obiọma	-7285
▁sports	-7286
▁danganta	-7287
▁Gwamnatin	-7288
▁Ikechukwu	-7289
cis	-7290
ить	-7291
▁ij	-7292
orge	-7293
▁Mel	-7294
esite	-7295
▁kwat	-7296
ganihu	-7297
▁egosi	-7298
▁influ	-7299
▁round	-7300
anọgide	-7301
▁Ekpere	-7302
▁Machine	-7303
6.1	-7304
GHỊ	-7305
rik	-7306
прав	-7307
▁CSO	-7308
▁Tak	-7309
▁gal	-7310
▁ony	-7311
▁fusk	-7312
▁mart	-7313
shirye	-7314
▁board	-7315
править	-7316
▁Manzon	-7317
▁spread	-7318
▁Special	-7319
▁kpebiri	-7320
ake	-7321
▁EU	-7322
kakin	-7323
karịa	-7324
▁Diff	-7325
▁Build	-7326
▁lissa	-7327
▁staff	-7328
▁consum	-7329
▁energy	-7330
▁provides	-7331
▁Manufacturer	-7332
ium	-7333
mna	-7334
▁3,	-7335
▁AS	-7336
▁oy	-7337
owar	-7338
cuted	-7339
gidere	-7340
▁maida	-7341
▁daukar	-7342
▁ƙarfin	-7343
▁wuraren	-7344
▁blessings	-7345
lit	-7346
set	-7347
▁fat	-7348
▁fet	-7349
▁mụọ	-7350
▁nka	-7351
umike	-7352
▁họrọ	-7353
▁Party	-7354
▁areas	-7355
▁aware	-7356
▁gashi	-7357
▁verse	-7358
▁affect	-7359
▁African	-7360
▁becomes	-7361
▁magance	-7362
ãwa	-7363
▁55	-7364
▁Fir	-7365
antun	-7366
▁fell	-7367
▁Think	-7368
▁click	-7369
▁faịlụ	-7370
▁iyaka	-7371
▁Wadannan	-7372
▁learning	-7373
▁community	-7374
▁generation	-7375
Go	-7376
EME	-7377
asụ	-7378
▁".	-7379
▁lif	-7380
Jesus	-7381
▁"...	-7382
▁ịkwa	-7383
▁Union	-7384
▁designed	-7385
▁marketing	-7386
▁performance	-7387
26	-7388
St	-7389
ez	-7390
draw	-7391
oker	-7392
▁ign	-7393
▁tax	-7394
alian	-7395
▁diam	-7396
▁haih	-7397
▁sink	-7398
▁họọrọ	-7399
▁marry	-7400
▁motsa	-7401
▁mulkin	-7402
▁ndịozi	-7403
▁wouldn	-7404
▁anụmanụ	-7405
ec	-7406
▁KW	-7407
▁Lot	-7408
▁rap	-7409
aries	-7410
itate	-7411
▁Ekwu	-7412
▁hoto	-7413
▁riri	-7414
▁shop	-7415
astics	-7416
▁Truth	-7417
▁wives	-7418
akụziri	-7419
▁Sarkin	-7420
▁battle	-7421
▁buƙatar	-7422
▁explain	-7423
▁appointed	-7424
ãni	-7425
▁193	-7426
▁Bat	-7427
▁Lag	-7428
▁doc	-7429
▁Bang	-7430
▁saya	-7431
▁Jamus	-7432
▁Three	-7433
▁gefen	-7434
itional	-7435
▁collect	-7436
▁haihuwa	-7437
▁harshen	-7438
▁matsala	-7439
▁bịakwute	-7440
GA	-7441
VD	-7442
:27	-7443
GHAO	-7444
chen	-7445
▁Team	-7446
▁Type	-7447
▁Audio	-7448
▁tarihin	-7449
▁standing	-7450
▁delivered	-7451
24	-7452
▁DỊ	-7453
zuzu	-7454
▁Cur	-7455
▁lose	-7456
garanya	-7457
▁Brazil	-7458
▁JINGHAO	-7459
▁Support	-7460
▁PCB	-7461
▁dra	-7462
lọmọn	-7463
olume	-7464
▁bilie	-7465
▁ihere	-7466
▁mwute	-7467
ression	-7468
▁kewaye	-7469
▁remind	-7470
▁covered	-7471
▁gbanwee	-7472
▁congregation	-7473
bl	-7474
gon	-7475
▁kpo	-7476
▁nnọ	-7477
kiyar	-7478
oting	-7479
▁Need	-7480
▁Tara	-7481
▁mani	-7482
▁tere	-7483
chịkwa	-7484
▁cimma	-7485
▁circum	-7486
▁regular	-7487
▁sauraron	-7488
▁Ev	-7489
eness	-7490
mical	-7491
▁dika	-7492
▁tren	-7493
▁Angel	-7494
▁bawul	-7495
▁gwaji	-7496
▁older	-7497
▁Kpọtụrụ	-7498
▁Sọlọmọn	-7499
▁correct	-7500
90	-7501
▁Dig	-7502
▁Tom	-7503
▁tur	-7504
urely	-7505
▁Stop	-7506
▁Yahu	-7507
▁Prote	-7508
▁lashe	-7509
▁tabba	-7510
▁haɓaka	-7511
▁photos	-7512
▁suffer	-7513
▁dattawa	-7514
▁salonka	-7515
▁gbanwere	-7516
5)	-7517
??	-7518
aso	-7519
las	-7520
▁(3	-7521
dden	-7522
itan	-7523
built	-7524
ilies	-7525
oshin	-7526
ouple	-7527
▁Come	-7528
▁Mgba	-7529
▁Once	-7530
▁hast	-7531
▁seem	-7532
▁Mmiri	-7533
▁Press	-7534
▁Follow	-7535
▁Galaxy	-7536
▁Another	-7537
▁offered	-7538
▁ofishin	-7539
▁governor	-7540
▁multiple	-7541
▁Advertise	-7542
DM	-7543
ọm	-7544
bal	-7545
ier	-7546
ula	-7547
whi	-7548
▁3)	-7549
▁3:	-7550
▁ky	-7551
▁gun	-7552
ụtụtụ	-7553
▁lụrụ	-7554
change	-7555
▁enemy	-7556
▁Duwatsu	-7557
▁efforts	-7558
▁eternal	-7559
▁maganar	-7560
▁bayyanar	-7561
▁involved	-7562
zik	-7563
▁AT	-7564
take	-7565
▁jig	-7566
▁pas	-7567
kenke	-7568
▁Lamb	-7569
▁Nwan	-7570
▁Peace	-7571
▁ozizi	-7572
▁anytime	-7573
ewu	-7574
udi	-7575
▁AM	-7576
▁rẹ	-7577
▁Kir	-7578
▁Put	-7579
▁haƙ	-7580
▁ịsị	-7581
▁Samf	-7582
▁block	-7583
▁maybe	-7584
▁unique	-7585
▁bayanin	-7586
▁baptized	-7587
▁considered	-7588
Je	-7589
fawa	-7590
▁Bur	-7591
▁Jar	-7592
▁Mor	-7593
▁taf	-7594
▁ụkọ	-7595
▁dubu	-7596
▁fama	-7597
▁hira	-7598
▁danna	-7599
▁divor	-7600
gharịrị	-7601
▁apụghị	-7602
▁letter	-7603
▁musulmi	-7604
▁tinyere	-7605
▁customer	-7606
▁kamfanoni	-7607
?,	-7608
má	-7609
▁Ef	-7610
▁lọ	-7611
aghọ	-7612
▁efe	-7613
▁kid	-7614
▁Hand	-7615
▁Land	-7616
▁horm	-7617
▁manu	-7618
▁ƙara	-7619
▁glass	-7620
▁photo	-7621
▁leader	-7622
▁mmekọahụ	-7623
?'	-7624
EL	-7625
fl	-7626
ell	-7627
Ùnu	-7628
▁kẹ	-7629
ades	-7630
ysis	-7631
zari	-7632
▁Ans	-7633
▁Ext	-7634
▁Gud	-7635
▁USA	-7636
▁kaf	-7637
▁norm	-7638
▁papa	-7639
▁rise	-7640
▁seems	-7641
▁History	-7642
▁kwadoro	-7643
▁ịmalite	-7644
▁maimakon	-7645
wal	-7646
▁Hy	-7647
▁NE	-7648
arku	-7649
bere	-7650
▁Vis	-7651
▁fif	-7652
▁hea	-7653
Allah	-7654
▁Camp	-7655
▁kanta	-7656
▁stero	-7657
▁stuff	-7658
▁wacce	-7659
aimakin	-7660
▁Academ	-7661
▁Mobile	-7662
▁interpret	-7663
▁languages	-7664
nyị	-7665
achụ	-7666
gawa	-7667
odin	-7668
▁Moh	-7669
▁rịọ	-7670
▁twe	-7671
▁ɗan	-7672
▁ịkụ	-7673
ental	-7674
▁Asia	-7675
▁Shar	-7676
▁ball	-7677
▁jari	-7678
▁rike	-7679
▁arịrịọ	-7680
▁karfafa	-7681
▁release	-7682
▁taimake	-7683
▁Christmas	-7684
▁amaghịkwa	-7685
▁]	-7686
▁4,	-7687
attu	-7688
osis	-7689
▁uju	-7690
▁flow	-7691
▁pick	-7692
▁term	-7693
▁Korea	-7694
▁anger	-7695
▁chief	-7696
▁kwana	-7697
▁loves	-7698
▁midst	-7699
▁sanin	-7700
ography	-7701
▁Council	-7702
▁allowed	-7703
▁betting	-7704
▁sacrifice	-7705
bid	-7706
▁1)	-7707
▁Cap	-7708
▁Way	-7709
▁Cath	-7710
▁harm	-7711
▁kame	-7712
▁ojii	-7713
▁Board	-7714
▁Trust	-7715
▁basis	-7716
▁cases	-7717
▁garin	-7718
▁kiran	-7719
ọdịnihu	-7720
▁Engine	-7721
▁attack	-7722
▁integr	-7723
▁tsarka	-7724
▁ịnweta	-7725
:29	-7726
Luk	-7727
jah	-7728
iland	-7729
urday	-7730
▁Umar	-7731
▁note	-7732
ospital	-7733
▁bututu	-7734
▁juriya	-7735
▁aluminum	-7736
▁okorobịa	-7737
▁excellent	-7738
To	-7739
ker	-7740
▁SS	-7741
▁Ban	-7742
▁Bul	-7743
▁hau	-7744
▁2009	-7745
▁Arab	-7746
▁pump	-7747
▁alive	-7748
▁gasar	-7749
▁Kaduna	-7750
▁sudden	-7751
▁Through	-7752
▁projects	-7753
▁yawancin	-7754
fuo	-7755
ours	-7756
wide	-7757
▁bes	-7758
ables	-7759
ograp	-7760
ọtụtụ	-7761
▁acqu	-7762
▁century	-7763
▁companies	-7764
▁collection	-7765
▁AP	-7766
▁Ugo	-7767
▁ule	-7768
izing	-7769
jital	-7770
mitin	-7771
orial	-7772
zzabi	-7773
▁enga	-7774
=5.6.1	-7775
adịkwa	-7776
ekpebi	-7777
fortun	-7778
▁Niile	-7779
▁Their	-7780
▁doubt	-7781
▁kwụrụ	-7782
▁lafiyar	-7783
▁sabuwar	-7784
▁published	-7785
han	-7786
ums	-7787
▁Tha	-7788
▁fai	-7789
▁igbo	-7790
▁sens	-7791
▁wepụ	-7792
▁throw	-7793
▁Listen	-7794
▁Monday	-7795
▁Number	-7796
▁Vessel	-7797
▁ịkpọrọ	-7798
▁sayensị	-7799
▁ọgbụgba	-7800
▁Children	-7801
rs	-7802
uel	-7803
iman	-7804
ints	-7805
▁Fear	-7806
▁evid	-7807
▁fund	-7808
▁jawa	-7809
▁mini	-7810
▁tempt	-7811
atalyst	-7812
▁object	-7813
▁placed	-7814
▁states	-7815
▁Cikakke	-7816
▁Saturday	-7817
LS	-7818
:31	-7819
joji	-7820
ogin	-7821
▁IKE	-7822
▁Tai	-7823
▁dim	-7824
istic	-7825
▁sche	-7826
▁tọrọ	-7827
▁ideas	-7828
▁zafin	-7829
▁dakatar	-7830
▁Plastics	-7831
▁comments	-7832
▁political	-7833
▁Mb	-7834
aden	-7835
brag	-7836
oups	-7837
resh	-7838
▁Gba	-7839
▁Naị	-7840
ayoyi	-7841
▁dred	-7842
▁agree	-7843
▁sauƙi	-7844
▁degree	-7845
▁Isiokwu	-7846
▁jiragen	-7847
▁bangaren	-7848
▁blessing	-7849
▁structure	-7850
8)	-7851
TS	-7852
obe	-7853
yal	-7854
▁Fi	-7855
▁Sw	-7856
onst	-7857
wood	-7858
▁iju	-7859
atụle	-7860
barka	-7861
rated	-7862
▁Tele	-7863
▁hars	-7864
▁link	-7865
▁mark	-7866
▁capac	-7867
▁moved	-7868
▁mulki	-7869
▁shown	-7870
▁appeared	-7871
▁makamashi	-7872
RỊ	-7873
unu	-7874
▁Ak	-7875
hova	-7876
▁oku	-7877
▁ɗin	-7878
▁ịṅụ	-7879
▁2000	-7880
▁Easy	-7881
▁guid	-7882
chịchị	-7883
▁Aịzik	-7884
▁Enter	-7885
▁angry	-7886
▁exerc	-7887
▁stood	-7888
▁kullun	-7889
▁Scriptures	-7890
-10	-7891
▁Cr	-7892
▁WE	-7893
anti	-7894
▁bata	-7895
▁educ	-7896
▁tele	-7897
echeta	-7898
▁komai	-7899
jection	-7900
▁Portug	-7901
▁daraja	-7902
▁released	-7903
▁Commission	-7904
13	-7905
èz	-7906
iro	-7907
lai	-7908
maya	-7909
rupt	-7910
▁Live	-7911
▁Sams	-7912
▁moto	-7913
ekwusa	-7914
▁Games	-7915
▁Learn	-7916
▁Yawan	-7917
▁ajiye	-7918
▁motsi	-7919
▁stars	-7920
▁vision	-7921
▁hosting	-7922
▁journey	-7923
▁decoration	-7924
hun	-7925
itar	-7926
lies	-7927
pher	-7928
istor	-7929
▁Born	-7930
▁Tell	-7931
▁bari	-7932
ensive	-7933
▁Apost	-7934
▁juyin	-7935
▁Stones	-7936
▁dubawa	-7937
▁merenụ	-7938
▁Kakakin	-7939
▁akaụntụ	-7940
▁careful	-7941
kwekọrịta	-7942
▁shugabannin	-7943
Re	-7944
off	-7945
▁Cre	-7946
▁Tem	-7947
▁fac	-7948
▁jan	-7949
yayya	-7950
agụkwa	-7951
▁Leave	-7952
▁realize	-7953
▁ịnyịnya	-7954
agbaghara	-7955
▁destroyed	-7956
▁equipment	-7957
OV	-7958
ule	-7959
▁Ay	-7960
▁Jun	-7961
▁2008	-7962
▁ONYE	-7963
▁organ	-7964
▁Onyeka	-7965
▁credit	-7966
▁yaushe	-7967
standing	-7968
▁payment	-7969
▁reasons	-7970
▁practice	-7971
▁throughout	-7972
CS	-7973
rar	-7974
▁$1	-7975
kiri	-7976
mark	-7977
then	-7978
year	-7979
▁Jew	-7980
▁ọkà	-7981
erous	-7982
rency	-7983
▁NDDC	-7984
▁Pụrụ	-7985
▁Sabb	-7986
cturing	-7987
▁silver	-7988
▁digital	-7989
▁suitable	-7990
▁continued	-7991
▁effective	-7992
▁cututtukan	-7993
-6	-7994
ST	-7995
èzí	-7996
daga	-7997
▁Abi	-7998
▁Mbụ	-7999
▁Sov	-8000
▁ikw	-8001
▁muh	-8002
▁lift	-8003
ressed	-8004
▁Langu	-8005
▁Multi	-8006
▁amara	-8007
▁stock	-8008
▁omenala	-8009
▁prosper	-8010
▁kamfanonin	-8011
Dị	-8012
rog	-8013
kpam	-8014
with	-8015
▁AKA	-8016
▁Inf	-8017
▁Non	-8018
▁OTÚ	-8019
▁ant	-8020
▁ede	-8021
▁zag	-8022
chael	-8023
ọnọdụ	-8024
▁Last	-8025
▁doll	-8026
▁nada	-8027
▁sune	-8028
▁piece	-8029
ception	-8030
echegbu	-8031
▁Policy	-8032
▁asarar	-8033
▁halitt	-8034
▁bangare	-8035
▁Ubangijin	-8036
▁interested	-8037
:34	-8038
ọsh	-8039
▁Ki	-8040
▁hol	-8041
▁oyi	-8042
range	-8043
▁Anti	-8044
ancial	-8045
▁Color	-8046
▁guard	-8047
emepụta	-8048
▁square	-8049
▁rahoton	-8050
▁injiniya	-8051
iny	-8052
oms	-8053
uko	-8054
▁9.	-8055
▁Ur	-8056
▁eh	-8057
madu	-8058
oron	-8059
▁frequ	-8060
▁sales	-8061
vanized	-8062
▁Allahn	-8063
▁center	-8064
▁hungry	-8065
▁points	-8066
▁details	-8067
▁dịkarịa	-8068
▁kewayon	-8069
ew	-8070
alen	-8071
ubar	-8072
▁kad	-8073
▁kpu	-8074
▁Kula	-8075
▁koya	-8076
▁late	-8077
▁soji	-8078
▁vill	-8079
▁wear	-8080
▁lezie	-8081
▁motor	-8082
lasting	-8083
▁middle	-8084
▁okporo	-8085
ackaging	-8086
▁arrived	-8087
▁consist	-8088
▁ezumike	-8089
▁options	-8090
AM	-8091
Ala	-8092
box	-8093
cont	-8094
▁Roy	-8095
▁Head	-8096
▁gari	-8097
▁nemi	-8098
▁Faith	-8099
▁offic	-8100
▁Menene	-8101
▁Search	-8102
▁impact	-8103
▁dijital	-8104
▁fahimtar	-8105
▁Messenger	-8106
▁followers	-8107
BE	-8108
oon	-8109
reci	-8110
▁Str	-8111
▁1000	-8112
▁Lady	-8113
▁Week	-8114
▁cool	-8115
▁ọbịa	-8116
▁helps	-8117
▁Nwunye	-8118
▁brings	-8119
▁gesite	-8120
▁mmemme	-8121
▁tsofaf	-8122
▁widely	-8123
▁yellow	-8124
▁carried	-8125
▁official	-8126
▁shakatawa	-8127
FP	-8128
▁47	-8129
▁zã	-8130
▁Rob	-8131
▁ọlị	-8132
iyawa	-8133
otten	-8134
▁mirac	-8135
▁worry	-8136
▁decide	-8137
▁mankind	-8138
▁Governor	-8139
▁Ukrainian	-8140
▁mentioned	-8141
gra	-8142
▁Er	-8143
6.25	-8144
arsa	-8145
miah	-8146
otal	-8147
puta	-8148
▁Bow	-8149
▁Ham	-8150
▁Bill	-8151
▁fine	-8152
▁sada	-8153
▁Could	-8154
▁Lalle	-8155
▁katin	-8156
ciences	-8157
▁akaebe	-8158
▁windows	-8159
▁straight	-8160
▁fulfilled	-8161
kta	-8162
ishi	-8163
like	-8164
▁Div	-8165
▁Jụọ	-8166
▁Sta	-8167
▁Park	-8168
▁drop	-8169
▁ears	-8170
▁hukum	-8171
▁posts	-8172
akpagbu	-8173
▁Poland	-8174
▁easily	-8175
▁priests	-8176
▁declared	-8177
▁selection	-8178
▁activities	-8179
▁kõ	-8180
wuwa	-8181
▁Mov	-8182
▁las	-8183
▁nrụ	-8184
▁pịa	-8185
▁ruk	-8186
abiga	-8187
ittee	-8188
▁cike	-8189
aduate	-8190
▁meant	-8191
▁pursu	-8192
▁sauke	-8193
▁Amfani	-8194
▁amazing	-8195
▁animals	-8196
▁hukunci	-8197
▁kuskure	-8198
▁lamarin	-8199
▁neighbor	-8200
▁chọpụtara	-8201
▁listening	-8202
▁acknowledge	-8203
▁ingantaccen	-8204
95	-8205
pọ	-8206
guz	-8207
▁vs	-8208
ania	-8209
riel	-8210
▁ọkọ	-8211
▁Aiki	-8212
▁Food	-8213
▁Hell	-8214
▁Show	-8215
▁teku	-8216
ulated	-8217
▁bibie	-8218
▁bikin	-8219
▁crowd	-8220
▁Indust	-8221
▁couldn	-8222
▁notice	-8223
▁Samsung	-8224
▁observe	-8225
▁Thailand	-8226
▁makaranta	-8227
pty	-8228
▁wụ	-8229
awar	-8230
gbuo	-8231
▁Bud	-8232
▁Ọdị	-8233
ented	-8234
▁Mean	-8235
▁aure	-8236
kwaara	-8237
▁Music	-8238
▁cochle	-8239
▁mesịrị	-8240
▁ịchọrọ	-8241
ropriate	-8242
▁entered	-8243
▁players	-8244
▁dọ	-8245
▁Ber	-8246
▁Ebu	-8247
▁Fas	-8248
▁Pal	-8249
▁arm	-8250
uruwan	-8251
▁Maybe	-8252
▁leading	-8253
▁takardar	-8254
ky	-8255
that	-8256
▁nwụ	-8257
▁ohi	-8258
▁View	-8259
▁capt	-8260
▁okay	-8261
alized	-8262
▁depos	-8263
▁guide	-8264
▁couple	-8265
▁growth	-8266
▁seeing	-8267
▁Brother	-8268
▁Chapter	-8269
▁Faransa	-8270
▁ederede	-8271
▁employe	-8272
▁reached	-8273
▁sabunta	-8274
▁carefully	-8275
▁Professional	-8276
▁ej	-8277
OKWU	-8278
resp	-8279
▁jik	-8280
▁Kasị	-8281
▁Wire	-8282
▁acid	-8283
▁beat	-8284
▁farf	-8285
▁kadd	-8286
▁prot	-8287
▁repe	-8288
asures	-8289
▁Title	-8290
▁alaka	-8291
▁sarki	-8292
▁shing	-8293
▁yamma	-8294
▁agbata	-8295
▁latest	-8296
▁njehie	-8297
▁Getting	-8298
▁Project	-8299
▁kọmputa	-8300
▁finished	-8301
▁temperature	-8302
▁›	-8303
Jọsh	-8304
ibly	-8305
▁cru	-8306
▁tor	-8307
ebibi	-8308
▁Choose	-8309
▁global	-8310
▁ntinye	-8311
▁rigaka	-8312
Lambobin	-8313
osterone	-8314
▁Onyinye	-8315
▁extreme	-8316
▁feature	-8317
▁matakai	-8318
▁zamanto	-8319
▁interior	-8320
Iji	-8321
clud	-8322
yond	-8323
▁Rah	-8324
▁Win	-8325
▁bed	-8326
▁gon	-8327
attun	-8328
▁Enye	-8329
▁lack	-8330
▁mine	-8331
▁rufi	-8332
▁Const	-8333
▁Greek	-8334
▁Messi	-8335
▁kyaut	-8336
▁sirri	-8337
sụgharị	-8338
▁script	-8339
▁strugg	-8340
▁Control	-8341
▁standard	-8342
▁bayyanannu	-8343
▁Bot	-8344
▁DVD	-8345
▁Tar	-8346
▁ámá	-8347
▁gwar	-8348
▁slow	-8349
▁Lagos	-8350
▁Legit	-8351
▁Ekwere	-8352
▁loving	-8353
▁Michael	-8354
▁herself	-8355
▁kafofin	-8356
▁zazzabi	-8357
▁samfurori	-8358
lor	-8359
▁ge	-8360
Mgbe	-8361
▁Yar	-8362
▁izi	-8363
▁kil	-8364
arori	-8365
▁comb	-8366
▁fair	-8367
▁distrib	-8368
▁kasashe	-8369
▁prepare	-8370
▁communic	-8371
▁harkokin	-8372
.]	-8373
ION	-8374
gbè	-8375
juju	-8376
▁Ife	-8377
▁wed	-8378
ighty	-8379
welve	-8380
yonyo	-8381
▁Main	-8382
▁hawa	-8383
ournal	-8384
ọgbakọ	-8385
▁Patri	-8386
▁tsabta	-8387
▁clearly	-8388
▁tambaye	-8389
▁whoever	-8390
▁kwukwara	-8391
▁transgress	-8392
7)	-8393
▁oo	-8394
comp	-8395
hips	-8396
iced	-8397
▁Ayy	-8398
▁PVC	-8399
▁guy	-8400
▁mbà	-8401
▁ịgb	-8402
▁Igwe	-8403
▁Mats	-8404
▁dabi	-8405
▁yaki	-8406
mitted	-8407
▁Share	-8408
▁nzuzu	-8409
▁prior	-8410
▁sinad	-8411
▁inform	-8412
▁length	-8413
▁sitting	-8414
▁responsibility	-8415
9]	-8416
yer	-8417
▁Lu	-8418
onia	-8419
▁Aut	-8420
▁Bro	-8421
▁arị	-8422
asion	-8423
▁cert	-8424
▁yunk	-8425
abeghị	-8426
▁fetur	-8427
▁final	-8428
▁ịbanye	-8429
▁Program	-8430
▁daidait	-8431
▁metụtara	-8432
iversities	-8433
▁Egwuregwu	-8434
esu	-8435
õda	-8436
▁TH	-8437
born	-8438
▁Ruo	-8439
▁ozo	-8440
▁tit	-8441
eding	-8442
▁Artic	-8443
▁Bekee	-8444
comment	-8445
▁Sweden	-8446
▁region	-8447
▁Counter	-8448
▁ogbenye	-8449
▁produce	-8450
▁ọgwụgwọ	-8451
▁PS	-8452
chol	-8453
▁Dee	-8454
▁Dok	-8455
▁Kasa	-8456
▁Oper	-8457
▁clot	-8458
▁till	-8459
▁Clear	-8460
▁Daily	-8461
▁gifts	-8462
▁kọọrọ	-8463
▁Ọbụna	-8464
▁Ọhụrụ	-8465
▁season	-8466
▁worked	-8467
▁private	-8468
▁tambaya	-8469
RS	-8470
fun	-8471
adar	-8472
sume	-8473
▁fan	-8474
▁gbo	-8475
▁ire	-8476
▁irè	-8477
aṅụrị	-8478
▁rain	-8479
▁subs	-8480
▁kings	-8481
▁nkụzi	-8482
▁shiri	-8483
▁woofer	-8484
▁Nzọụkwụ	-8485
▁variety	-8486
▁ụgbọelu	-8487
▁ọgaranya	-8488
'.	-8489
Sh	-8490
TE	-8491
asta	-8492
ụọla	-8493
▁iOS	-8494
▁lic	-8495
▁Dist	-8496
▁Mmụọ	-8497
▁desi	-8498
▁glor	-8499
▁ɗaya	-8500
▁abund	-8501
▁calls	-8502
▁Angels	-8503
▁alụmdi	-8504
▁prayed	-8505
▁ọgbakọ	-8506
▁average	-8507
▁descend	-8508
▁finally	-8509
▁Kara	-8510
▁Vict	-8511
▁frame	-8512
▁reply	-8513
▁tsawo	-8514
▁Ozugbo	-8515
▁ịkwụsị	-8516
▁Gwamnan	-8517
▁aghaghị	-8518
▁pleased	-8519
▁speaker	-8520
▁stopped	-8521
▁Musamman	-8522
▁shekarun	-8523
▁repentance	-8524
ses	-8525
Have	-8526
wụsị	-8527
▁Kur	-8528
▁Lev	-8529
igned	-8530
▁guzo	-8531
▁gụrụ	-8532
▁tace	-8533
▁wire	-8534
▁elder	-8535
▁raise	-8536
fection	-8537
▁showed	-8538
▁happens	-8539
▁ịtụnanya	-8540
▁recommend	-8541
▁requirements	-8542
16	-8543
GE	-8544
tops	-8545
▁Ell	-8546
▁Try	-8547
ilder	-8548
▁yadu	-8549
▁2017.	-8550
▁crying	-8551
▁lamari	-8552
wararren	-8553
▁nzọpụta	-8554
▁onyonyo	-8555
▁zamanta	-8556
Al	-8557
IM	-8558
-20	-8559
hur	-8560
hest	-8561
▁Bag	-8562
▁Fun	-8563
▁ISO	-8564
anyụọ	-8565
dachi	-8566
▁canc	-8567
▁cuta	-8568
▁kpee	-8569
▁saba	-8570
▁Psalm	-8571
▁Queen	-8572
▁dakin	-8573
kwutere	-8574
▁gafere	-8575
Catalyst	-8576
lication	-8577
▁nlekọta	-8578
▁nyochaa	-8579
▁plastic	-8580
▁wonderful	-8581
▁Arewasound	-8582
▁Information	-8583
LỌ	-8584
▁È	-8585
▁Ly	-8586
cape	-8587
eman	-8588
▁Abd	-8589
oking	-8590
▁fish	-8591
▁poly	-8592
▁Econom	-8593
▁Global	-8594
▁Nether	-8595
▁halaye	-8596
▁ngwọta	-8597
▁Product	-8598
▁ziyarci	-8599
▁national	-8600
▁shigarwa	-8601
▁Marketing	-8602
OB	-8603
dy	-8604
ọzi	-8605
haji	-8606
osary	-8607
▁maga	-8608
▁ịchọ	-8609
▁dabam	-8610
▁girls	-8611
▁kanka	-8612
▁wrath	-8613
▁Transl	-8614
▁aghọta	-8615
▁playing	-8616
▁rajista	-8617
▁patients	-8618
▁connection	-8619
▁responsible	-8620
ivil	-8621
ties	-8622
▁Att	-8623
▁GOD	-8624
▁dry	-8625
▁jee	-8626
▁tag	-8627
aches	-8628
▁Meet	-8629
▁Wiki	-8630
▁Asụsụ	-8631
▁labor	-8632
▁zaune	-8633
ination	-8634
▁Kristi	-8635
▁amalite	-8636
▁granted	-8637
▁mgbochi	-8638
▁Although	-8639
▁approach	-8640
gas	-8641
izu	-8642
anku	-8643
zine	-8644
▁DSS	-8645
▁Ntu	-8646
▁Ref	-8647
▁akọ	-8648
▁pet	-8649
▁ịkw	-8650
▁ụba	-8651
itely	-8652
▁Swit	-8653
▁doka	-8654
▁gami	-8655
▁sall	-8656
▁yafi	-8657
ground	-8658
▁Hibru	-8659
▁Litta	-8660
▁crypt	-8661
▁ọnụnọ	-8662
▁Kagara	-8663
▁albark	-8664
▁usually	-8665
himmancin	-8666
▁Services	-8667
▁nọnyeere	-8668
▁original	-8669
▁platform	-8670
App	-8671
▁Li	-8672
down	-8673
gọzi	-8674
▁Kud	-8675
erent	-8676
▁Stat	-8677
▁deaf	-8678
▁fing	-8679
▁shot	-8680
▁user	-8681
tobrag	-8682
▁Table	-8683
▁deeds	-8684
▁flood	-8685
▁advert	-8686
▁advantage	-8687
▁kayayyaki	-8688
builttobrag	-8689
On	-8690
bot	-8691
sec	-8692
▁75	-8693
inar	-8694
rịnt	-8695
▁250	-8696
▁Its	-8697
pects	-8698
▁2010	-8699
▁pred	-8700
▁tong	-8701
overed	-8702
▁Anyan	-8703
▁Moham	-8704
undunar	-8705
▁Kọrịnt	-8706
▁ntọala	-8707
▁desires	-8708
▁yawanci	-8709
▁kwatanta	-8710
▁standards	-8711
▁FileCatalyst	-8712
ize	-8713
nes	-8714
▁51	-8715
▁ng	-8716
alma	-8717
aton	-8718
bing	-8719
llig	-8720
▁Eve	-8721
omọkụ	-8722
▁aren	-8723
▁cand	-8724
▁Human	-8725
▁MMADỤ	-8726
▁Tsarki	-8727
▁makiya	-8728
▁Creator	-8729
▁akpụkpọ	-8730
▁littatta	-8731
▁maintain	-8732
▁jagoranci	-8733
▁obedience	-8734
▁Netherlands	-8735
▁everlasting	-8736
aza	-8737
oké	-8738
ọbụ	-8739
▁CE	-8740
▁Mc	-8741
▁SP	-8742
oman	-8743
▁Gig	-8744
▁Hun	-8745
▁Kai	-8746
▁Mom	-8747
▁Okp	-8748
▁log	-8749
▁pit	-8750
▁ulo	-8751
▁Miss	-8752
▁Waya	-8753
jalisa	-8754
▁Nazar	-8755
▁album	-8756
▁sinks	-8757
▁zaben	-8758
igation	-8759
kwaghịm	-8760
▁Hanyar	-8761
▁Marufi	-8762
▁marble	-8763
▁saurin	-8764
▁tsarki	-8765
▁Francis	-8766
▁waiting	-8767
righteous	-8768
dex	-8769
ffic	-8770
itiz	-8771
koki	-8772
▁Cup	-8773
▁Dam	-8774
▁Kọr	-8775
▁akù	-8776
▁aṅụ	-8777
▁hyp	-8778
▁ibi	-8779
eless	-8780
uxury	-8781
okporo	-8782
▁Thank	-8783
▁bushe	-8784
▁shari	-8785
▁George	-8786
▁effort	-8787
▁magung	-8788
▁offici	-8789
▁remove	-8790
▁sevent	-8791
▁yiwuwa	-8792
▁contrib	-8793
▁muhalli	-8794
▁location	-8795
lue	-8796
ares	-8797
iten	-8798
rane	-8799
▁192	-8800
▁sna	-8801
artar	-8802
aghọta	-8803
reanya	-8804
▁laugh	-8805
▁sites	-8806
▁ugbua	-8807
ezinụlọ	-8808
osition	-8809
▁Window	-8810
▁eating	-8811
▁safety	-8812
▁devices	-8813
▁sayarwa	-8814
▁tattaunawa	-8815
yed	-8816
▁49	-8817
▁52	-8818
▁fim	-8819
▁lit	-8820
▁ome	-8821
eweta	-8822
▁bike	-8823
▁gark	-8824
▁sort	-8825
engers	-8826
friend	-8827
▁accur	-8828
▁baiwa	-8829
▁fallen	-8830
▁hotuna	-8831
▁profit	-8832
▁onyeozi	-8833
▁apostles	-8834
▁household	-8835
gl	-8836
?""	-8837
IYA	-8838
biya	-8839
edic	-8840
lymp	-8841
▁bow	-8842
▁ndú	-8843
osisi	-8844
▁alle	-8845
▁fool	-8846
▁Daalụ	-8847
▁ebubo	-8848
▁subst	-8849
▁bibiri	-8850
▁ndepụta	-8851
▁advanced	-8852
▁Converter	-8853
▁persecuted	-8854
▁Development	-8855
▁OK	-8856
ịsịa	-8857
▁Jan	-8858
▁Mur	-8859
▁Opt	-8860
▁arọ	-8861
osure	-8862
▁extra	-8863
▁shida	-8864
▁space	-8865
▁yours	-8866
▁unless	-8867
▁Ọzọkwa	-8868
▁attempt	-8869
▁karịsịa	-8870
▁unbelie	-8871
▁waɗannan	-8872
▁Ịhụnanya	-8873
▁thousands	-8874
.[	-8875
CO	-8876
Me	-8877
cci	-8878
uted	-8879
▁Nle	-8880
▁aza	-8881
▁han	-8882
▁thi	-8883
▁umu	-8884
▁vac	-8885
akọta	-8886
▁Abụọ	-8887
▁Baby	-8888
▁OKWU	-8889
▁nọdụ	-8890
▁prop	-8891
▁weld	-8892
▁closer	-8893
▁groups	-8894
▁sassan	-8895
▁albarka	-8896
▁battery	-8897
▁billion	-8898
▁convert	-8899
▁ruwaito	-8900
BU	-8901
pre	-8902
▁Ije	-8903
odies	-8904
▁lots	-8905
▁ọgbọ	-8906
▁Place	-8907
▁tools	-8908
▁wadda	-8909
▁Rashin	-8910
▁adjust	-8911
▁sautin	-8912
▁kwụsịrị	-8913
70	-8914
lang	-8915
ocur	-8916
▁Bid	-8917
▁CNC	-8918
▁cook	-8919
▁dabb	-8920
▁foda	-8921
▁karị	-8922
editar	-8923
estern	-8924
▁kwara	-8925
▁shakka	-8926
▁target	-8927
▁yankan	-8928
▁dabarun	-8929
▁encoura	-8930
▁magburu	-8931
▁bụrụgodị	-8932
▁kpamkpam	-8933
▁Association	-8934
MỤ	-8935
WỤ	-8936
▁BI	-8937
▁kã	-8938
▁Pop	-8939
oured	-8940
▁Want	-8941
▁jima	-8942
▁nesa	-8943
akpata	-8944
▁Sarah	-8945
▁mmadu	-8946
▁Alhaji	-8947
▁baturi	-8948
▁kwanan	-8949
▁nchebe	-8950
▁Inganta	-8951
▁fahimci	-8952
▁Kungiyar	-8953
▁Security	-8954
▁religion	-8955
MU	-8956
law	-8957
▁TO	-8958
Igbo	-8959
allo	-8960
tail	-8961
▁Dev	-8962
▁owu	-8963
alted	-8964
▁Litt	-8965
▁Mike	-8966
▁debe	-8967
arshen	-8968
▁Chief	-8969
▁Small	-8970
▁Timoti	-8971
▁Vanity	-8972
▁sabbin	-8973
▁screen	-8974
▁Society	-8975
▁Subject	-8976
▁kpọtụrụ	-8977
▁separate	-8978
En	-8979
:00	-8980
CHE	-8981
ago	-8982
ino	-8983
ume	-8984
▁FT	-8985
▁ID	-8986
▁Buy	-8987
▁Pur	-8988
ịzaya	-8989
▁proc	-8990
▁quar	-8991
▁Class	-8992
▁Verse	-8993
▁legal	-8994
▁plans	-8995
▁ịhọrọ	-8996
anabata	-8997
▁burden	-8998
▁mesoro	-8999
▁reduce	-9000
▁skills	-9001
▁ọkpara	-9002
▁appreci	-9003
▁picture	-9004
▁tattara	-9005
▁families	-9006
▁relative	-9007
▁decisions	-9008
9)	-9009
atab	-9010
▁NOT	-9011
▁Sea	-9012
▁Wel	-9013
ghach	-9014
paper	-9015
▁Conne	-9016
▁lying	-9017
▁merie	-9018
▁noise	-9019
▁pregn	-9020
▁Gospel	-9021
▁Market	-9022
▁mgbaru	-9023
alization	-9024
▁Paradise	-9025
▁yarjejen	-9026
▁Okechukwu	-9027
▁Scripture	-9028
▁Stainless	-9029
fortunately	-9030
edụ	-9031
ịar	-9032
ụdị	-9033
▁Cry	-9034
Ijipt	-9035
aming	-9036
anned	-9037
emede	-9038
erial	-9039
gthen	-9040
jirịa	-9041
▁Disc	-9042
▁Ngwá	-9043
enance	-9044
▁Happy	-9045
▁absol	-9046
▁itace	-9047
▁oyiyi	-9048
antance	-9049
▁Mataki	-9050
▁property	-9051
ax	-9052
:33	-9053
:37	-9054
▁Jọ	-9055
enti	-9056
isan	-9057
▁50%	-9058
▁AHỤ	-9059
▁bag	-9060
▁tom	-9061
arwar	-9062
▁Blue	-9063
▁Bugu	-9064
▁Magn	-9065
▁Phot	-9066
▁dari	-9067
▁maye	-9068
▁Obodo	-9069
▁maghị	-9070
▁Series	-9071
▁bangon	-9072
▁mgbede	-9073
▁walking	-9074
▁pleasure	-9075
▁transfer	-9076
▁accomplish	-9077
▁compassion	-9078
NT	-9079
au	-9080
abu	-9081
ont	-9082
via	-9083
ẹnẹ	-9084
▁lu	-9085
bụrụ	-9086
dozi	-9087
ecut	-9088
oval	-9089
roll	-9090
ọcha	-9091
▁Bil	-9092
▁Dal	-9093
▁Ebi	-9094
▁Fur	-9095
▁ISI	-9096
▁arg	-9097
▁dub	-9098
annel	-9099
▁Fact	-9100
▁Rome	-9101
▁Ugwu	-9102
▁Wuta	-9103
▁moon	-9104
▁Olymp	-9105
▁goals	-9106
▁heavy	-9107
▁kawar	-9108
▁Nwanne	-9109
▁cancer	-9110
▁icheta	-9111
▁sample	-9112
▁largest	-9113
▁praying	-9114
▁rarraba	-9115
▁section	-9116
▁ịmepụta	-9117
▁withdraw	-9118
▁Insurance	-9119
▁happiness	-9120
▁operation	-9121
▁successful	-9122
ãy	-9123
REE	-9124
▁Fal	-9125
▁Low	-9126
akụzi	-9127
esome	-9128
llahi	-9129
▁ISHA	-9130
▁Kwan	-9131
▁Page	-9132
▁Star	-9133
▁Tabb	-9134
▁copy	-9135
▁miƙa	-9136
▁ígwè	-9137
amples	-9138
bolone	-9139
kpuchi	-9140
▁haven	-9141
▁sakon	-9142
▁sanda	-9143
▁zunubi	-9144
▁British	-9145
▁Plastic	-9146
▁asibiti	-9147
▁calling	-9148
▁karatun	-9149
▁kwesiri	-9150
▁network	-9151
▁pouches	-9152
▁dịghịkwa	-9153
▁Testament	-9154
▁chegharịa	-9155
▁developed	-9156
▁ST	-9157
▁bọ	-9158
▁sã	-9159
odes	-9160
othy	-9161
veni	-9162
▁sup	-9163
udata	-9164
▁bull	-9165
▁bịar	-9166
▁Ọnwụ	-9167
▁Italy	-9168
▁fellow	-9169
▁joined	-9170
▁throne	-9171
▁telling	-9172
▁ƙananan	-9173
▁matsaloli	-9174
▁tụkwasịrị	-9175
mg	-9176
hụa	-9177
nna	-9178
not	-9179
och	-9180
▁5,	-9181
icon	-9182
lict	-9183
toba	-9184
▁Run	-9185
▁nza	-9186
alled	-9187
▁Each	-9188
▁Holm	-9189
▁kọrọ	-9190
▁menu	-9191
▁eruwo	-9192
▁asalin	-9193
▁emeela	-9194
▁wahala	-9195
▁Academy	-9196
▁Witness	-9197
▁njedebe	-9198
▁student	-9199
▁ọganihu	-9200
▁Abubuwan	-9201
28	-9202
UT	-9203
aịn	-9204
▁Ve	-9205
atto	-9206
mụmụ	-9207
▁Qur	-9208
▁kit	-9209
ọshụa	-9210
▁Indi	-9211
▁Talk	-9212
▁army	-9213
▁crit	-9214
▁fare	-9215
▁gana	-9216
▁sell	-9217
▁ọhụụ	-9218
▁empty	-9219
▁paths	-9220
▁tushe	-9221
▁walla	-9222
▁Friend	-9223
▁lalace	-9224
▁likely	-9225
▁maroki	-9226
▁meekwa	-9227
▁shinge	-9228
▁Hosting	-9229
▁chọọchị	-9230
▁gọọment	-9231
▁ọgwụgwụ	-9232
2)	-9233
you	-9234
UKWU	-9235
isto	-9236
lipp	-9237
rict	-9238
▁Bal	-9239
▁Ret	-9240
▁Yak	-9241
lying	-9242
▁laid	-9243
▁race	-9244
▁saki	-9245
▁Ụgbọ	-9246
coming	-9247
▁brown	-9248
▁cried	-9249
▁dwell	-9250
▁ifufe	-9251
▁inhab	-9252
▁maxim	-9253
▁teeth	-9254
akpando	-9255
▁Kemgbe	-9256
▁formed	-9257
▁rememb	-9258
▁worthy	-9259
▁dalilin	-9260
▁Catholic	-9261
▁minister	-9262
etụ	-9263
▁Oj	-9264
atak	-9265
cean	-9266
elds	-9267
rine	-9268
ylon	-9269
▁fix	-9270
▁jim	-9271
ading	-9272
asins	-9273
hausa	-9274
▁Fall	-9275
▁Mama	-9276
▁jere	-9277
▁mãsu	-9278
▁ship	-9279
▁vaịn	-9280
ifying	-9281
▁canji	-9282
▁conce	-9283
▁emewo	-9284
▁ended	-9285
▁Ibeene	-9286
▁Faculty	-9287
▁Limited	-9288
▁biliyan	-9289
▁kalmomi	-9290
▁science	-9291
▁serious	-9292
▁tsananin	-9293
▁Questions	-9294
▁appropriate	-9295
Af	-9296
wẹ	-9297
kel	-9298
aste	-9299
oria	-9300
▁Fab	-9301
▁Pịa	-9302
▁nma	-9303
xygen	-9304
▁Song	-9305
▁asks	-9306
▁bunk	-9307
▁laws	-9308
▁Saint	-9309
▁Syria	-9310
▁amata	-9311
▁Mutane	-9312
▁Secret	-9313
▁elders	-9314
▁houses	-9315
▁mgbakọ	-9316
▁nyeere	-9317
▁police	-9318
ads	-9319
▁sọ	-9320
miss	-9321
▁Cop	-9322
▁cig	-9323
▁ege	-9324
xiety	-9325
▁audi	-9326
▁mako	-9327
▁tall	-9328
▁Birth	-9329
▁Death	-9330
▁Georg	-9331
▁Story	-9332
▁Tinye	-9333
▁contr	-9334
▁fashi	-9335
▁karya	-9336
▁kpụrụ	-9337
▁looks	-9338
▁ịhapụ	-9339
isiokwu	-9340
▁attend	-9341
▁images	-9342
▁sashen	-9343
▁served	-9344
▁harvest	-9345
▁Language	-9346
▁Naịjirịa	-9347
▁Abdullahi	-9348
.16	-9349
tan	-9350
umn	-9351
▁hi	-9352
▁sụ	-9353
ules	-9354
▁Ron	-9355
▁Whe	-9356
▁egw	-9357
▁nob	-9358
using	-9359
▁Hall	-9360
▁pool	-9361
etooth	-9362
▁haɗin	-9363
▁Afrika	-9364
▁Gaskiya	-9365
▁sauraro	-9366
▁physical	-9367
▁zinariya	-9368
▁kasuwancin	-9369
▁nkwekọrịta	-9370
Ba	-9371
!!!	-9372
▁Akp	-9373
▁Bad	-9374
▁alk	-9375
▁ila	-9376
▁tie	-9377
▁Aika	-9378
▁Kada	-9379
taniya	-9380
▁River	-9381
▁title	-9382
▁akwụsị	-9383
▁oghere	-9384
▁phones	-9385
▁chapter	-9386
▁mmepụta	-9387
▁Question	-9388
▁meditate	-9389
▁individuals	-9390
td	-9391
Ony	-9392
▁Dar	-9393
▁Hen	-9394
▁Sug	-9395
▁onu	-9396
▁ìsì	-9397
ahọrọ	-9398
emezu	-9399
▁rare	-9400
▁nketa	-9401
▁peeji	-9402
▁topic	-9403
▁track	-9404
▁Jọshụa	-9405
▁allows	-9406
▁arrest	-9407
▁carbon	-9408
▁ekwela	-9409
▁lokuta	-9410
▁attract	-9411
▁samarwa	-9412
▁campaign	-9413
▁tabbacin	-9414
▁solutions	-9415
nke	-9416
▁Aw	-9417
fara	-9418
▁Cri	-9419
▁Jir	-9420
▁Ital	-9421
▁Jems	-9422
▁Moab	-9423
▁club	-9424
▁drug	-9425
rimara	-9426
▁drugs	-9427
▁izute	-9428
▁Gwamna	-9429
▁disapp	-9430
▁famous	-9431
▁pieces	-9432
▁waters	-9433
ulations	-9434
▁gwargwa	-9435
▁workers	-9436
▁Binciken	-9437
▁includes	-9438
▁positive	-9439
▁essential	-9440
SP	-9441
ỌN	-9442
obo	-9443
▁Ek	-9444
That	-9445
omas	-9446
▁10,	-9447
▁BBC	-9448
▁obl	-9449
▁omn	-9450
works	-9451
▁Daya	-9452
▁Fili	-9453
▁Mill	-9454
▁dọrọ	-9455
▁nbibi	-9456
▁tears	-9457
▁Verily	-9458
▁remains	-9459
▁stories	-9460
▁Mohammed	-9461
▁Samfurin	-9462
▁ụlọikwuu	-9463
14	-9464
Un	-9465
air	-9466
▁Hor	-9467
iding	-9468
ulate	-9469
▁Long	-9470
▁Scre	-9471
▁furu	-9472
▁ịkpa	-9473
ements	-9474
▁ndekọ	-9475
▁Golden	-9476
▁ncheta	-9477
▁Central	-9478
▁conduct	-9479
▁kụziiri	-9480
▁obvious	-9481
▁perhaps	-9482
▁surround	-9483
▁completed	-9484
▁witnesses	-9485
hh	-9486
dig	-9487
Ụlọ	-9488
▁Ze	-9489
Come	-9490
kwun	-9491
rics	-9492
rome	-9493
wụwa	-9494
ụọgụ	-9495
itors	-9496
orage	-9497
saịtị	-9498
▁huge	-9499
▁opin	-9500
▁Beaut	-9501
chester	-9502
▁hidden	-9503
▁highly	-9504
▁zahiri	-9505
▁Sabbath	-9506
▁earlier	-9507
▁takalma	-9508
▁ọdịnaya	-9509
▁alkawari	-9510
▁mahaifin	-9511
▁overcome	-9512
▁siffofin	-9513
19	-9514
nri	-9515
▁FA	-9516
▁Def	-9517
▁Sud	-9518
▁til	-9519
▁Slov	-9520
▁gode	-9521
▁hurt	-9522
▁mass	-9523
▁symb	-9524
▁Break	-9525
▁prost	-9526
▁quiet	-9527
Onyenwe	-9528
▁Hasken	-9529
▁Nkechi	-9530
▁belief	-9531
▁causes	-9532
▁moving	-9533
▁sabõda	-9534
▁Washing	-9535
▁Ministry	-9536
▁starting	-9537
▁challenge	-9538
▁matsalolin	-9539
fee	-9540
Kuma	-9541
rain	-9542
yawa	-9543
▁Jim	-9544
▁amo	-9545
▁beg	-9546
▁daa	-9547
▁tan	-9548
araba	-9549
odule	-9550
▁Cert	-9551
▁Borno	-9552
▁dokar	-9553
▁grand	-9554
▁League	-9555
▁aghara	-9556
▁numbers	-9557
▁football	-9558
▁scientific	-9559
▁communication	-9560
lis	-9561
▁4:	-9562
rant	-9563
▁13,	-9564
▁cat	-9565
▁ịda	-9566
akọwa	-9567
▁Nwee	-9568
▁drag	-9569
▁hate	-9570
celona	-9571
▁Emeka	-9572
▁bashi	-9573
▁beast	-9574
▁innov	-9575
▁karar	-9576
▁stick	-9577
▁Things	-9578
▁azaman	-9579
▁condem	-9580
▁obtain	-9581
▁parent	-9582
▁shawar	-9583
▁Bitcoin	-9584
▁Students	-9585
▁independ	-9586
▁announced	-9587
▁daruruwan	-9588
▁direction	-9589
▁bịakwutere	-9590
▁4)	-9591
▁HE	-9592
▁Bia	-9593
▁Cut	-9594
▁Agba	-9595
▁zite	-9596
▁Being	-9597
▁ought	-9598
▁stream	-9599
▁Electric	-9600
▁capacity	-9601
▁kungiyoyin	-9602
1)	-9603
Da	-9604
Kp	-9605
oe	-9606
Pro	-9607
atị	-9608
▁ti	-9609
atsa	-9610
cons	-9611
gasị	-9612
nize	-9613
uffa	-9614
▁600	-9615
▁CBD	-9616
inted	-9617
▁Thou	-9618
▁fọdụ	-9619
▁zuba	-9620
▁Atụrụ	-9621
▁bound	-9622
▁rules	-9623
▁salla	-9624
▁humans	-9625
▁Chọpụta	-9626
▁Building	-9627
▁Congress	-9628
▁kwamitin	-9629
▁Ó	-9630
▁CD	-9631
Okwu	-9632
▁GSS	-9633
▁NLS	-9634
▁und	-9635
▁òkè	-9636
▁ịlụ	-9637
iforn	-9638
oples	-9639
▁caji	-9640
▁imel	-9641
▁magn	-9642
▁brain	-9643
▁cloud	-9644
▁sauka	-9645
▁souls	-9646
▁double	-9647
▁echefu	-9648
▁twelve	-9649
▁Digital	-9650
▁Okwukwe	-9651
▁dokokin	-9652
▁Barcelona	-9653
▁religious	-9654
▁spiritual	-9655
▁punishment	-9656
:36	-9657
Now	-9658
▁65	-9659
▁aj	-9660
andu	-9661
enyo	-9662
mọrụ	-9663
▁3:1	-9664
▁Udo	-9665
aying	-9666
▁Dead	-9667
▁Join	-9668
▁uses	-9669
▁wood	-9670
ayoyin	-9671
mighty	-9672
▁NWERE	-9673
▁categ	-9674
▁gagar	-9675
▁nọkwa	-9676
▁Report	-9677
▁sarari	-9678
▁tashin	-9679
▁zargin	-9680
makwụkwọ	-9681
▁Finally	-9682
▁Gbanyụọ	-9683
▁Nazarin	-9684
▁kpọlite	-9685
▁tsakiya	-9686
▁Japanese	-9687
▁delivery	-9688
▁evidence	-9689
▁currently	-9690
▁kwamfutar	-9691
SR	-9692
Rom	-9693
omy	-9694
thy	-9695
zes	-9696
ỊRỊ	-9697
dawa	-9698
▁eso	-9699
▁etu	-9700
ekele	-9701
stood	-9702
yinyo	-9703
▁Bowl	-9704
▁Card	-9705
▁Form	-9706
▁Road	-9707
▁pull	-9708
▁sold	-9709
echebe	-9710
onents	-9711
terior	-9712
▁Belie	-9713
▁tsufa	-9714
orthern	-9715
▁basins	-9716
▁ọdachi	-9717
akwanyere	-9718
▁purchase	-9719
▁explained	-9720
▁Decoration	-9721
▁mgbakwunye	-9722
]>	-9723
hou	-9724
oji	-9725
▁Equ	-9726
▁OBI	-9727
▁map	-9728
▁dear	-9729
▁rock	-9730
▁Ekele	-9731
▁mmeri	-9732
▁prove	-9733
▁Server	-9734
▁Thanks	-9735
▁slaves	-9736
▁Shugaba	-9737
▁resistance	-9738
,'	-9739
Nwa	-9740
pha	-9741
ɓar	-9742
ɗin	-9743
▁Nk	-9744
otun	-9745
▁Alk	-9746
▁EZI	-9747
▁Mkp	-9748
ghẹnẹ	-9749
under	-9750
▁Papa	-9751
▁Ruwa	-9752
▁cash	-9753
▁dabe	-9754
▁dadi	-9755
▁swit	-9756
atsina	-9757
charge	-9758
▁Again	-9759
▁Times	-9760
▁shimf	-9761
▁twice	-9762
ifornia	-9763
▁beyond	-9764
▁testim	-9765
▁useful	-9766
▁Indones	-9767
▁actions	-9768
▁Personal	-9769
▁commandment	-9770
▁zamantakewa	-9771
BỤ	-9772
sp	-9773
adọ	-9774
cet	-9775
win	-9776
▁PA	-9777
sych	-9778
▁doo	-9779
▁....	-9780
▁baka	-9781
▁easi	-9782
▁jobs	-9783
▁pill	-9784
▁tufa	-9785
▁Order	-9786
▁mezuo	-9787
▁spent	-9788
▁terri	-9789
huriyar	-9790
otional	-9791
▁Prayer	-9792
▁agụghị	-9793
▁bottle	-9794
▁hakkin	-9795
▁jijiji	-9796
▁Labarai	-9797
▁bincika	-9798
▁okpomọkụ	-9799
▁Sometimes	-9800
▁Revelation	-9801
IE	-9802
cs	-9803
FCC	-9804
▁(4	-9805
▁6,	-9806
▁NY	-9807
▁fã	-9808
▁ịd	-9809
Bear	-9810
Your	-9811
▁Ade	-9812
▁Gar	-9813
▁Ten	-9814
▁lin	-9815
▁nar	-9816
▁ult	-9817
inner	-9818
omain	-9819
▁base	-9820
▁Brown	-9821
▁links	-9822
▁nduzi	-9823
▁Behold	-9824
▁Jewish	-9825
▁Nkwado	-9826
▁Nwanna	-9827
▁Nyocha	-9828
▁Sports	-9829
▁addini	-9830
▁caught	-9831
▁manner	-9832
▁sanann	-9833
▁siffar	-9834
▁akwukwo	-9835
▁removed	-9836
▁increased	-9837
1]	-9838
3:	-9839
rẹ	-9840
Are	-9841
See	-9842
▁7,	-9843
▁Hu	-9844
▁TA	-9845
free	-9846
▁gag	-9847
based	-9848
rance	-9849
rehen	-9850
▁Atta	-9851
▁Foto	-9852
▁Onwu	-9853
▁arịọ	-9854
▁haɗa	-9855
▁Omume	-9856
▁facts	-9857
ekweghị	-9858
▁Achọrọ	-9859
▁Soviet	-9860
▁alamar	-9861
▁bakwai	-9862
▁demand	-9863
▁ọlaedo	-9864
▁highest	-9865
▁ntanetị	-9866
▁reflect	-9867
▁nchọpụta	-9868
▁kpakpando	-9869
▁opportunities	-9870
Obi	-9871
She	-9872
amị	-9873
has	-9874
zab	-9875
▁MD	-9876
▁Vi	-9877
▁(3)	-9878
▁Bak	-9879
▁Imm	-9880
▁Liv	-9881
▁mbu	-9882
yansa	-9883
▁Jord	-9884
▁emee	-9885
▁tent	-9886
▁trip	-9887
▁Brand	-9888
▁Nhọrọ	-9889
▁Sarki	-9890
▁chose	-9891
▁Ndịàmà	-9892
▁Nwanyi	-9893
▁campus	-9894
▁closed	-9895
▁figure	-9896
▁option	-9897
▁sinned	-9898
ographic	-9899
▁Gbasara	-9900
▁mallaka	-9901
▁pleases	-9902
▁seeking	-9903
▁sisters	-9904
▁alụkwaghịm	-9905
▁weebụsaịtị	-9906
rd	-9907
anic	-9908
gbee	-9909
usta	-9910
▁Saị	-9911
▁hyd	-9912
falen	-9913
yaran	-9914
▁Fast	-9915
▁Iche	-9916
▁chat	-9917
▁mkpọ	-9918
▁pure	-9919
▁ịbịa	-9920
▁Royal	-9921
▁Terms	-9922
ntanetị	-9923
▁fuskar	-9924
▁gurbin	-9925
▁kallon	-9926
▁reveal	-9927
▁worshi	-9928
▁capital	-9929
▁ọchịchọ	-9930
▁distance	-9931
▁shaharar	-9932
II	-9933
TỤ	-9934
▁ĩ	-9935
▁ze	-9936
cike	-9937
cles	-9938
ilty	-9939
posh	-9940
teen	-9941
▁Vol	-9942
▁sak	-9943
jamin	-9944
▁Farf	-9945
▁Wata	-9946
▁corn	-9947
▁iPad	-9948
▁jira	-9949
achọta	-9950
▁Willi	-9951
▁baƙin	-9952
▁Change	-9953
▁Filist	-9954
▁active	-9955
▁allura	-9956
▁ememme	-9957
▁mechaa	-9958
▁oxygen	-9959
▁Network	-9960
▁counsel	-9961
▁kimanin	-9962
▁zamanin	-9963
▁accepted	-9964
▁importance	-9965
▁recommended	-9966
Ee	-9967
jj	-9968
▁⁠	-9969
▁LE	-9970
fito	-9971
fuge	-9972
mary	-9973
▁sky	-9974
▁sor	-9975
▁lady	-9976
▁Ọgwụ	-9977
irting	-9978
▁abada	-9979
▁makon	-9980
echekwa	-9981
▁Afirka	-9982
▁Ugboro	-9983
▁dịkwuo	-9984
▁mutuwa	-9985
▁pharma	-9986
▁Dangane	-9987
▁belongs	-9988
▁gwamnan	-9989
▁malamai	-9990
▁encourage	-9991
200	-9992
IDS	-9993
KWỤ	-9994
uit	-9995
arịa	-9996
ford	-9997
▁cup	-9998
▁flu	-9999
anaka	-10000
hians	-10001
pring	-10002
▁Turn	-10003
▁narr	-10004
▁sunã	-10005
▁valu	-10006
emeghe	-10007
▁cheta	-10008
▁colle	-10009
▁disob	-10010
▁liter	-10011
▁mechan	-10012
▁strike	-10013
▁Echiche	-10014
▁Turanci	-10015
▁arụmọrụ	-10016
▁nkwụnye	-10017
▁zuciyar	-10018
▁Consider	-10019
▁Minister	-10020
▁Software	-10021
▁auditory	-10022
▁Bluetooth	-10023
▁bangarori	-10024
▁California	-10025
▁Foundation	-10026
▁situations	-10027
▁unrighteous	-10028
1:	-10029
imb	-10030
mel	-10031
ancy	-10032
imar	-10033
imer	-10034
kota	-10035
pent	-10036
▁Agb	-10037
▁amb	-10038
▁edu	-10039
irman	-10040
known	-10041
prise	-10042
▁Hold	-10043
▁Sand	-10044
▁Send	-10045
▁Tips	-10046
▁azur	-10047
▁hadu	-10048
▁igbe	-10049
▁nkwu	-10050
▁Bello	-10051
▁Panel	-10052
▁Point	-10053
▁Simon	-10054
▁dadin	-10055
▁otutu	-10056
▁uncle	-10057
▁Martin	-10058
▁Source	-10059
▁Surely	-10060
▁bindaga	-10061
▁direkta	-10062
▁opening	-10063
▁persons	-10064
▁expected	-10065
▁commandments	-10066
coh	-10067
uce	-10068
rapy	-10069
▁ṅụọ	-10070
chọta	-10071
▁Hope	-10072
▁Phar	-10073
▁basu	-10074
▁Grand	-10075
▁Obama	-10076
▁hotel	-10077
▁nzube	-10078
▁ọdịda	-10079
atakịrị	-10080
iciency	-10081
▁Access	-10082
▁Ojukwu	-10083
▁Street	-10084
▁Travel	-10085
▁beings	-10086
▁divided	-10087
▁ekwughị	-10088
▁reality	-10089
▁sojojin	-10090
▁exercise	-10091
▁takardun	-10092
▁Naijeriya	-10093
▁implement	-10094
▁confidence	-10095
wọ	-10096
-15	-10097
▁ly	-10098
Anya	-10099
kwkw	-10100
shin	-10101
▁120	-10102
▁nya	-10103
verse	-10104
▁Bish	-10105
▁Siri	-10106
▁kuɗi	-10107
▁rank	-10108
▁wash	-10109
ezighị	-10110
▁Heart	-10111
▁minim	-10112
▁stage	-10113
amaiman	-10114
▁Square	-10115
▁tunawa	-10116
▁umeala	-10117
▁ƙarshe	-10118
▁Ọghẹnẹ	-10119
▁gachara	-10120
▁onyenwe	-10121
▁analysis	-10122
▁military	-10123
▁Different	-10124
▁regarding	-10125
18	-10126
Oh	-10127
mụta	-10128
▁Iri	-10129
▁Iwe	-10130
▁maa	-10131
▁Body	-10132
▁Ekpe	-10133
▁Expl	-10134
▁ikwe	-10135
▁karo	-10136
▁tips	-10137
▁ugbo	-10138
litere	-10139
▁Floor	-10140
▁aband	-10141
▁arewa	-10142
▁catch	-10143
▁kwall	-10144
▁shuka	-10145
▁Privacy	-10146
▁putting	-10147
▁setting	-10148
▁systems	-10149
▁meetings	-10150
▁membrane	-10151
▁tsofaffi	-10152
▁believing	-10153
▁challenges	-10154
kù	-10155
run	-10156
▁>>	-10157
zara	-10158
▁AND	-10159
▁Agụ	-10160
▁Box	-10161
▁Hey	-10162
▁ren	-10163
▁ƙir	-10164
cific	-10165
house	-10166
utely	-10167
wawan	-10168
▁Dara	-10169
▁cold	-10170
▁earn	-10171
▁mika	-10172
▁mode	-10173
▁rabo	-10174
akwụsị	-10175
▁Techn	-10176
▁apart	-10177
▁trees	-10178
▁Organi	-10179
▁orders	-10180
▁speaks	-10181
▁appoint	-10182
▁demonst	-10183
▁reports	-10184
▁victory	-10185
▁drinking	-10186
▁included	-10187
▁kaddamar	-10188
▁ịtụkwasị	-10189
▁appearance	-10190
RP	-10191
Ebe	-10192
cow	-10193
cue	-10194
uso	-10195
▁**	-10196
ager	-10197
dule	-10198
▁190	-10199
▁Ira	-10200
▁Ram	-10201
▁ham	-10202
▁ram	-10203
▁Prep	-10204
▁mold	-10205
▁nema	-10206
▁neur	-10207
▁tech	-10208
▁Ụgwọ	-10209
ercial	-10210
▁Archi	-10211
▁Atiku	-10212
▁Ohere	-10213
▁apụta	-10214
▁proce	-10215
▁shoes	-10216
tụbeghị	-10217
uration	-10218
▁Nkenke	-10219
▁demons	-10220
▁fadada	-10221
▁mafita	-10222
▁ɗaukar	-10223
▁Account	-10224
▁Hakanan	-10225
▁ancient	-10226
▁mission	-10227
▁kwayoyin	-10228
▁pictures	-10229
▁realized	-10230
▁Categories	-10231
▁albarkatun	-10232
▁strengthen	-10233
JỤ	-10234
MI	-10235
▁53	-10236
▁HD	-10237
pere	-10238
▁Fat	-10239
▁sen	-10240
▁squ	-10241
▁ịkọ	-10242
▁ỌZỌ	-10243
virus	-10244
▁Code	-10245
▁Thir	-10246
▁gona	-10247
▁gran	-10248
▁seat	-10249
ekpere	-10250
▁Lazar	-10251
▁Mexic	-10252
▁award	-10253
▁nkuru	-10254
▁zarar	-10255
▁Corint	-10256
▁academ	-10257
▁handle	-10258
▁labari	-10259
▁victim	-10260
▁Jagoran	-10261
▁amfanin	-10262
▁warware	-10263
▁Benjamin	-10264
▁yankunan	-10265
Ex	-10266
sk	-10267
fọn	-10268
saka	-10269
▁SOL	-10270
▁Zai	-10271
▁]]>	-10272
▁gbe	-10273
cceed	-10274
ciple	-10275
gwoju	-10276
▁2007	-10277
▁mumm	-10278
Bearbe	-10279
▁Phone	-10280
▁Write	-10281
▁cards	-10282
▁discl	-10283
▁gwaje	-10284
Matthew	-10285
▁Jordan	-10286
▁Malite	-10287
▁dabara	-10288
▁Welcome	-10289
▁bunkasa	-10290
▁ọlaọcha	-10291
▁ọnwụnwa	-10292
▁anywhere	-10293
Bearbeiten	-10294
▁destruction	-10295
UK	-10296
ndụ	-10297
oso	-10298
see	-10299
▁Gy	-10300
jack	-10301
▁Mrs	-10302
▁Oké	-10303
▁dad	-10304
▁nit	-10305
▁ọlụ	-10306
▁ụta	-10307
poses	-10308
▁Mada	-10309
▁Suna	-10310
▁Turk	-10311
▁aghọ	-10312
▁deci	-10313
▁hide	-10314
▁zamu	-10315
▁ọkpụ	-10316
batara	-10317
covery	-10318
▁Admin	-10319
▁Latin	-10320
▁karbi	-10321
▁leads	-10322
▁dreams	-10323
▁policy	-10324
▁freedom	-10325
▁circumst	-10326
▁lighting	-10327
▁produced	-10328
▁remained	-10329
▁described	-10330
▁determined	-10331
▁mataimakin	-10332
',	-10333
een	-10334
lar	-10335
▁66	-10336
Know	-10337
gage	-10338
▁Sus	-10339
▁amf	-10340
▁asọ	-10341
▁ozu	-10342
ached	-10343
▁Biyu	-10344
▁defe	-10345
▁madu	-10346
▁reli	-10347
▁2015.	-10348
▁Cover	-10349
▁Cross	-10350
▁Nzukọ	-10351
▁barin	-10352
▁erila	-10353
▁irite	-10354
▁items	-10355
▁trial	-10356
▁ṅụrịa	-10357
▁ịkọwa	-10358
▁walked	-10359
▁wancan	-10360
▁bụkwanụ	-10361
▁ordered	-10362
▁shepher	-10363
▁commands	-10364
▁guidance	-10365
▁instance	-10366
▁gabatarwa	-10367
▁matattara	-10368
▁educational	-10369
ZỌS	-10370
gor	-10371
▁CA	-10372
▁SU	-10373
umba	-10374
▁Sir	-10375
▁ezé	-10376
▁fol	-10377
▁pul	-10378
arian	-10379
cinsu	-10380
inder	-10381
▁Bene	-10382
▁Gent	-10383
▁Viet	-10384
▁anda	-10385
▁coup	-10386
▁jefa	-10387
▁nake	-10388
▁sale	-10389
abaghị	-10390
▁Roman	-10391
▁gafee	-10392
▁iniqu	-10393
▁nleta	-10394
istered	-10395
▁Romans	-10396
▁ahụghị	-10397
▁beauty	-10398
▁bidoro	-10399
▁dating	-10400
▁etinye	-10401
▁ekweghị	-10402
▁holding	-10403
▁ndabere	-10404
▁patient	-10405
▁tụnyere	-10406
▁becoming	-10407
▁directly	-10408
▁Ugochukwu	-10409
▁galvanized	-10410
chu	-10411
how	-10412
▁aa	-10413
abol	-10414
amak	-10415
isii	-10416
▁Dak	-10417
▁Ibu	-10418
▁suf	-10419
▁ung	-10420
ounds	-10421
▁yaro	-10422
Jehova	-10423
akpali	-10424
anaghị	-10425
icians	-10426
▁Ebube	-10427
▁JIZỌS	-10428
▁match	-10429
▁metal	-10430
▁ƙarfe	-10431
▁nọgide	-10432
▁sexual	-10433
▁England	-10434
▁connect	-10435
▁mutumin	-10436
▁showing	-10437
▁wasannin	-10438
▁extremely	-10439
▁definitely	-10440
▁gwargwadon	-10441
▁organization	-10442
yu	-10443
EST	-10444
lọn	-10445
▁JH	-10446
▁Nu	-10447
adan	-10448
outs	-10449
ugwu	-10450
▁Ash	-10451
▁Kun	-10452
▁NDỤ	-10453
▁fra	-10454
▁ẹre	-10455
abbin	-10456
laịja	-10457
▁Such	-10458
▁vine	-10459
anions	-10460
▁Forum	-10461
▁Samun	-10462
▁tụlee	-10463
ossible	-10464
▁rutere	-10465
▁Comment	-10466
▁Philipp	-10467
▁Timothy	-10468
▁deposit	-10469
▁library	-10470
▁sanyaya	-10471
▁bambanci	-10472
▁kwararru	-10473
▁paradise	-10474
▁cryptocur	-10475
▁Manchester	-10476
▁Corinthians	-10477
ɓɓ	-10478
▁Hụ	-10479
gent	-10480
ogue	-10481
▁Blo	-10482
▁Lọt	-10483
▁Olu	-10484
▁Sky	-10485
▁WEB	-10486
▁Wan	-10487
▁kuj	-10488
▁riẹ	-10489
▁syn	-10490
▁tic	-10491
force	-10492
icies	-10493
iring	-10494
▁Bala	-10495
▁fort	-10496
▁gate	-10497
▁naka	-10498
▁samo	-10499
▁sets	-10500
▁warm	-10501
▁yabo	-10502
▁Kwere	-10503
▁Quick	-10504
▁animal	-10505
▁finish	-10506
▁katako	-10507
▁levels	-10508
▁Looking	-10509
▁consult	-10510
▁daukaka	-10511
▁lissafi	-10512
▁profile	-10513
▁mountains	-10514
17	-10515
ERS	-10516
▁AK	-10517
▁ALL	-10518
▁Cam	-10519
▁Joy	-10520
▁OEM	-10521
▁gang	-10522
▁rami	-10523
▁shut	-10524
▁2018.	-10525
▁Abdul	-10526
▁Dakar	-10527
▁pụghị	-10528
▁sanct	-10529
atabase	-10530
▁akpaka	-10531
▁bodies	-10532
▁dalibi	-10533
▁daukan	-10534
▁modern	-10535
▁nearly	-10536
▁volume	-10537
▁Babylon	-10538
▁clients	-10539
▁existence	-10540
▁recognize	-10541
ibo	-10542
cere	-10543
oung	-10544
▁Ntụ	-10545
▁Jana	-10546
▁soft	-10547
▁virt	-10548
abolic	-10549
anduje	-10550
spring	-10551
▁Basin	-10552
▁Import	-10553
▁Misali	-10554
▁failed	-10555
▁gudana	-10556
▁gịnịzi	-10557
▁memory	-10558
▁raunin	-10559
▁Freedom	-10560
▁Georgia	-10561
▁Katsina	-10562
▁Patrick	-10563
▁founded	-10564
▁malaman	-10565
▁Witnesses	-10566
▁universities	-10567
Ab	-10568
ev	-10569
100	-10570
ANY	-10571
cal	-10572
mal	-10573
ono	-10574
lant	-10575
▁Gen	-10576
▁mel	-10577
warin	-10578
while	-10579
▁Bapt	-10580
▁Gift	-10581
▁Heze	-10582
▁Ibom	-10583
▁ther	-10584
▁yada	-10585
utical	-10586
▁ememe	-10587
▁nọmba	-10588
▁shame	-10589
▁Member	-10590
▁ekweta	-10591
▁hukuma	-10592
▁luxury	-10593
▁prices	-10594
▁Anyanwu	-10595
▁balance	-10596
▁seconds	-10597
▁ministry	-10598
▁Indonesia	-10599
▁automatic	-10600
""	-10601
apụ	-10602
azi	-10603
ogo	-10604
▁EN	-10605
▁Uz	-10606
iler	-10607
▁OLE	-10608
Matiu	-10609
▁Enyi	-10610
▁Kedụ	-10611
▁Rich	-10612
▁radi	-10613
▁tayi	-10614
▁ọchụ	-10615
agụnye	-10616
ulture	-10617
▁Kwụsị	-10618
▁broad	-10619
▁movie	-10620
▁ndidi	-10621
theless	-10622
▁depend	-10623
▁rahama	-10624
▁recent	-10625
▁stated	-10626
▁Ụmụaka	-10627
▁Respons	-10628
▁amaokwu	-10629
▁matters	-10630
▁Jeremiah	-10631
▁feelings	-10632
▁supposed	-10633
▁violence	-10634
▁responded	-10635
▁tallafawa	-10636
▁worldwide	-10637
▁takamaiman	-10638
▁installation	-10639
Hz	-10640
agn	-10641
but	-10642
hao	-10643
mak	-10644
arun	-10645
bels	-10646
ilee	-10647
irga	-10648
istr	-10649
▁gee	-10650
▁phr	-10651
▁ịba	-10652
amali	-10653
power	-10654
tails	-10655
▁Bara	-10656
▁Ikwu	-10657
▁Jesu	-10658
uesday	-10659
▁Sabon	-10660
▁gbasa	-10661
▁ginin	-10662
▁haram	-10663
▁instr	-10664
▁saita	-10665
▁umurn	-10666
▁Mkpụrụ	-10667
▁dutsen	-10668
▁motoci	-10669
▁shared	-10670
▁status	-10671
▁talaka	-10672
▁Farfesa	-10673
▁Messiah	-10674
▁ikikere	-10675
▁conversation	-10676
ilu	-10677
mpt	-10678
▁dh	-10679
ario	-10680
▁ARE	-10681
▁Tor	-10682
▁aba	-10683
▁eje	-10684
▁Ùnu	-10685
▁guys	-10686
▁kumb	-10687
▁nisa	-10688
▁zata	-10689
▁Abram	-10690
▁Steps	-10691
▁dedic	-10692
▁kaina	-10693
▁lower	-10694
▁trade	-10695
akọrịta	-10696
enyekwa	-10697
▁Nnukwu	-10698
▁Others	-10699
▁Sauran	-10700
▁godiya	-10701
▁submit	-10702
▁Without	-10703
▁advance	-10704
▁nchegbu	-10705
▁Almighty	-10706
▁activity	-10707
▁Jamhuriyar	-10708
▁foundation	-10709
▁significant	-10710
Com	-10711
▁NO	-10712
cell	-10713
tuɓi	-10714
▁(20	-10715
▁Hig	-10716
▁fer	-10717
▁nte	-10718
ician	-10719
ikọta	-10720
ozuzu	-10721
verbs	-10722
▁Suka	-10723
▁Yaya	-10724
▁aiko	-10725
▁koda	-10726
▁igosi	-10727
▁Democr	-10728
▁Manyan	-10729
▁akwara	-10730
▁contro	-10731
▁inhabit	-10732
▁farantin	-10733
▁rundunar	-10734
▁watching	-10735
:35	-10736
alf	-10737
bai	-10738
car	-10739
eed	-10740
ọna	-10741
▁Ce	-10742
llah	-10743
tics	-10744
▁Alb	-10745
▁Ide	-10746
▁Wis	-10747
▁rid	-10748
▁ƙas	-10749
▁Pass	-10750
▁dala	-10751
▁gasa	-10752
▁meal	-10753
▁ngwụ	-10754
▁Abasi	-10755
▁Njikọ	-10756
▁aside	-10757
▁brows	-10758
▁resol	-10759
clusion	-10760
isation	-10761
▁Elijah	-10762
▁Shekar	-10763
▁iyakar	-10764
▁spring	-10765
▁Ganduje	-10766
▁edemede	-10767
▁Ministan	-10768
▁Relations	-10769
▁fuskantar	-10770
▁understood	-10771
▁instructions	-10772
CD	-10773
hem	-10774
zhe	-10775
▁56	-10776
cred	-10777
illa	-10778
▁11.	-10779
▁Bai	-10780
▁KWU	-10781
▁True	-10782
▁agwọ	-10783
▁buri	-10784
▁core	-10785
▁arụsị	-10786
▁cajin	-10787
▁plate	-10788
▁toshe	-10789
▁Aịzaya	-10790
▁Origin	-10791
▁Player	-10792
▁kwarai	-10793
▁natara	-10794
▁keeping	-10795
▁trading	-10796
▁kyawawan	-10797
▁ntụziaka	-10798
▁Packaging	-10799
▁adịghịkwa	-10800
▁karantawa	-10801
▁potential	-10802
45	-10803
RL	-10804
:43	-10805
ịsị	-10806
▁Av	-10807
▁av	-10808
bell	-10809
guzo	-10810
▁Sum	-10811
pedia	-10812
proof	-10813
▁luck	-10814
▁nkwụ	-10815
ntanet	-10816
▁Avoid	-10817
▁Kasar	-10818
▁Neman	-10819
▁Smart	-10820
▁kilom	-10821
▁damage	-10822
▁kpebie	-10823
▁mighty	-10824
▁mosaic	-10825
▁stress	-10826
▁wishes	-10827
▁Eluigwe	-10828
▁apostle	-10829
▁clothes	-10830
▁succeed	-10831
▁Category	-10832
▁kindness	-10833
▁teachers	-10834
▁nlereanya	-10835
▁population	-10836
▁Unfortunately	-10837
PN	-10838
▁ĩm	-10839
▁10%	-10840
▁Joe	-10841
▁Ltd	-10842
▁tụọ	-10843
after	-10844
ander	-10845
▁Bari	-10846
▁Line	-10847
▁Mene	-10848
▁nama	-10849
▁rang	-10850
▁ákwà	-10851
▁lines	-10852
▁Single	-10853
▁cooper	-10854
▁emeghị	-10855
▁kulawa	-10856
▁Ịlaịja	-10857
▁Osimiri	-10858
▁Perfect	-10859
▁formats	-10860
intenance	-10861
▁economic	-10862
▁proclaim	-10863
▁reserved	-10864
kwá	-10865
onu	-10866
▁64	-10867
▁Gụ	-10868
▁Jul	-10869
▁alf	-10870
▁gwụ	-10871
nuche	-10872
▁(201	-10873
▁Rock	-10874
▁tura	-10875
akarda	-10876
ghaara	-10877
letter	-10878
▁delay	-10879
▁horse	-10880
▁shape	-10881
▁Speaker	-10882
▁Tuesday	-10883
▁helping	-10884
▁contract	-10885
▁leadership	-10886
▁inheritance	-10887
▁traditional	-10888
-9	-10889
jja	-10890
ndị	-10891
ingu	-10892
▁16,	-10893
▁Fit	-10894
istar	-10895
▁bill	-10896
▁daji	-10897
▁gefe	-10898
▁kwar	-10899
▁Bring	-10900
▁Kafin	-10901
▁adana	-10902
▁iyali	-10903
▁polit	-10904
▁agbụrụ	-10905
▁breath	-10906
▁forbid	-10907
▁normal	-10908
▁powder	-10909
▁Farisii	-10910
▁consequ	-10911
▁leaving	-10912
▁madadin	-10913
▁wedding	-10914
▁although	-10915
▁contains	-10916
▁recently	-10917
▁conscious	-10918
75	-10919
Am	-10920
NỊ	-10921
TO	-10922
bị	-10923
wi	-10924
izo	-10925
ỤRỤ	-10926
▁RF	-10927
▁Zi	-10928
▁ox	-10929
berg	-10930
mine	-10931
site	-10932
▁Inn	-10933
▁Pla	-10934
▁ate	-10935
▁tub	-10936
itoci	-10937
amakon	-10938
▁Lines	-10939
▁Nyere	-10940
▁Premi	-10941
▁Wanda	-10942
▁soldi	-10943
▁theme	-10944
▁Making	-10945
▁Rights	-10946
▁Sanata	-10947
▁zagaye	-10948
▁Igbokwe	-10949
▁gịnịkwa	-10950
▁hormone	-10951
▁samarda	-10952
▁steroid	-10953
▁Skirting	-10954
▁sadarwar	-10955
▁interests	-10956
▁sarrafawa	-10957
▁Washington	-10958
▁additional	-10959
▁jagorancin	-10960
▁prosperous	-10961
BS	-10962
abị	-10963
agu	-10964
nic	-10965
quo	-10966
▁nà	-10967
ụgbọ	-10968
▁30%	-10969
▁KYA	-10970
▁aim	-10971
▁lad	-10972
▁Ọka	-10973
.....	-10974
field	-10975
rairu	-10976
▁Tour	-10977
▁rarr	-10978
▁Livaị	-10979
▁Niger	-10980
▁sunad	-10981
▁Moscow	-10982
▁Shirin	-10983
▁instit	-10984
▁tsafta	-10985
▁haruffa	-10986
▁shouldn	-10987
▁studies	-10988
▁planning	-10989
▁reference	-10990
sue	-10991
ụta	-10992
echi	-10993
▁Ray	-10994
▁mug	-10995
▁bond	-10996
▁flex	-10997
▁jink	-10998
▁soja	-10999
▁trib	-11000
idents	-11001
orders	-11002
▁1,000	-11003
▁Ocean	-11004
▁girgi	-11005
▁layin	-11006
▁mixed	-11007
▁relie	-11008
▁weere	-11009
▁zanen	-11010
▁Hunter	-11011
▁alamun	-11012
▁forced	-11013
▁fọdụrụ	-11014
▁matsan	-11015
▁starts	-11016
▁burning	-11017
▁koyarwa	-11018
▁nchịkwa	-11019
▁shimfidar	-11020
JI	-11021
ATA	-11022
GBU	-11023
Tun	-11024
ole	-11025
▁8,	-11026
▁AF	-11027
▁DM	-11028
▁Tu	-11029
▁nz	-11030
chel	-11031
emba	-11032
iser	-11033
utan	-11034
▁Bịa	-11035
▁Sau	-11036
▁sty	-11037
▁wai	-11038
fairs	-11039
itain	-11040
minal	-11041
▁Sama	-11042
▁bran	-11043
▁jawo	-11044
▁nchọ	-11045
▁sees	-11046
apụghị	-11047
▁Guard	-11048
▁Talla	-11049
▁haska	-11050
▁kalub	-11051
▁keeps	-11052
▁ịmara	-11053
erences	-11054
utation	-11055
▁Echere	-11056
▁Elizab	-11057
▁Hebrew	-11058
▁Latest	-11059
▁Select	-11060
▁illust	-11061
▁Blessed	-11062
▁biggest	-11063
▁greatly	-11064
▁growing	-11065
▁Committee	-11066
▁receiving	-11067
cco	-11068
ego	-11069
tes	-11070
▁Il	-11071
▁Kn	-11072
▁Ky	-11073
aded	-11074
ịiko	-11075
▁Yus	-11076
▁ige	-11077
▁kpụ	-11078
Izrel	-11079
anian	-11080
chain	-11081
essor	-11082
▁dies	-11083
▁duty	-11084
▁eruo	-11085
▁maso	-11086
▁uhie	-11087
▁uwar	-11088
▁ịnwụ	-11089
terday	-11090
▁Block	-11091
▁Radio	-11092
▁exhib	-11093
▁forms	-11094
▁limit	-11095
▁pages	-11096
▁budget	-11097
▁farawa	-11098
▁otitis	-11099
onavirus	-11100
▁maximum	-11101
▁serving	-11102
▁chemical	-11103
▁permission	-11104
▁smartphone	-11105
▁54	-11106
▁sn	-11107
Host	-11108
▁2:4	-11109
▁Aba	-11110
▁Nas	-11111
▁GỊNỊ	-11112
▁Jack	-11113
▁insp	-11114
▁ịchị	-11115
▁Fiber	-11116
▁Guide	-11117
▁chebe	-11118
▁proof	-11119
▁proud	-11120
▁stret	-11121
▁ĩmãni	-11122
▁Letter	-11123
▁healed	-11124
▁kunshi	-11125
▁plenty	-11126
▁ọnụọgụ	-11127
ceutical	-11128
tainment	-11129
▁Justice	-11130
▁Mkpughe	-11131
▁anymore	-11132
▁bayarwa	-11133
▁methods	-11134
▁treated	-11135
▁assembly	-11136
▁Nigerians	-11137
▁agreement	-11138
▁concerned	-11139
▁employees	-11140
▁technical	-11141
▁messengers	-11142
▁particularly	-11143
▁testosterone	-11144
")	-11145
35	-11146
DF	-11147
__	-11148
loy	-11149
nya	-11150
Lord	-11151
anwa	-11152
etic	-11153
haya	-11154
▁000	-11155
▁180	-11156
▁Boy	-11157
▁Sna	-11158
▁mej	-11159
cribe	-11160
▁Mani	-11161
▁ogwu	-11162
▁ƙirƙ	-11163
cetate	-11164
ursday	-11165
▁Cloud	-11166
▁Kwara	-11167
▁Lelee	-11168
ecutive	-11169
▁Gbalịa	-11170
▁Oktoba	-11171
▁bright	-11172
▁harshe	-11173
▁twenty	-11174
ghachite	-11175
▁Labaran	-11176
▁concept	-11177
▁duwatsu	-11178
▁healthy	-11179
▁wearing	-11180
▁ịzọpụta	-11181
portation	-11182
▁Training	-11183
▁confident	-11184
▁providing	-11185
▁manufacturing	-11186
!)	-11187
ókè	-11188
▁tã	-11189
burg	-11190
▁Deb	-11191
▁Nov	-11192
▁Rut	-11193
▁Sah	-11194
▁sem	-11195
▁uzo	-11196
estic	-11197
isees	-11198
▁Kudu	-11199
▁ends	-11200
▁Ànyị	-11201
ortion	-11202
▁Haske	-11203
▁Whats	-11204
▁cheap	-11205
▁gradu	-11206
▁imere	-11207
ampions	-11208
shekara	-11209
▁Ndịozi	-11210
▁accord	-11211
▁guilty	-11212
▁persec	-11213
▁Ayyukan	-11214
▁conveni	-11215
▁divorce	-11216
▁siginar	-11217
▁kwesịkwara	-11218
▁wickedness	-11219
▁experienced	-11220
MT	-11221
ITE	-11222
lie	-11223
alai	-11224
ette	-11225
irta	-11226
wata	-11227
▁Dog	-11228
▁Lib	-11229
▁Tex	-11230
▁aya	-11231
▁nak	-11232
eduzi	-11233
isode	-11234
jiria	-11235
words	-11236
▁Army	-11237
▁Shan	-11238
▁gado	-11239
▁koyi	-11240
▁shiry	-11241
zations	-11242
▁Madrid	-11243
▁gbalịa	-11244
▁stayed	-11245
▁thirty	-11246
▁Britain	-11247
▁confess	-11248
▁kudaden	-11249
▁Nchịkọta	-11250
▁millions	-11251
▁rejected	-11252
▁suddenly	-11253
▁dandamali	-11254
▁influence	-11255
▁presented	-11256
▁sinadaran	-11257
::	-11258
Mu	-11259
Gwa	-11260
fen	-11261
mad	-11262
vant	-11263
yake	-11264
▁asụ	-11265
gwara	-11266
▁MERE	-11267
▁Plus	-11268
▁fãce	-11269
▁unit	-11270
ekwesị	-11271
▁Chang	-11272
▁Kwuru	-11273
▁citiz	-11274
▁sarka	-11275
▁severe	-11276
▁stones	-11277
▁zurfin	-11278
ications	-11279
▁finding	-11280
▁bringing	-11281
▁purposes	-11282
▁offspring	-11283
▁dangantaka	-11284
ss	-11285
▁DO	-11286
iyon	-11287
reds	-11288
▁Cra	-11289
▁Gee	-11290
▁jet	-11291
ahaya	-11292
chers	-11293
orida	-11294
▁Gini	-11295
▁Grey	-11296
▁Mand	-11297
▁Mụta	-11298
▁Soro	-11299
▁raya	-11300
▁shag	-11301
▁tank	-11302
liance	-11303
omever	-11304
ukansu	-11305
▁basic	-11306
▁ideal	-11307
iveness	-11308
▁brands	-11309
▁dịgasị	-11310
▁tongue	-11311
▁Bincike	-11312
▁dabeere	-11313
▁tafiyar	-11314
▁Thursday	-11315
▁shoulder	-11316
▁agbaghara	-11317
▁officials	-11318
▁testimony	-11319
▁recognized	-11320
Did	-11321
ÆTM	-11322
▁AC	-11323
▁PE	-11324
▁aṅ	-11325
ilan	-11326
urse	-11327
▁USD	-11328
▁Uni	-11329
gwaje	-11330
▁Fara	-11331
▁Lake	-11332
▁nnye	-11333
▁Marte	-11334
▁kadai	-11335
wayoyin	-11336
zheimer	-11337
▁Gịnịzi	-11338
▁favour	-11339
▁histor	-11340
▁output	-11341
▁Austria	-11342
▁appears	-11343
▁duniyar	-11344
▁karamin	-11345
▁Director	-11346
▁Harkokin	-11347
▁lambobin	-11348
▁machines	-11349
▁mgbagwoju	-11350
▁customized	-11351
22	-11352
De	-11353
Ana	-11354
gir	-11355
▁("	-11356
:10)	-11357
rews	-11358
uchi	-11359
utch	-11360
▁15.	-11361
▁Esi	-11362
▁Ihu	-11363
▁Iya	-11364
▁hay	-11365
edozi	-11366
▁Amin	-11367
▁FREE	-11368
▁Riga	-11369
▁bugu	-11370
▁riba	-11371
▁sauk	-11372
ackage	-11373
reland	-11374
▁Treat	-11375
▁brief	-11376
▁tatto	-11377
▁Living	-11378
▁Proper	-11379
▁Turkey	-11380
▁ọmịiko	-11381
poration	-11382
▁Tuntuɓi	-11383
▁culture	-11384
▁harabar	-11385
▁kwanakin	-11386
▁lalacewa	-11387
▁performed	-11388
▁tambayoyi	-11389
▁ọchịchịrị	-11390
▁assistance	-11391
▁circumstances	-11392
SC	-11393
▁rs	-11394
oust	-11395
▁(19	-11396
▁Ill	-11397
▁Jis	-11398
▁ens	-11399
▁hey	-11400
▁hij	-11401
▁Ụjọ	-11402
irmed	-11403
▁Days	-11404
▁Exam	-11405
▁Less	-11406
▁Zion	-11407
▁tuba	-11408
erughị	-11409
▁2014.	-11410
▁Devil	-11411
▁Maris	-11412
▁Obere	-11413
▁Paper	-11414
▁batut	-11415
▁cable	-11416
▁ebigh	-11417
▁train	-11418
zerland	-11419
▁Centre	-11420
▁Yakubu	-11421
▁vidiyo	-11422
▁despite	-11423
▁replace	-11424
▁Ọchịchị	-11425
Therefore	-11426
▁compared	-11427
▁prophecy	-11428
▁sarkakiya	-11429
'?	-11430
RỌ	-11431
UR	-11432
CHỊ	-11433
pet	-11434
ups	-11435
who	-11436
zza	-11437
▁99	-11438
mụma	-11439
wale	-11440
▁Tre	-11441
▁ain	-11442
▁owo	-11443
▁cart	-11444
▁dust	-11445
▁sina	-11446
▁tear	-11447
▁tuto	-11448
allaka	-11449
urugwu	-11450
▁Cikin	-11451
▁Pouch	-11452
▁Taima	-11453
▁altar	-11454
▁idols	-11455
▁mmepe	-11456
▁ngọzi	-11457
▁onwun	-11458
▁songs	-11459
▁troub	-11460
▁waldi	-11461
aration	-11462
ignment	-11463
▁Comple	-11464
▁akwado	-11465
▁divine	-11466
▁gidaje	-11467
▁mgbidi	-11468
▁saduwa	-11469
achọpụta	-11470
▁Takarda	-11471
▁elderly	-11472
▁hankalin	-11473
▁họpụtara	-11474
▁manifest	-11475
▁recorded	-11476
▁Pharisees	-11477
▁nwatakịrị	-11478
▁industrial	-11479
▁agụmakwụkwọ	-11480
!+	-11481
azu	-11482
fit	-11483
omb	-11484
sen	-11485
wọk	-11486
▁DC	-11487
jina	-11488
wuda	-11489
▁Izu	-11490
▁Kal	-11491
▁hoo	-11492
▁smo	-11493
igara	-11494
obere	-11495
▁hula	-11496
▁nine	-11497
▁tons	-11498
edient	-11499
▁Trade	-11500
▁autom	-11501
▁mbara	-11502
▁reign	-11503
▁thick	-11504
▁toler	-11505
▁yakin	-11506
fulness	-11507
ologies	-11508
▁Donald	-11509
▁Safety	-11510
▁gyaran	-11511
▁played	-11512
▁update	-11513
▁Amerịka	-11514
▁Further	-11515
▁intellig	-11516
▁jupụtara	-11517
ifications	-11518
▁Sakamakon	-11519
▁makarantu	-11520
▁descendants	-11521
ịn	-11522
ezo	-11523
▁KP	-11524
rian	-11525
vanọ	-11526
what	-11527
▁Sex	-11528
▁ark	-11529
▁ebo	-11530
▁òkù	-11531
anger	-11532
icott	-11533
▁Akwu	-11534
▁Kham	-11535
▁gent	-11536
▁meat	-11537
▁onto	-11538
agbata	-11539
orious	-11540
▁ibibi	-11541
▁sanye	-11542
ificate	-11543
respond	-11544
▁Nation	-11545
▁begins	-11546
▁candid	-11547
▁escape	-11548
▁fasali	-11549
▁nights	-11550
▁scared	-11551
▁ọdịmma	-11552
▁Ogologo	-11553
▁imagine	-11554
▁limited	-11555
▁partner	-11556
▁reviews	-11557
▁sararin	-11558
▁sharing	-11559
▁Yourself	-11560
▁medicine	-11561
▁tomorrow	-11562
▁whomever	-11563
▁Alzheimer	-11564
▁transform	-11565
▁Conference	-11566
▁Engineering	-11567
▁engineering	-11568
LI	-11569
ƙe	-11570
osa	-11571
▁vo	-11572
Idan	-11573
ofar	-11574
▁8:3	-11575
▁bia	-11576
abawa	-11577
erves	-11578
ogige	-11579
▁Duba	-11580
▁Njem	-11581
▁Nnam	-11582
▁OLEE	-11583
▁Self	-11584
▁Text	-11585
▁Tsak	-11586
▁Vers	-11587
▁Yank	-11588
▁bane	-11589
▁dete	-11590
▁edge	-11591
▁ọkwọ	-11592
nesday	-11593
soever	-11594
▁Still	-11595
▁fresh	-11596
▁murya	-11597
▁obula	-11598
adịkarị	-11599
▁afford	-11600
Kpachara	-11601
▁Vietnam	-11602
▁abincin	-11603
▁dabbobi	-11604
▁farashi	-11605
▁kalmomin	-11606
▁interesting	-11607
,.	-11608
:42	-11609
had	-11610
▁FG	-11611
hics	-11612
▁asc	-11613
▁tum	-11614
▁vit	-11615
▁Ịgụ	-11616
▁EFCC	-11617
▁Four	-11618
▁clin	-11619
▁rose	-11620
urable	-11621
vision	-11622
▁birds	-11623
▁faces	-11624
ealable	-11625
▁Masana	-11626
▁Taking	-11627
▁bought	-11628
▁canjin	-11629
▁manual	-11630
▁mejọrọ	-11631
▁mgbalị	-11632
▁Florida	-11633
▁Karanta	-11634
▁Perhaps	-11635
▁Student	-11636
▁concent	-11637
▁launuka	-11638
▁schools	-11639
▁storage	-11640
ilderness	-11641
▁Egyptian	-11642
▁attitude	-11643
▁birthday	-11644
▁movement	-11645
▁nọgidere	-11646
▁Resealable	-11647
▁processing	-11648
▁Switzerland	-11649
zị	-11650
from	-11651
insa	-11652
irai	-11653
pers	-11654
ịhịa	-11655
▁fab	-11656
▁huh	-11657
iment	-11658
olika	-11659
▁Chọọ	-11660
▁Fest	-11661
▁Shop	-11662
▁lawa	-11663
▁allon	-11664
▁curse	-11665
▁maọbụ	-11666
▁muhim	-11667
▁rsquo	-11668
▁sheet	-11669
▁Aikace	-11670
▁lasisi	-11671
▁rubuce	-11672
▁struck	-11673
ervation	-11674
▁Khamene	-11675
▁weather	-11676
▁WhatsApp	-11677
▁believer	-11678
▁hukuncin	-11679
▁intended	-11680
▁Wednesday	-11681
▁resources	-11682
1.9	-11683
KWA	-11684
fil	-11685
kawa	-11686
yata	-11687
▁KAR	-11688
▁gaj	-11689
▁ziy	-11690
cohol	-11691
ifies	-11692
ordin	-11693
▁Mesh	-11694
▁apps	-11695
▁jiya	-11696
▁2013.	-11697
▁Bonus	-11698
▁Hello	-11699
▁Price	-11700
▁latsa	-11701
▁schol	-11702
▁agbalị	-11703
▁magang	-11704
▁multip	-11705
▁refuge	-11706
▁ruleti	-11707
▁Ezinụlọ	-11708
▁Janairu	-11709
▁nụbeghị	-11710
▁station	-11711
Converter	-11712
▁Assembly	-11713
▁Ellicott	-11714
▁creating	-11715
▁hospital	-11716
▁occasion	-11717
▁requires	-11718
▁sentence	-11719
▁girmamawa	-11720
▁multitude	-11721
▁tutocinsu	-11722
▁Trenbolone	-11723
▁makarantar	-11724
27	-11725
GO	-11726
HS	-11727
PP	-11728
▁OS	-11729
▁SH	-11730
ojii	-11731
▁Esa	-11732
▁azù	-11733
addun	-11734
build	-11735
ether	-11736
usive	-11737
▁Bisa	-11738
▁Dịka	-11739
▁Move	-11740
▁jiho	-11741
▁quit	-11742
▁yeah	-11743
ughter	-11744
ushing	-11745
▁2016,	-11746
▁Store	-11747
▁depth	-11748
▁kofin	-11749
▁tarin	-11750
▁waste	-11751
▁worse	-11752
▁zunub	-11753
▁Ọnọdụ	-11754
▁ọwụwa	-11755
ructure	-11756
▁Galili	-11757
▁easier	-11758
▁mainly	-11759
▁matara	-11760
▁secure	-11761
▁steeti	-11762
atụkwasị	-11763
echebara	-11764
ghachiri	-11765
▁Ireland	-11766
▁anabata	-11767
▁Colorful	-11768
▁Majalisa	-11769
▁Yawancin	-11770
▁amincewa	-11771
▁clothing	-11772
▁samfuran	-11773
▁guarantee	-11774
▁jijiyoyin	-11775
▁aghaghịkwa	-11776
▁countertops	-11777
▁UniConverter	-11778
FE	-11779
vis	-11780
nụnụ	-11781
▁11,	-11782
▁Age	-11783
▁Own	-11784
▁anu	-11785
▁ịta	-11786
▁ọdọ	-11787
break	-11788
kanci	-11789
oboam	-11790
▁AIDS	-11791
▁Edge	-11792
▁Ever	-11793
▁Poly	-11794
▁Pray	-11795
▁Town	-11796
▁dasu	-11797
▁ndia	-11798
▁ring	-11799
▁Ọrịa	-11800
Alaeze	-11801
encies	-11802
istoci	-11803
▁Mount	-11804
▁halar	-11805
▁mista	-11806
▁owner	-11807
▁radio	-11808
▁tụfuo	-11809
▁walls	-11810
▁ọlụlụ	-11811
adịgide	-11812
emetụta	-11813
ruption	-11814
▁Direct	-11815
▁Invest	-11816
▁ambata	-11817
▁expert	-11818
▁kalmar	-11819
▁launch	-11820
▁umarni	-11821
ibration	-11822
▁Airport	-11823
▁Muslims	-11824
▁anxiety	-11825
▁filayen	-11826
▁Filistia	-11827
▁nabatara	-11828
▁continues	-11829
▁matsakaici	-11830
Ad	-11831
Fi	-11832
UM	-11833
ext	-11834
rug	-11835
▁lẹ	-11836
itch	-11837
▁Dub	-11838
▁abo	-11839
▁oro	-11840
emeso	-11841
▁Dole	-11842
▁Gama	-11843
▁Hụrụ	-11844
▁Mala	-11845
▁kwas	-11846
▁pron	-11847
▁root	-11848
chaghị	-11849
kọtara	-11850
▁Henry	-11851
▁Samar	-11852
▁broke	-11853
▁emere	-11854
▁ewere	-11855
▁horar	-11856
▁pride	-11857
▁assist	-11858
▁terror	-11859
▁Mgbanwe	-11860
▁nkwenye	-11861
▁warning	-11862
▁Fabrairu	-11863
▁behavior	-11864
▁sababbin	-11865
▁interview	-11866
▁preaching	-11867
21	-11868
Ot	-11869
ịm	-11870
▁PP	-11871
▁ww	-11872
onym	-11873
road	-11874
▁Mir	-11875
▁Nzu	-11876
▁Yau	-11877
▁dys	-11878
▁ụtụ	-11879
ciful	-11880
zanni	-11881
▁23:4	-11882
▁Budd	-11883
▁Kids	-11884
▁Link	-11885
▁Maga	-11886
▁Mass	-11887
▁Prot	-11888
▁kụrụ	-11889
▁surv	-11890
▁susp	-11891
▁wuru	-11892
▁Local	-11893
▁Naira	-11894
▁optim	-11895
▁perce	-11896
▁views	-11897
▁zaton	-11898
▁Concer	-11899
▁Submit	-11900
▁chukwu	-11901
▁dokoki	-11902
▁dredge	-11903
▁preach	-11904
▁stands	-11905
▁street	-11906
▁Chegodị	-11907
▁Knowing	-11908
▁Sameria	-11909
▁Naijiria	-11910
▁Portugal	-11911
▁tambayar	-11912
▁celebrate	-11913
▁stainless	-11914
GBO	-11915
▁59	-11916
▁Op	-11917
Luke	-11918
anny	-11919
char	-11920
fuka	-11921
iday	-11922
ọgbọ	-11923
▁Nic	-11924
▁Pub	-11925
apụta	-11926
huwar	-11927
▁Club	-11928
▁Jing	-11929
▁KYAU	-11930
▁Nuwa	-11931
▁batu	-11932
▁tone	-11933
▁vote	-11934
otions	-11935
▁Email	-11936
▁Photo	-11937
▁Using	-11938
▁canal	-11939
▁dozie	-11940
▁river	-11941
▁south	-11942
▁vidio	-11943
addamar	-11944
limited	-11945
▁Dawuda	-11946
▁Shigar	-11947
▁fannin	-11948
▁fields	-11949
▁nrụọrụ	-11950
▁Genesis	-11951
▁Nations	-11952
▁Removal	-11953
▁applied	-11954
▁driving	-11955
▁enweghi	-11956
▁jaridar	-11957
▁oleekwa	-11958
▁onwunwe	-11959
▁proceed	-11960
▁serpent	-11961
▁shugaba	-11962
▁testing	-11963
▁Medicine	-11964
▁Progress	-11965
▁approved	-11966
▁document	-11967
▁feedback	-11968
AH	-11969
AK	-11970
115	-11971
▁CP	-11972
▁gā	-11973
▁tẹ	-11974
▁yu	-11975
ione	-11976
stal	-11977
will	-11978
▁20%	-11979
▁800	-11980
▁Eag	-11981
▁Inc	-11982
▁Oil	-11983
▁aja	-11984
▁ezo	-11985
apore	-11986
icone	-11987
rụndụ	-11988
uries	-11989
▁KWES	-11990
▁Sule	-11991
▁blue	-11992
▁conv	-11993
▁inqu	-11994
▁laka	-11995
▁taga	-11996
iverse	-11997
▁Young	-11998
▁amasị	-11999
▁chọta	-12000
▁dying	-12001
▁equal	-12002
▁jikwa	-12003
▁wheel	-12004
pective	-12005
taining	-12006
▁Contin	-12007
▁convin	-12008
▁jidere	-12009
piration	-12010
▁Italiya	-12011
▁cikinsu	-12012
▁delight	-12013
▁hotunan	-12014
▁rukunin	-12015
▁ntụrụndụ	-12016
▁possibly	-12017
▁translations	-12018
?.	-12019
LY	-12020
nel	-12021
▁KU	-12022
▁Opp	-12023
▁cos	-12024
▁lan	-12025
▁rrọ	-12026
▁Ịme	-12027
▁ịza	-12028
every	-12029
gbere	-12030
urran	-12031
▁Achọ	-12032
▁Loss	-12033
▁Pers	-12034
▁Plan	-12035
▁ntak	-12036
▁sere	-12037
alight	-12038
ateful	-12039
mptoms	-12040
▁barga	-12041
▁gọzie	-12042
▁heads	-12043
▁kware	-12044
▁omimi	-12045
▁Ọmụmụ	-12046
Ịntanet	-12047
▁Bayani	-12048
▁Rubber	-12049
▁Screen	-12050
▁claims	-12051
▁flight	-12052
▁mkpịsị	-12053
▁rubber	-12054
▁talked	-12055
graduate	-12056
kọtachaa	-12057
▁Gabriel	-12058
▁Swedish	-12059
▁bututun	-12060
▁kwadebe	-12061
▁sunayen	-12062
▁daidaito	-12063
▁pregnant	-12064
▁whenever	-12065
▁buildings	-12066
▁dedicated	-12067
▁everybody	-12068
▁littattafai	-12069
36	-12070
nwụ	-12071
▁5:	-12072
▁Wi	-12073
▁mẹ	-12074
▁17)	-12075
▁2:1	-12076
▁90%	-12077
▁Ntị	-12078
▁ben	-12079
▁enw	-12080
▁ken	-12081
▁maz	-12082
▁zip	-12083
▁ụzụ	-12084
Tunes	-12085
▁Beth	-12086
▁Matt	-12087
▁Muka	-12088
▁achụ	-12089
▁edit	-12090
▁zaba	-12091
Wannan	-12092
cision	-12093
ritory	-12094
▁Bango	-12095
▁Frame	-12096
▁Yayin	-12097
▁ijeri	-12098
▁passa	-12099
▁storm	-12100
▁sweet	-12101
▁Agency	-12102
▁Indian	-12103
▁Thomas	-12104
▁ahụike	-12105
▁kunnen	-12106
▁lights	-12107
▁netwọk	-12108
ximately	-12109
▁Library	-12110
▁Mmetụta	-12111
▁Satumba	-12112
▁kwetara	-12113
▁mekwara	-12114
▁Everyone	-12115
▁messages	-12116
▁surprise	-12117
▁Singapore	-12118
▁yesterday	-12119
▁electronic	-12120
▁kekọtachaa	-12121
▁revelation	-12122
▁ɓangarorin	-12123
ND	-12124
ɗe	-12125
.'"	-12126
ƙar	-12127
▁ME	-12128
hand	-12129
weet	-12130
▁Cos	-12131
▁Upd	-12132
▁kul	-12133
▁naú	-12134
crete	-12135
▁Burn	-12136
▁Cost	-12137
▁Date	-12138
▁Jama	-12139
▁roof	-12140
rehens	-12141
▁2016.	-12142
▁Austr	-12143
▁Fence	-12144
▁Janar	-12145
▁Nkọwa	-12146
▁abụrụ	-12147
▁azumi	-12148
▁guess	-12149
▁kalla	-12150
▁kpere	-12151
▁kọwaa	-12152
▁nnyịn	-12153
▁param	-12154
▁sashe	-12155
▁tsoro	-12156
▁Create	-12157
▁ahịhịa	-12158
▁behalf	-12159
▁emehie	-12160
▁seemed	-12161
▁summer	-12162
▁igbochi	-12163
▁invited	-12164
▁kyautar	-12165
▁optical	-12166
▁examples	-12167
▁iyakokin	-12168
▁shiryawa	-12169
▁Birtaniya	-12170
▁conversion	-12171
:39	-12172
ezu	-12173
idu	-12174
▁58	-12175
▁Om	-12176
▁km	-12177
▁yo	-12178
atom	-12179
▁Pil	-12180
▁Vid	-12181
▁sif	-12182
▁www	-12183
▁ọmọ	-12184
icted	-12185
place	-12186
ushed	-12187
zinye	-12188
▁Circ	-12189
▁Dare	-12190
▁Phil	-12191
▁ịghọ	-12192
Please	-12193
▁Chris	-12194
▁Youth	-12195
▁alamu	-12196
▁canje	-12197
▁inner	-12198
▁kanku	-12199
▁rawar	-12200
▁reven	-12201
Akwụkwọ	-12202
▁iTunes	-12203
▁warned	-12204
▁dalilai	-12205
▁letters	-12206
▁nweekwa	-12207
▁refused	-12208
▁Katolika	-12209
▁heavenly	-12210
▁kpọchiri	-12211
▁Gigalight	-12212
▁creatures	-12213
▁financial	-12214
▁Protection	-12215
▁impossible	-12216
▁wilderness	-12217
▁disobedience	-12218
▁automatically	-12219
Ga	-12220
sar	-12221
ste	-12222
ẽwa	-12223
alls	-12224
gozi	-12225
iaka	-12226
▁15,	-12227
▁dil	-12228
▁ọny	-12229
alley	-12230
apers	-12231
ghari	-12232
ghere	-12233
sychi	-12234
▁Baya	-12235
▁fans	-12236
▁igwu	-12237
▁kofa	-12238
▁kwus	-12239
▁spot	-12240
father	-12241
onders	-12242
orough	-12243
▁Judas	-12244
▁Sugar	-12245
▁daina	-12246
▁feder	-12247
▁turns	-12248
▁Mexico	-12249
▁Rather	-12250
▁kọwara	-12251
▁nnyefe	-12252
▁Gudanar	-12253
▁awesome	-12254
▁beloved	-12255
▁elekere	-12256
▁gakwuru	-12257
▁officer	-12258
▁opinion	-12259
▁society	-12260
▁ịchụàjà	-12261
▁supplier	-12262
▁introduced	-12263
▁matsakaicin	-12264
QL	-12265
eli	-12266
oba	-12267
ysi	-12268
▁ax	-12269
▁cm	-12270
.16_	-12271
ango	-12272
cket	-12273
fere	-12274
fits	-12275
ords	-12276
rịka	-12277
ynam	-12278
▁12.	-12279
▁4:1	-12280
▁Fig	-12281
▁Six	-12282
▁Thu	-12283
▁baa	-12284
▁Ịzụ	-12285
canje	-12286
otrop	-12287
warai	-12288
▁Cana	-12289
▁Deep	-12290
▁Jide	-12291
▁Past	-12292
▁Shir	-12293
▁[1.9	-12294
▁damu	-12295
▁jump	-12296
▁spir	-12297
▁ịrịọ	-12298
ulator	-12299
▁Emela	-12300
▁Month	-12301
▁Short	-12302
▁Solve	-12303
▁error	-12304
▁minds	-12305
▁sashi	-12306
▁Valent	-12307
▁honour	-12308
▁mepere	-12309
▁gaggawa	-12310
▁narkewa	-12311
▁pattern	-12312
▁sources	-12313
▁village	-12314
▁[1.9.16_	-12315
▁cochlear	-12316
▁disbelie	-12317
▁discover	-12318
▁exterior	-12319
▁Wikipedia	-12320
▁nzaghachi	-12321
▁department	-12322
▁Nevertheless	-12323
CI	-12324
fị	-12325
Ama	-12326
oph	-12327
sis	-12328
sol	-12329
ãli	-12330
▁nā	-12331
mers	-12332
otic	-12333
▁Atọ	-12334
▁Bre	-12335
▁Imo	-12336
▁NEW	-12337
▁jac	-12338
▁ntu	-12339
▁Unic	-12340
▁debt	-12341
▁nasa	-12342
▁tend	-12343
ounded	-12344
▁forty	-12345
▁homes	-12346
achịkwa	-12347
▁akalla	-12348
▁domain	-12349
▁explan	-12350
▁finger	-12351
▁gospel	-12352
▁posted	-12353
▁riches	-12354
▁verses	-12355
▁depends	-12356
▁labarun	-12357
▁updates	-12358
▁bambanta	-12359
▁believes	-12360
▁critical	-12361
▁treasure	-12362
▁forgotten	-12363
▁frequency	-12364
▁sunadarai	-12365
▁institution	-12366
▁maintenance	-12367
Gb	-12368
SI	-12369
UL	-12370
▁^	-12371
.1.	-12372
sed	-12373
sha	-12374
▁ny	-12375
▁ỌN	-12376
ples	-12377
▁Hur	-12378
▁Ish	-12379
▁cro	-12380
▁det	-12381
▁ete	-12382
▁foc	-12383
▁lon	-12384
▁naa	-12385
▁nga	-12386
▁Ụtọ	-12387
"....	-12388
ejide	-12389
hirin	-12390
ikima	-12391
pụkwa	-12392
▁Hann	-12393
▁Kaya	-12394
▁Tech	-12395
▁rout	-12396
▁sole	-12397
▁zụrụ	-12398
▁2018,	-12399
▁Adamu	-12400
▁Ndidi	-12401
▁Pract	-12402
▁Texas	-12403
▁dress	-12404
▁falls	-12405
▁quant	-12406
emegide	-12407
▁Fasaha	-12408
▁Higher	-12409
▁adires	-12410
▁batara	-12411
▁esighị	-12412
▁maraba	-12413
▁survey	-12414
▁tsoron	-12415
▁Tụkwasị	-12416
▁confirm	-12417
▁karamar	-12418
▁thereof	-12419
▁Yahudawa	-12420
▁election	-12421
▁programs	-12422
▁cututtuka	-12423
▁messenger	-12424
▁commitment	-12425
▁constantly	-12426
▁everywhere	-12427
▁[1.9.16_115	-12428
▁description	-12429
ZE	-12430
zai	-12431
▁Ná	-12432
▁ai	-12433
▁wẹ	-12434
care	-12435
esty	-12436
gaba	-12437
▁20,	-12438
▁afo	-12439
▁gen	-12440
▁lụọ	-12441
▁Ịga	-12442
allin	-12443
olate	-12444
ophil	-12445
▁Alal	-12446
▁kiss	-12447
▁kotu	-12448
▁kwụọ	-12449
▁Glass	-12450
▁Later	-12451
▁costs	-12452
▁virus	-12453
▁Ekwela	-12454
▁Little	-12455
▁Prince	-12456
▁Yahaya	-12457
▁judged	-12458
▁mkpesa	-12459
▁sharud	-12460
▁thrown	-12461
▁Nwankwo	-12462
▁Philist	-12463
▁takarar	-12464
▁yiwuwar	-12465
▁anabolic	-12466
▁njirimara	-12467
▁absolutely	-12468
▁discovered	-12469
cm	-12470
▁é	-12471
:2,	-12472
Air	-12473
▁6:	-12474
kari	-12475
kwaa	-12476
ruct	-12477
▁Cov	-12478
▁Ile	-12479
▁ịla	-12480
eburu	-12481
enses	-12482
graph	-12483
▁Five	-12484
▁Hack	-12485
▁Sale	-12486
▁busy	-12487
▁gams	-12488
▁grew	-12489
▁hack	-12490
▁haya	-12491
▁weap	-12492
bsites	-12493
▁Clean	-12494
▁Dream	-12495
▁greet	-12496
▁occup	-12497
▁Adịghị	-12498
▁Jagora	-12499
▁Zamani	-12500
▁bottom	-12501
▁incred	-12502
▁leaves	-12503
▁signal	-12504
▁Apostle	-12505
▁Country	-12506
▁KWESỊRỊ	-12507
▁Nuwamba	-12508
▁Process	-12509
▁compare	-12510
▁healing	-12511
▁Exchange	-12512
▁Khamenei	-12513
▁Wasannin	-12514
▁occurred	-12515
▁indicator	-12516
▁[1.9.16_1159]	-12517
By	-12518
eyi	-12519
lix	-12520
▁LA	-12521
▁TM	-12522
▁Hom	-12523
▁dom	-12524
▁ker	-12525
▁spl	-12526
ayyar	-12527
dokwa	-12528
eters	-12529
▁2004	-12530
▁Cond	-12531
▁Foot	-12532
▁Gina	-12533
▁Hard	-12534
▁Jiji	-12535
▁Nanị	-12536
▁Phys	-12537
▁Roma	-12538
▁Zeal	-12539
▁flee	-12540
▁klas	-12541
▁reco	-12542
▁ugwo	-12543
▁ọgba	-12544
ursing	-12545
▁Aikin	-12546
▁Analy	-12547
▁Influ	-12548
▁Jọdan	-12549
▁Yanar	-12550
▁kauce	-12551
▁tasks	-12552
▁ụbụrụ	-12553
▁elimin	-12554
▁nkwụsị	-12555
▁prefer	-12556
▁rikice	-12557
▁Command	-12558
▁Italian	-12559
▁bonuses	-12560
▁college	-12561
▁foolish	-12562
▁shaidar	-12563
▁Telegram	-12564
▁deafness	-12565
▁patience	-12566
▁ịchọpụta	-12567
▁newsletter	-12568
▁nkwụghachi	-12569
▁profession	-12570
dB	-12571
ãt	-12572
bas	-12573
ibe	-12574
isl	-12575
ogn	-12576
owo	-12577
▁DI	-12578
▁SO	-12579
Biko	-12580
ighi	-12581
▁Ent	-12582
▁Maj	-12583
▁Trị	-12584
▁rin	-12585
oving	-12586
▁Pope	-12587
▁allo	-12588
▁dike	-12589
▁kera	-12590
▁kifi	-12591
▁myst	-12592
Behold	-12593
ousing	-12594
▁2020,	-12595
▁Appro	-12596
▁facil	-12597
▁loyal	-12598
▁north	-12599
onyinyo	-12600
outhern	-12601
▁Island	-12602
▁Temple	-12603
▁Yahuza	-12604
▁abinda	-12605
▁belata	-12606
▁breast	-12607
▁gọziri	-12608
▁sought	-12609
▁arzikin	-12610
▁cikakke	-12611
▁kpuchie	-12612
▁tilasta	-12613
ekwesịghị	-12614
▁functions	-12615
▁lalacewar	-12616
▁matabeghị	-12617
▁supported	-12618
▁Australian	-12619
▁Ekweremadu	-12620
▁Application	-12621
▁comfortable	-12622
FA	-12623
Sp	-12624
já	-12625
arm	-12626
aya	-12627
azọ	-12628
uum	-12629
▁pu	-12630
▁ãy	-12631
Book	-12632
▁Hab	-12633
▁gay	-12634
amide	-12635
reesị	-12636
uting	-12637
▁Both	-12638
▁Forg	-12639
▁Gban	-12640
▁Jess	-12641
▁Mind	-12642
▁Sera	-12643
▁Yara	-12644
▁east	-12645
▁iron	-12646
▁ogbu	-12647
▁siga	-12648
pected	-12649
▁Danna	-12650
▁Delta	-12651
▁Frank	-12652
▁Leban	-12653
▁adapt	-12654
▁kasuw	-12655
▁tebụl	-12656
▁utter	-12657
enyocha	-12658
▁Having	-12659
▁Modern	-12660
▁kudade	-12661
▁kwayar	-12662
▁fahimta	-12663
▁peoples	-12664
▁primary	-12665
▁traffic	-12666
▁Tabbatar	-12667
▁numerous	-12668
▁valuable	-12669
adịkarịghị	-12670
▁Knowledge	-12671
▁components	-12672
▁Resurrection	-12673
32	-12674
uh	-12675
Our	-12676
gid	-12677
arko	-12678
osop	-12679
ọlik	-12680
▁Lou	-12681
▁Nda	-12682
▁Obu	-12683
▁Rot	-12684
▁pil	-12685
▁rod	-12686
▁sel	-12687
▁spr	-12688
▁tam	-12689
erior	-12690
osite	-12691
ruits	-12692
▁Feel	-12693
▁Pati	-12694
▁Very	-12695
▁ahia	-12696
▁alhẽ	-12697
▁auto	-12698
▁ceto	-12699
▁heed	-12700
▁isar	-12701
▁kuri	-12702
▁lest	-12703
▁Absal	-12704
▁Azịza	-12705
▁Mista	-12706
▁adult	-12707
▁baraz	-12708
▁redee	-12709
▁Kowane	-12710
▁Leader	-12711
▁Oleezi	-12712
▁Proble	-12713
▁Spring	-12714
▁danger	-12715
▁dukiya	-12716
▁tsabar	-12717
▁bitcoin	-12718
▁economy	-12719
▁granite	-12720
▁uweojii	-12721
▁resistant	-12722
▁surprised	-12723
▁associated	-12724
▁muhimmancin	-12725
:+	-12726
!"+	-12727
:9)	-12728
Oge	-12729
▁85	-12730
▁PM	-12731
▁Ud	-12732
enwu	-12733
izer	-12734
ktan	-12735
õyin	-12736
ịlọn	-12737
▁Cat	-12738
▁rat	-12739
anshi	-12740
hicle	-12741
▁Desp	-12742
▁Rece	-12743
▁fina	-12744
▁horn	-12745
▁izin	-12746
▁nufi	-12747
▁tash	-12748
▁wild	-12749
▁Grace	-12750
▁Trend	-12751
▁Woman	-12752
▁babba	-12753
▁ejiri	-12754
▁jirgi	-12755
▁nkuzi	-12756
▁nnụnụ	-12757
▁shout	-12758
▁Energy	-12759
▁Jirgin	-12760
▁Kanada	-12761
▁Marine	-12762
▁burned	-12763
▁ekworo	-12764
▁rapara	-12765
▁Ekwueme	-12766
▁Western	-12767
▁chetara	-12768
▁farfado	-12769
▁jarraba	-12770
▁masanin	-12771
▁wallafa	-12772
▁Industry	-12773
▁Sciences	-12774
▁relevant	-12775
▁tsarkake	-12776
▁Community	-12777
▁nchọgharị	-12778
▁conference	-12779
▁shugabanci	-12780
▁relationships	-12781
▁\	-12782
KWỌ	-12783
Yes	-12784
ded	-12785
iry	-12786
▁NT	-12787
▁bẹ	-12788
"."+	-12789
arịị	-12790
ghan	-12791
rust	-12792
▁Ake	-12793
▁Emb	-12794
▁Foc	-12795
▁ghi	-12796
▁gin	-12797
▁nzọ	-12798
alace	-12799
ester	-12800
grees	-12801
ikarị	-12802
inent	-12803
rates	-12804
tains	-12805
▁Anth	-12806
▁Stri	-12807
▁ahwo	-12808
▁dafa	-12809
▁grap	-12810
▁murd	-12811
▁tiri	-12812
▁Alham	-12813
▁Begin	-12814
▁Layer	-12815
▁Metal	-12816
▁ijide	-12817
▁kwado	-12818
▁rebel	-12819
▁valid	-12820
Mkpughe	-12821
knowing	-12822
▁cigaba	-12823
▁disobe	-12824
▁hidima	-12825
▁signed	-12826
▁sinner	-12827
▁welded	-12828
▁Jaridar	-12829
▁Related	-12830
▁portion	-12831
▁turning	-12832
▁ịnọgide	-12833
▁Interest	-12834
▁Standard	-12835
▁director	-12836
▁repeated	-12837
▁shopping	-12838
▁Newspaper	-12839
▁documents	-12840
▁generally	-12841
▁rigakafin	-12842
▁satisfied	-12843
▁Everything	-12844
▁Description	-12845
AP	-12846
:38	-12847
Ina	-12848
lli	-12849
mpi	-12850
rus	-12851
▁(5	-12852
▁Rị	-12853
days	-12854
kika	-12855
opia	-12856
▁Obs	-12857
▁Tok	-12858
▁zum	-12859
llers	-12860
▁Auto	-12861
▁Door	-12862
▁Fort	-12863
▁bish	-12864
▁datt	-12865
▁mort	-12866
▁sill	-12867
manuel	-12868
▁Ahụhụ	-12869
▁Malam	-12870
▁grown	-12871
anciyar	-12872
echiche	-12873
faction	-12874
▁Laraba	-12875
▁border	-12876
▁dalili	-12877
▁hikima	-12878
▁ikpebi	-12879
▁issued	-12880
▁Charles	-12881
▁Galilee	-12882
▁Sabuwar	-12883
▁edition	-12884
▁factors	-12885
▁harsuna	-12886
▁littafi	-12887
▁madaida	-12888
▁sincere	-12889
▁academic	-12890
▁measures	-12891
▁increasing	-12892
▁Christianity	-12893
fy	-12894
pị	-12895
Otú	-12896
bul	-12897
mir	-12898
▁3-	-12899
▁57	-12900
▁UV	-12901
KWUO	-12902
edia	-12903
esọs	-12904
hire	-12905
tịnụ	-12906
ɓaɓɓ	-12907
▁Nob	-12908
▁Pra	-12909
▁Thy	-12910
▁eva	-12911
▁nti	-12912
▁tou	-12913
ardar	-12914
arrun	-12915
▁FTTH	-12916
▁Fale	-12917
▁Requ	-12918
▁Size	-12919
▁Wait	-12920
▁Yuni	-12921
▁boys	-12922
▁dose	-12923
▁kedu	-12924
▁lard	-12925
▁ment	-12926
gorith	-12927
porate	-12928
ukakin	-12929
▁Labor	-12930
▁Makar	-12931
▁decre	-12932
▁Ndigbo	-12933
▁Really	-12934
▁Return	-12935
▁Virgin	-12936
▁adults	-12937
▁humble	-12938
▁matsin	-12939
▁muryar	-12940
▁unable	-12941
▁zigara	-12942
interest	-12943
kwunyere	-12944
▁Katọlik	-12945
▁Thought	-12946
▁follows	-12947
▁translated	-12948
-,	-12949
At	-12950
Cl	-12951
âh	-12952
▁ú	-12953
-11	-12954
itu	-12955
▁63	-12956
▁7)	-12957
Take	-12958
abet	-12959
kuna	-12960
uren	-12961
▁17.	-12962
▁Die	-12963
▁HIV	-12964
▁MKP	-12965
▁ekp	-12966
▁kak	-12967
▁kif	-12968
▁kãf	-12969
▁nnu	-12970
▁nuk	-12971
▁wet	-12972
Every	-12973
agafe	-12974
arfin	-12975
ifier	-12976
viour	-12977
▁Girl	-12978
▁fice	-12979
▁loud	-12980
▁ware	-12981
enyefe	-12982
gments	-12983
itinin	-12984
▁2019,	-12985
▁birni	-12986
▁fixed	-12987
▁laifi	-12988
▁solid	-12989
ircraft	-12990
ophilia	-12991
▁Bauchi	-12992
▁Tagged	-12993
▁akporo	-12994
▁prompt	-12995
▁resear	-12996
▁thread	-12997
▁zutere	-12998
atụgharị	-12999
▁focused	-13000
▁mkpagbu	-13001
▁passion	-13002
▁sanarwa	-13003
▁seventh	-13004
▁vehicle	-13005
abịakwute	-13006
▁mummunan	-13007
▁sleeping	-13008
/#	-13009
47	-13010
TC	-13011
:8.	-13012
nis	-13013
unụ	-13014
ĩƙa	-13015
▁NỌ	-13016
:20)	-13017
arts	-13018
ekpo	-13019
▁360	-13020
▁Dim	-13021
▁Gil	-13022
▁whọ	-13023
asant	-13024
hamed	-13025
thren	-13026
warsa	-13027
▁auna	-13028
▁cere	-13029
▁desk	-13030
▁zabe	-13031
cluded	-13032
▁Ahmad	-13033
▁Ebere	-13034
▁estim	-13035
▁quote	-13036
abolism	-13037
▁Abinci	-13038
▁Mgbasa	-13039
▁annual	-13040
▁asleep	-13041
▁azurfa	-13042
▁career	-13043
igration	-13044
▁concern	-13045
▁failure	-13046
▁federal	-13047
▁kitchen	-13048
▁martani	-13049
▁ntakịrị	-13050
▁records	-13051
▁Allahnku	-13052
▁Northern	-13053
▁achieved	-13054
▁kilomita	-13055
▁gudanarwa	-13056
▁Federation	-13057
▁administration	-13058
";	-13059
EH	-13060
ek	-13061
fs	-13062
900	-13063
ALA	-13064
reg	-13065
rem	-13066
ulo	-13067
▁Bú	-13068
▁oz	-13069
Read	-13070
hara	-13071
ikar	-13072
jiri	-13073
omar	-13074
othe	-13075
tube	-13076
▁17,	-13077
▁80%	-13078
▁Aff	-13079
▁Eee	-13080
▁ROM	-13081
▁Ven	-13082
▁dir	-13083
axial	-13084
▁Happ	-13085
▁Inte	-13086
▁Intr	-13087
▁bula	-13088
▁porn	-13089
lokaci	-13090
prises	-13091
▁Forex	-13092
▁Kenan	-13093
▁Nwata	-13094
▁absor	-13095
▁cells	-13096
▁kwaik	-13097
▁matar	-13098
▁shafa	-13099
▁Answer	-13100
▁Garden	-13101
▁Misira	-13102
▁alhẽri	-13103
▁buying	-13104
▁bọtịnụ	-13105
▁haƙuri	-13106
▁izinin	-13107
▁mezuru	-13108
▁powers	-13109
▁takwas	-13110
▁thirst	-13111
adịbeghị	-13112
▁Article	-13113
▁Nzọpụta	-13114
▁Parents	-13115
▁Popular	-13116
▁Zealand	-13117
▁deserve	-13118
▁fashion	-13119
▁initial	-13120
▁Moreover	-13121
▁halittar	-13122
▁miracles	-13123
▁negative	-13124
▁nsụgharị	-13125
▁Egyptians	-13126
Pl	-13127
ibl	-13128
bour	-13129
emer	-13130
inna	-13131
▁12,	-13132
▁18,	-13133
▁188	-13134
▁304	-13135
▁6:3	-13136
▁URL	-13137
,000.	-13138
icing	-13139
ijing	-13140
oputa	-13141
▁Nehe	-13142
▁dipl	-13143
▁ebee	-13144
▁egwú	-13145
▁ilmi	-13146
▁lamp	-13147
▁tomb	-13148
▁Ọjọọ	-13149
▁ọdụm	-13150
porary	-13151
▁Chọta	-13152
▁Dutch	-13153
▁Model	-13154
▁Nhazi	-13155
▁Words	-13156
▁Wurin	-13157
▁adaba	-13158
▁fault	-13159
▁feels	-13160
▁naira	-13161
▁ojuju	-13162
▁altern	-13163
▁basira	-13164
▁listed	-13165
▁sounds	-13166
▁Ụmụnna	-13167
▁Abincin	-13168
▁Against	-13169
▁Challen	-13170
▁Intanet	-13171
▁Private	-13172
▁Unicode	-13173
▁choices	-13174
▁falling	-13175
▁kamakwa	-13176
achọgharị	-13177
▁Manifest	-13178
▁external	-13179
▁maimaita	-13180
▁mkparịta	-13181
▁schedule	-13182
▁soldiers	-13183
▁Olileanya	-13184
▁institute	-13185
▁guaranteed	-13186
▁cryptocurrency	-13187
/5	-13188
?)	-13189
IR	-13190
▁â	-13191
mod	-13192
rit	-13193
ọhọ	-13194
alan	-13195
ales	-13196
hụhụ	-13197
rier	-13198
zugi	-13199
▁130	-13200
▁14.	-13201
▁Gom	-13202
▁Ice	-13203
▁Oga	-13204
▁mix	-13205
▁scr	-13206
akọrọ	-13207
fault	-13208
garta	-13209
ishes	-13210
night	-13211
useum	-13212
▁Fare	-13213
▁Grik	-13214
▁fann	-13215
▁maki	-13216
▁mane	-13217
▁Among	-13218
▁Smith	-13219
▁Topic	-13220
▁Years	-13221
▁ejiji	-13222
ternoon	-13223
▁Amaghị	-13224
▁Anaghị	-13225
▁Better	-13226
▁Lokaci	-13227
▁Police	-13228
▁Rosary	-13229
▁Savior	-13230
▁Shirye	-13231
▁extent	-13232
▁gentle	-13233
▁Abubuwa	-13234
▁Factory	-13235
▁halayen	-13236
▁Hospital	-13237
▁paradaịs	-13238
▁Secretary	-13239
▁happening	-13240
AC	-13241
OC	-13242
Ezi	-13243
TML	-13244
]".	-13245
col	-13246
haa	-13247
▁9,	-13248
▁mg	-13249
Look	-13250
agwụ	-13251
amps	-13252
▁900	-13253
▁Dad	-13254
▁Sho	-13255
▁der	-13256
▁rot	-13257
arima	-13258
▁DMCA	-13259
▁karu	-13260
▁nime	-13261
▁rung	-13262
▁sịga	-13263
addada	-13264
omatic	-13265
▁Ahmed	-13266
▁Atụla	-13267
▁Quran	-13268
▁backl	-13269
▁kauri	-13270
▁rabin	-13271
▁Canaan	-13272
▁Korean	-13273
▁achọrọ	-13274
▁detail	-13275
▁Zamfara	-13276
▁exalted	-13277
▁fasalin	-13278
▁sending	-13279
▁tallafi	-13280
▁unclean	-13281
▁Jeremaya	-13282
▁sanarwar	-13283
▁shipping	-13284
▁operating	-13285
:)	-13286
leg	-13287
uga	-13288
ụmụ	-13289
data	-13290
▁Ess	-13291
▁Ult	-13292
▁aru	-13293
▁ihi	-13294
▁rue	-13295
▁sum	-13296
▁typ	-13297
laced	-13298
▁Dear	-13299
▁inch	-13300
▁sait	-13301
▁yoke	-13302
▁zoro	-13303
masihu	-13304
▁Kashe	-13305
▁Total	-13306
▁Voice	-13307
▁gonna	-13308
▁imper	-13309
▁nwetụ	-13310
▁smoke	-13311
▁Pharma	-13312
▁agreed	-13313
▁bitter	-13314
▁smooth	-13315
▁verily	-13316
▁wutere	-13317
▁Disamba	-13318
▁Halitta	-13319
▁Jinghao	-13320
▁besides	-13321
▁matattu	-13322
▁Mountain	-13323
▁announce	-13324
▁arrested	-13325
▁articles	-13326
▁chọkwara	-13327
▁gọọmenti	-13328
▁mallakar	-13329
▁magunguna	-13330
IB	-13331
LD	-13332
La	-13333
TỌ	-13334
▁Ṅ	-13335
MAN	-13336
juo	-13337
rie	-13338
▁dũ	-13339
▁ul	-13340
muma	-13341
▁Chu	-13342
▁DNA	-13343
▁Hop	-13344
▁Jik	-13345
▁Las	-13346
▁Oba	-13347
▁Onw	-13348
▁Pas	-13349
▁Tsa	-13350
▁fon	-13351
▁nká	-13352
▁ọsụ	-13353
ekiri	-13354
elled	-13355
iture	-13356
▁Copy	-13357
▁Left	-13358
▁Ruth	-13359
▁Wood	-13360
▁weep	-13361
kwuuru	-13362
worthy	-13363
▁Dokar	-13364
▁Nkebi	-13365
▁blame	-13366
▁shafe	-13367
ataccen	-13368
▁KYAUTA	-13369
▁assess	-13370
▁jawabi	-13371
▁naúrar	-13372
anwụrịrị	-13373
wararrun	-13374
▁cinikin	-13375
▁kunnuwa	-13376
▁manufar	-13377
▁meghere	-13378
▁sealing	-13379
▁totally	-13380
▁tsamman	-13381
ibilities	-13382
▁Tantance	-13383
▁Yarjejen	-13384
▁audience	-13385
▁breaking	-13386
▁choosing	-13387
▁fighting	-13388
▁recovery	-13389
▁speakers	-13390
▁weakness	-13391
▁Oleekwanụ	-13392
▁Revolution	-13393
▁remembered	-13394
Ku	-13395
-12	-13396
CHI	-13397
erg	-13398
mus	-13399
osu	-13400
sey	-13401
utr	-13402
vor	-13403
whe	-13404
▁IG	-13405
gery	-13406
graf	-13407
ince	-13408
izes	-13409
oche	-13410
pool	-13411
▁Akw	-13412
▁Isn	-13413
▁Pan	-13414
▁ilu	-13415
▁mpụ	-13416
▁nda	-13417
▁tuk	-13418
▁Òtù	-13419
adọrọ	-13420
agọzi	-13421
clear	-13422
ircle	-13423
▁Bull	-13424
▁Drag	-13425
▁Emer	-13426
▁Hill	-13427
▁Nebu	-13428
▁Okon	-13429
▁bamb	-13430
▁leba	-13431
▁miri	-13432
tanetị	-13433
▁2019.	-13434
▁Armen	-13435
▁Ejila	-13436
▁Shafi	-13437
▁hoton	-13438
▁lands	-13439
quality	-13440
▁bukaci	-13441
▁haraji	-13442
▁marufi	-13443
▁njikwa	-13444
elekwasị	-13445
▁Beijing	-13446
▁Litinin	-13447
▁adopted	-13448
▁daliban	-13449
▁nagarta	-13450
▁ɓangare	-13451
▁Farashin	-13452
▁brethren	-13453
▁identify	-13454
▁iniquity	-13455
▁precious	-13456
▁gbaghaara	-13457
▁commercial	-13458
▁appointment	-13459
▁kwamfutarka	-13460
NS	-13461
VE	-13462
WO	-13463
olo	-13464
▁2-	-13465
▁IV	-13466
▁WP	-13467
▁Wu	-13468
▁nũ	-13469
aldo	-13470
anun	-13471
auna	-13472
erce	-13473
ulin	-13474
▁13.	-13475
▁18.	-13476
▁Cze	-13477
orted	-13478
ukaka	-13479
xious	-13480
▁1960	-13481
▁Hung	-13482
▁lips	-13483
▁push	-13484
uliaka	-13485
▁Damas	-13486
▁Force	-13487
▁etiti	-13488
▁funds	-13489
▁karni	-13490
▁nkịta	-13491
▁solve	-13492
agwakwa	-13493
▁Border	-13494
▁Eagles	-13495
▁Strong	-13496
▁akpali	-13497
▁expand	-13498
▁paying	-13499
▁Babịlọn	-13500
▁Littafi	-13501
▁Release	-13502
▁complex	-13503
▁haramta	-13504
▁jaddada	-13505
▁Almasihu	-13506
▁hundreds	-13507
▁sauraren	-13508
▁ịntanetị	-13509
▁confirmed	-13510
▁gagarumin	-13511
▁installed	-13512
▁relatives	-13513
▁medication	-13514
dee	-13515
fra	-13516
pat	-13517
▁mũ	-13518
ghai	-13519
▁Asa	-13520
▁Tin	-13521
▁bie	-13522
chang	-13523
ebute	-13524
gbula	-13525
point	-13526
unshi	-13527
wanda	-13528
▁Bags	-13529
▁Mota	-13530
▁adam	-13531
▁rent	-13532
▁snow	-13533
▁2020.	-13534
▁Sunan	-13535
▁bible	-13536
▁grain	-13537
▁paint	-13538
▁sends	-13539
osimiri	-13540
▁Future	-13541
▁attrib	-13542
▁freely	-13543
▁haƙĩƙa	-13544
▁marubu	-13545
▁proced	-13546
▁strict	-13547
▁switch	-13548
▁Current	-13549
▁Denmark	-13550
▁Oleekwa	-13551
▁attacks	-13552
▁baptism	-13553
▁degrees	-13554
▁excited	-13555
▁gbochie	-13556
▁illness	-13557
▁kamfani	-13558
▁package	-13559
▁Aluminum	-13560
▁anointed	-13561
▁kyautata	-13562
▁partners	-13563
▁suffered	-13564
▁websites	-13565
▁tsammanin	-13566
▁authorities	-13567
IGH	-13568
Wor	-13569
dia	-13570
oty	-13571
▁AG	-13572
▁CC	-13573
▁ns	-13574
Land	-13575
abis	-13576
bles	-13577
empe	-13578
enna	-13579
iano	-13580
idem	-13581
ques	-13582
▁Lai	-13583
▁eth	-13584
▁ice	-13585
▁nkp	-13586
icide	-13587
orses	-13588
sians	-13589
▁Euro	-13590
▁HTML	-13591
▁Kanu	-13592
▁Sapp	-13593
▁acts	-13594
▁blow	-13595
▁hall	-13596
▁rely	-13597
▁Ebram	-13598
▁Ident	-13599
▁Kiwon	-13600
▁Slate	-13601
▁Visit	-13602
▁anwụọ	-13603
▁dakar	-13604
▁dịịrị	-13605
▁kpebi	-13606
▁mutãn	-13607
▁viney	-13608
▁Esther	-13609
▁Wajibi	-13610
▁corner	-13611
▁facing	-13612
▁famine	-13613
▁Install	-13614
▁Whether	-13615
▁makamai	-13616
▁database	-13617
▁properly	-13618
▁stronger	-13619
▁Manifesto	-13620
▁determine	-13621
▁insurance	-13622
▁introduction	-13623
41	-13624
Se	-13625
:41	-13626
Pal	-13627
gly	-13628
sea	-13629
spe	-13630
tra	-13631
Ọrụ	-13632
term	-13633
ulum	-13634
unte	-13635
well	-13636
▁187	-13637
▁Eph	-13638
▁Nkw	-13639
▁Sar	-13640
Point	-13641
ansom	-13642
liers	-13643
ummai	-13644
▁Clin	-13645
▁Rest	-13646
▁Stay	-13647
▁Zere	-13648
▁chụọ	-13649
▁dish	-13650
▁item	-13651
▁liqu	-13652
▁slot	-13653
ensity	-13654
▁2015,	-13655
▁Event	-13656
▁Ghana	-13657
▁fushi	-13658
▁ikuku	-13659
▁manta	-13660
▁ojiji	-13661
ctional	-13662
▁Though	-13663
▁buried	-13664
▁dabere	-13665
▁hakora	-13666
▁mazugi	-13667
▁Yanayin	-13668
▁creator	-13669
▁kasafin	-13670
▁license	-13671
▁yunkuri	-13672
▁Continue	-13673
▁Proverbs	-13674
▁decibels	-13675
▁kwesịghị	-13676
▁launched	-13677
▁abundance	-13678
▁chegharịrị	-13679
▁discussion	-13680
▁institutions	-13681
UD	-13682
pm	-13683
:6,	-13684
▁"[	-13685
▁5)	-13686
ANTA	-13687
Love	-13688
Well	-13689
abor	-13690
akpụ	-13691
▁Anọ	-13692
▁HGH	-13693
▁Lah	-13694
▁OZI	-13695
▁ode	-13696
abbai	-13697
aibol	-13698
gener	-13699
igayi	-13700
lehem	-13701
ounce	-13702
uters	-13703
▁2005	-13704
▁Mayu	-13705
▁Ways	-13706
▁goge	-13707
▁nupụ	-13708
▁poll	-13709
cciyar	-13710
ronics	-13711
takịrị	-13712
▁2017,	-13713
▁Asiya	-13714
▁Czech	-13715
▁Kudin	-13716
▁Manzo	-13717
▁Movie	-13718
▁SOLAS	-13719
▁appar	-13720
▁banki	-13721
▁eriri	-13722
▁holds	-13723
▁joint	-13724
▁manya	-13725
▁ntutu	-13726
▁zargi	-13727
achọghị	-13728
egbochi	-13729
iscient	-13730
▁Talata	-13731
▁cinika	-13732
▁dollar	-13733
▁driver	-13734
mination	-13735
▁Ebaibol	-13736
▁batirin	-13737
▁browser	-13738
▁channel	-13739
▁experts	-13740
▁managed	-13741
▁mugunta	-13742
▁Ịmepụta	-13743
▁Ụlọikpe	-13744
▁Policies	-13745
▁Recovery	-13746
▁carrying	-13747
▁husbands	-13748
▁networks	-13749
▁referred	-13750
▁sadaukar	-13751
▁expressed	-13752
▁interface	-13753
▁definition	-13754
▁inhabitants	-13755
▁Construction	-13756
yn	-13757
:40	-13758
dis	-13759
kpi	-13760
ỌRỌ	-13761
▁Aj	-13762
▁QS	-13763
fast	-13764
oxid	-13765
▁Ewe	-13766
▁jụụ	-13767
▁lub	-13768
▁raw	-13769
comes	-13770
ptide	-13771
quari	-13772
walla	-13773
▁Bụrụ	-13774
▁Cele	-13775
▁Ephe	-13776
▁guje	-13777
▁kwam	-13778
▁lock	-13779
▁logo	-13780
▁mabi	-13781
▁spam	-13782
▁visa	-13783
▁2011.	-13784
▁Award	-13785
▁Poker	-13786
▁Sudan	-13787
▁etern	-13788
▁hosts	-13789
▁jiyya	-13790
▁likit	-13791
▁nkekọ	-13792
▁watsi	-13793
▁weren	-13794
▁ịkọrọ	-13795
llywood	-13796
▁Photos	-13797
▁Season	-13798
▁alhãli	-13799
▁camera	-13800
▁eduhie	-13801
▁karɓar	-13802
▁nnwere	-13803
▁rebell	-13804
▁Tarayya	-13805
▁adreesị	-13806
▁akwukwọ	-13807
▁alcohol	-13808
▁bayyane	-13809
▁journal	-13810
▁kumburi	-13811
▁umurnin	-13812
▁Archives	-13813
▁Gentiles	-13814
▁changing	-13815
▁creative	-13816
▁nitrogen	-13817
▁officers	-13818
▁rigakafi	-13819
▁symptoms	-13820
▁akpọkwala	-13821
▁eventually	-13822
▁tabbatarwa	-13823
▁Administration	-13824
/0	-13825
ARS	-13826
VER	-13827
aho	-13828
gwé	-13829
ibu	-13830
lan	-13831
sex	-13832
▁ii	-13833
Aịza	-13834
▁1.1	-13835
▁1.5	-13836
▁189	-13837
▁30,	-13838
▁Ado	-13839
▁PDF	-13840
▁Tam	-13841
▁err	-13842
▁tro	-13843
▁zuo	-13844
▁ịdọ	-13845
eduga	-13846
grade	-13847
kọghị	-13848
ocent	-13849
▁5000	-13850
▁Save	-13851
▁icon	-13852
▁kank	-13853
teries	-13854
▁Jonah	-13855
▁Study	-13856
▁Touch	-13857
▁finds	-13858
▁ordin	-13859
▁sides	-13860
▁sugar	-13861
▁tough	-13862
▁yanka	-13863
▁Beauty	-13864
▁Module	-13865
▁Posted	-13866
▁dumama	-13867
▁famili	-13868
▁fourth	-13869
▁manema	-13870
▁nweere	-13871
▁saitin	-13872
▁server	-13873
▁ƙwarai	-13874
ekwurịta	-13875
▁Finland	-13876
▁Journal	-13877
▁Nchekwa	-13878
▁biyayya	-13879
▁dollars	-13880
▁noticed	-13881
▁passing	-13882
▁shahara	-13883
▁visited	-13884
▁accounts	-13885
▁approval	-13886
▁hannunsa	-13887
▁machining	-13888
▁yarjejeniyar	-13889
▁organizations	-13890
23	-13891
2:	-13892
Ne	-13893
▁Ɗ	-13894
Ilu	-13895
ebo	-13896
met	-13897
uls	-13898
urg	-13899
▁(6	-13900
▁1/	-13901
▁5%	-13902
▁AR	-13903
▁Du	-13904
cest	-13905
erna	-13906
▁1:1	-13907
▁Ant	-13908
▁Gra	-13909
▁LLC	-13910
▁tim	-13911
akara	-13912
ospit	-13913
▁Bike	-13914
▁Joab	-13915
▁Koda	-13916
▁Made	-13917
▁Naij	-13918
iyarwa	-13919
▁babur	-13920
▁brave	-13921
▁civil	-13922
▁craft	-13923
▁crazy	-13924
▁cream	-13925
▁guilt	-13926
▁ignor	-13927
▁jinsi	-13928
▁kpara	-13929
▁noted	-13930
▁rapid	-13931
▁sayen	-13932
Because	-13933
▁23:43)	-13934
▁Afrịka	-13935
▁Tashar	-13936
▁factor	-13937
▁gwiwar	-13938
▁jarida	-13939
▁lesson	-13940
▁talent	-13941
gwurugwu	-13942
▁Finding	-13943
▁Islands	-13944
▁Teacher	-13945
▁ihuenyo	-13946
▁publish	-13947
▁batutuwa	-13948
▁elements	-13949
▁exchange	-13950
▁bambancin	-13951
▁background	-13952
▁instructed	-13953
▁relatively	-13954
:8)	-13955
bis	-13956
pal	-13957
▁Iz	-13958
▁ub	-13959
dịrị	-13960
ffee	-13961
furu	-13962
hare	-13963
isin	-13964
wala	-13965
wing	-13966
ãnar	-13967
ãnin	-13968
▁CEO	-13969
▁MAI	-13970
▁nic	-13971
▁yok	-13972
These	-13973
emeri	-13974
joice	-13975
rison	-13976
▁cris	-13977
▁duhu	-13978
▁flat	-13979
▁gaza	-13980
▁ofis	-13981
▁park	-13982
▁stim	-13983
▁vent	-13984
▁yawo	-13985
dancin	-13986
icking	-13987
▁Maria	-13988
▁Third	-13989
▁cycle	-13990
▁ninka	-13991
▁teams	-13992
adabere	-13993
▁Greece	-13994
▁Scient	-13995
▁kokari	-13996
▁Nlekọta	-13997
▁drawing	-13998
▁manager	-13999
▁talatin	-14000
▁yankuna	-14001
▁achịkọta	-14002
▁kwenyere	-14003
▁Analytics	-14004
▁instrument	-14005
▁Tantancewar	-14006
Co	-14007
Te	-14008
-30	-14009
ãne	-14010
▁Ny	-14011
idid	-14012
mere	-14013
page	-14014
▁Jet	-14015
▁cub	-14016
▁ofu	-14017
▁van	-14018
inery	-14019
usoro	-14020
▁Jona	-14021
▁YOUR	-14022
▁calm	-14023
▁deny	-14024
▁fold	-14025
▁koyo	-14026
▁mail	-14027
▁nwed	-14028
▁salo	-14029
▁zere	-14030
▁Allâh	-14031
▁Amụma	-14032
▁assum	-14033
▁robot	-14034
▁tsamm	-14035
▁tweet	-14036
umnuche	-14037
▁Kratom	-14038
▁amaala	-14039
▁covers	-14040
▁refuse	-14041
▁rụchaa	-14042
▁tufafi	-14043
wareness	-14044
▁Details	-14045
▁Express	-14046
▁Ronaldo	-14047
▁canzawa	-14048
▁halarci	-14049
▁murabba	-14050
▁rikodin	-14051
alaghachi	-14052
▁accurate	-14053
▁listened	-14054
▁supports	-14055
▁wherever	-14056
▁Financial	-14057
▁kungiyoyi	-14058
":	-14059
-.	-14060
wr	-14061
ees	-14062
pto	-14063
▁01	-14064
▁62	-14065
anwu	-14066
uese	-14067
warị	-14068
▁6.5	-14069
▁Cin	-14070
▁Map	-14071
▁mwe	-14072
▁ỤMỤ	-14073
ipped	-14074
▁Cast	-14075
▁Jude	-14076
▁Shem	-14077
▁Sony	-14078
▁bold	-14079
▁diri	-14080
▁neck	-14081
▁shel	-14082
▁taus	-14083
▁vain	-14084
▁weta	-14085
KWỤKWỌ	-14086
guzosi	-14087
kamata	-14088
▁Focus	-14089
▁Gyara	-14090
▁Initi	-14091
▁Skype	-14092
▁Stage	-14093
▁Tsaro	-14094
▁diagn	-14095
▁ejije	-14096
▁tribe	-14097
▁worst	-14098
▁zurfi	-14099
▁ƙarar	-14100
olation	-14101
▁Doctor	-14102
▁Echefu	-14103
▁Middle	-14104
▁client	-14105
▁conver	-14106
▁jagora	-14107
▁karbar	-14108
▁sorrow	-14109
▁theirs	-14110
▁tseren	-14111
▁anwụọla	-14112
▁desired	-14113
▁killing	-14114
▁mutuwar	-14115
▁passage	-14116
▁spirits	-14117
▁friendly	-14118
▁resident	-14119
▁sanannen	-14120
▁steroids	-14121
▁ƙarancin	-14122
▁kpọlitere	-14123
▁protected	-14124
▁properties	-14125
▁reputation	-14126
▁sufficient	-14127
▁communicate	-14128
▁distribution	-14129
IG	-14130
Tru	-14131
asp	-14132
iji	-14133
uji	-14134
▁DH	-14135
▁Gọ	-14136
▁WA	-14137
luck	-14138
racy	-14139
▁Lay	-14140
▁Sem	-14141
▁Tab	-14142
▁Tik	-14143
alous	-14144
▁Cash	-14145
▁Iraq	-14146
▁grad	-14147
▁heal	-14148
▁nana	-14149
▁ƙari	-14150
azakwa	-14151
chekwa	-14152
▁conqu	-14153
▁goods	-14154
▁kaiwa	-14155
▁maras	-14156
▁poker	-14157
▁shoot	-14158
▁ịhazi	-14159
agbakwa	-14160
lements	-14161
▁Magung	-14162
▁abanye	-14163
▁accomp	-14164
▁bangas	-14165
▁bigger	-14166
▁hakika	-14167
▁hiding	-14168
▁minute	-14169
▁negosi	-14170
▁Success	-14171
▁diamita	-14172
▁emetụta	-14173
▁smoking	-14174
▁Articles	-14175
▁Computer	-14176
▁Sapphire	-14177
▁diseases	-14178
▁magazine	-14179
▁reliable	-14180
▁Champions	-14181
▁Pinterest	-14182
▁Madaukakin	-14183
▁mkpakọrịta	-14184
▁principles	-14185
▁establishment	-14186
2]	-14187
Ar	-14188
:9,	-14189
otú	-14190
▁ES	-14191
▁GỤ	-14192
▁Mp	-14193
/201	-14194
addy	-14195
odus	-14196
umer	-14197
upid	-14198
ọnye	-14199
▁Ari	-14200
▁Arụ	-14201
▁Awa	-14202
▁Bes	-14203
▁Inv	-14204
▁Oma	-14205
▁Tan	-14206
▁nme	-14207
▁rok	-14208
adian	-14209
arily	-14210
esium	-14211
kamar	-14212
lette	-14213
▁Ball	-14214
▁Kafa	-14215
▁Near	-14216
▁Zaka	-14217
▁bido	-14218
▁hagu	-14219
▁noma	-14220
▁sako	-14221
▁suit	-14222
▁wake	-14223
atarwa	-14224
▁Amaka	-14225
▁Cutar	-14226
▁Exper	-14227
▁Ikike	-14228
▁Image	-14229
▁Organ	-14230
▁Stock	-14231
▁agọzi	-14232
▁dogar	-14233
▁iberi	-14234
▁idanu	-14235
▁imezu	-14236
▁immun	-14237
▁kpata	-14238
▁makwa	-14239
▁scene	-14240
▁shock	-14241
▁yawon	-14242
Jenesis	-14243
viation	-14244
▁Giving	-14245
▁Nnamdi	-14246
▁Yoruba	-14247
▁hijira	-14248
▁ikwere	-14249
▁rahoto	-14250
▁resist	-14251
▁zubere	-14252
▁Alhamis	-14253
▁Connect	-14254
▁Despite	-14255
▁Formats	-14256
▁Manager	-14257
▁charged	-14258
▁missing	-14259
▁promote	-14260
▁Features	-14261
▁affected	-14262
▁inspired	-14263
▁yunkurin	-14264
▁Elizabeth	-14265
▁adireshin	-14266
▁glorified	-14267
▁daidaitawa	-14268
▁independent	-14269
▁registration	-14270
ZU	-14271
cu	-14272
fly	-14273
nce	-14274
zen	-14275
ọnọ	-14276
▁#1	-14277
▁AV	-14278
▁EP	-14279
▁Wo	-14280
ANYA	-14281
sell	-14282
▁16.	-14283
▁Anụ	-14284
▁Jah	-14285
alima	-14286
ctang	-14287
ewute	-14288
jiyar	-14289
legal	-14290
oning	-14291
osity	-14292
ulous	-14293
▁(200	-14294
▁2003	-14295
▁2006	-14296
▁Abba	-14297
▁Dest	-14298
▁Gizo	-14299
▁Hong	-14300
▁Juma	-14301
▁Mesa	-14302
▁Room	-14303
▁boat	-14304
▁dubi	-14305
▁enjo	-14306
▁fest	-14307
▁fled	-14308
▁gere	-14309
▁gwan	-14310
▁iyak	-14311
▁shin	-14312
▁ịchụ	-14313
▁Brian	-14314
▁Hotel	-14315
▁Maran	-14316
▁Nzuzo	-14317
▁Posts	-14318
▁Sound	-14319
▁Vidio	-14320
▁arrog	-14321
▁crown	-14322
▁kraft	-14323
▁react	-14324
▁stuck	-14325
Genesis	-14326
emekarị	-14327
▁Afrilu	-14328
▁Gụkwuo	-14329
▁anọghị	-14330
▁faster	-14331
▁mahara	-14332
▁nazari	-14333
▁rising	-14334
▁rosary	-14335
▁writes	-14336
▁Jenesis	-14337
▁alhakin	-14338
▁ashirin	-14339
▁cochlea	-14340
▁dakunan	-14341
▁kwarara	-14342
▁ƙarfafa	-14343
▁Learning	-14344
▁alamomin	-14345
chargeable	-14346
▁Mmekọrịta	-14347
▁persecute	-14348
▁sharuddan	-14349
▁tradition	-14350
▁vibration	-14351
▁Philistines	-14352
▁explanation	-14353
%,	-14354
JỌ	-14355
One	-14356
rah	-14357
▁CL	-14358
▁NC	-14359
▁Ti	-14360
▁Tw	-14361
heri	-14362
hium	-14363
raim	-14364
sake	-14365
this	-14366
ógbè	-14367
▁Buk	-14368
▁Got	-14369
▁Jee	-14370
▁Los	-14371
amawa	-14372
asses	-14373
iyata	-14374
ullah	-14375
▁Anim	-14376
▁Buru	-14377
▁Camb	-14378
▁Cher	-14379
▁Kere	-14380
▁alma	-14381
▁fage	-14382
▁info	-14383
▁ogwe	-14384
▁taya	-14385
▁wave	-14386
▁ziga	-14387
asonic	-14388
▁Beige	-14389
▁Girls	-14390
▁Jikọọ	-14391
▁Vegas	-14392
▁Yusuf	-14393
▁burnt	-14394
▁emeli	-14395
▁jiran	-14396
▁motiv	-14397
▁notes	-14398
▁scale	-14399
▁spins	-14400
emption	-14401
nership	-14402
ulating	-14403
▁Asabar	-14404
▁Efesọs	-14405
▁Halitt	-14406
▁combin	-14407
▁manage	-14408
▁relief	-14409
fficient	-14410
formance	-14411
▁Hebrews	-14412
▁parable	-14413
▁selling	-14414
abilities	-14415
▁Birthday	-14416
▁Economic	-14417
▁dandalin	-14418
▁declares	-14419
▁hukumomi	-14420
▁wepụtara	-14421
▁conducted	-14422
▁manufofin	-14423
▁principle	-14424
▁regularly	-14425
▁Democratic	-14426
▁Portuguese	-14427
▁correspond	-14428
▁industries	-14429
▁metabolism	-14430
▁generations	-14431
.-	-14432
Le	-14433
AST	-14434
hta	-14435
kad	-14436
ogu	-14437
rum	-14438
zor	-14439
▁MO	-14440
-201	-14441
athy	-14442
mony	-14443
▁Eld	-14444
▁Uwa	-14445
▁bya	-14446
▁enh	-14447
▁mmọ	-14448
▁ogo	-14449
▁ỌMA	-14450
▁ỤLỌ	-14451
amber	-14452
ewepụ	-14453
terol	-14454
uruwa	-14455
▁amba	-14456
▁bala	-14457
▁dual	-14458
▁oath	-14459
▁whis	-14460
dering	-14461
idodin	-14462
▁Carol	-14463
▁Civil	-14464
▁Lissa	-14465
▁Ngozi	-14466
▁analy	-14467
▁kweta	-14468
▁ruler	-14469
▁smile	-14470
Knowing	-14471
▁Indiya	-14472
▁arrive	-14473
▁compar	-14474
▁ekwere	-14475
▁forest	-14476
▁injury	-14477
▁masịrị	-14478
▁perish	-14479
▁rescue	-14480
▁saving	-14481
▁wakilt	-14482
▁Imagine	-14483
▁Ngwaọrụ	-14484
▁Nothing	-14485
▁William	-14486
▁akpọghị	-14487
▁ashamed	-14488
▁central	-14489
▁chọtara	-14490
▁objects	-14491
▁strateg	-14492
▁entirely	-14493
▁koyaushe	-14494
▁selected	-14495
▁yakamata	-14496
▁perfectly	-14497
▁characters	-14498
Can	-14499
agh	-14500
nan	-14501
ỌDỤ	-14502
▁"?	-14503
▁MG	-14504
enia	-14505
iece	-14506
kins	-14507
lers	-14508
lets	-14509
manu	-14510
ngwa	-14511
▁Ekp	-14512
▁ite	-14513
▁pig	-14514
▁tut	-14515
etime	-14516
▁Anal	-14517
▁Arts	-14518
▁Coll	-14519
▁Fund	-14520
▁Meta	-14521
▁Sche	-14522
▁argu	-14523
▁bush	-14524
▁cred	-14525
▁grie	-14526
▁kudu	-14527
istent	-14528
▁Alkur	-14529
▁Blood	-14530
▁Defin	-14531
▁Drive	-14532
▁Track	-14533
▁Works	-14534
▁chain	-14535
▁choro	-14536
▁emebi	-14537
▁grave	-14538
▁hazie	-14539
▁liken	-14540
▁sills	-14541
▁ọdịdị	-14542
cipline	-14543
essions	-14544
▁Agaghị	-14545
▁Nasara	-14546
▁Philip	-14547
▁abokai	-14548
▁dogaro	-14549
▁excess	-14550
▁lifted	-14551
▁mepụta	-14552
▁nyefee	-14553
▁tabbas	-14554
▁tattoo	-14555
▁Anthony	-14556
▁Levites	-14557
▁alleged	-14558
▁kimanta	-14559
▁nupụụrụ	-14560
▁recover	-14561
▁rungumi	-14562
▁wahalar	-14563
▁ƙarshen	-14564
▁Littafin	-14565
▁Magazine	-14566
▁Tarayyar	-14567
▁cleaning	-14568
▁distingu	-14569
▁goodness	-14570
▁grateful	-14571
▁hayaniya	-14572
▁mistakes	-14573
▁mkpanaka	-14574
▁reakwara	-14575
▁Production	-14576
▁Corporation	-14577
**	-14578
/7	-14579
hẹ	-14580
▁×	-14581
cop	-14582
ekp	-14583
ifa	-14584
▁NN	-14585
▁dã	-14586
▁jũ	-14587
▁zọ	-14588
cipl	-14589
kiah	-14590
look	-14591
onwu	-14592
rast	-14593
▁70%	-14594
▁Alj	-14595
▁arr	-14596
▁ble	-14597
▁ikp	-14598
▁shã	-14599
▁tip	-14600
abled	-14601
emetụ	-14602
heere	-14603
iccin	-14604
rants	-14605
▁Case	-14606
▁Esta	-14607
▁Gaba	-14608
▁juyi	-14609
▁loan	-14610
▁puts	-14611
▁toro	-14612
agbaso	-14613
▁2012,	-14614
▁Betel	-14615
▁Karịa	-14616
▁Ready	-14617
▁Relig	-14618
▁Round	-14619
▁Statu	-14620
▁admit	-14621
▁adopt	-14622
▁barci	-14623
▁goyan	-14624
▁haihu	-14625
▁hears	-14626
▁shift	-14627
▁taste	-14628
iblical	-14629
▁Akaeze	-14630
▁Credit	-14631
▁fought	-14632
▁sacred	-14633
▁tables	-14634
▁Writing	-14635
▁adịgide	-14636
▁buƙatun	-14637
▁ekwensu	-14638
▁kụziere	-14639
▁mallaki	-14640
▁minimum	-14641
▁overall	-14642
▁trusted	-14643
▁ọdịnihu	-14644
▁algorith	-14645
▁antioxid	-14646
▁apụtaghị	-14647
▁argument	-14648
▁contrary	-14649
▁register	-14650
▁sciences	-14651
▁tụgharịa	-14652
▁Meanwhile	-14653
▁injection	-14654
▁kwanciyar	-14655
WH	-14656
Mun	-14657
Sai	-14658
bow	-14659
hol	-14660
rif	-14661
sem	-14662
wwa	-14663
Amer	-14664
alty	-14665
iban	-14666
inct	-14667
ogen	-14668
▁21,	-14669
▁Eas	-14670
▁Ogo	-14671
▁kum	-14672
▁muj	-14673
▁rou	-14674
Total	-14675
abbar	-14676
amine	-14677
▁Dark	-14678
▁Kind	-14679
▁Must	-14680
▁akai	-14681
▁calc	-14682
▁diet	-14683
▁hole	-14684
▁ikpo	-14685
▁maha	-14686
▁phil	-14687
▁sans	-14688
▁swim	-14689
ebikwa	-14690
ehihie	-14691
irikpi	-14692
ocracy	-14693
uniyar	-14694
▁Asiri	-14695
▁Farin	-14696
▁Kings	-14697
▁forum	-14698
▁kotun	-14699
▁lambu	-14700
▁mount	-14701
▁oblig	-14702
▁odide	-14703
▁rates	-14704
▁sport	-14705
anapụta	-14706
kwarima	-14707
ọchịchị	-14708
▁Andrew	-14709
▁gained	-14710
▁komawa	-14711
▁nabata	-14712
▁phrase	-14713
▁values	-14714
▁Version	-14715
▁akpọchi	-14716
▁claimed	-14717
▁kunshin	-14718
▁nwedịrị	-14719
▁Olympics	-14720
▁extended	-14721
▁paragraf	-14722
▁bangarorin	-14723
▁possession	-14724
▁accomplished	-14725
▁satisfaction	-14726
▁Understanding	-14727
OK	-14728
ƙo	-14729
dea	-14730
nwe	-14731
▁NF	-14732
alee	-14733
artz	-14734
life	-14735
▁14,	-14736
▁Ata	-14737
▁Nze	-14738
▁PhD	-14739
▁ach	-14740
▁asa	-14741
▁nkọ	-14742
▁rad	-14743
aking	-14744
alibi	-14745
ocked	-14746
there	-14747
trans	-14748
wakpo	-14749
ziere	-14750
▁Chel	-14751
▁Draw	-14752
▁Ruhu	-14753
▁ampl	-14754
▁exec	-14755
▁hari	-14756
▁jail	-14757
▁mewo	-14758
▁nara	-14759
▁runs	-14760
▁sike	-14761
▁yace	-14762
echere	-14763
encing	-14764
tụrụla	-14765
▁Liver	-14766
▁Metat	-14767
▁Offic	-14768
▁edozi	-14769
▁hanci	-14770
▁mbido	-14771
▁omuma	-14772
▁wakil	-14773
enwekwa	-14774
kkyawan	-14775
▁Experi	-14776
▁forces	-14777
▁keɓaɓɓ	-14778
▁kpọọrọ	-14779
▁nyekwa	-14780
▁Ịghọta	-14781
▁anxious	-14782
▁ejikere	-14783
▁matarsa	-14784
▁nsọpụrụ	-14785
▁resurre	-14786
▁soyayya	-14787
▁Location	-14788
▁guzobere	-14789
▁obtained	-14790
▁struggle	-14791
▁terrible	-14792
▁tsohuwar	-14793
▁seriously	-14794
▁commission	-14795
▁convenient	-14796
▁magungunan	-14797
▁reasonable	-14798
▁Environment	-14799
▁advertising	-14800
33	-14801
Ek	-14802
dam	-14803
mun	-14804
ãra	-14805
èzi	-14806
ỤLỌ	-14807
▁BE	-14808
cken	-14809
ọngọ	-14810
▁(4)	-14811
▁Sch	-14812
▁Yọọ	-14813
▁ade	-14814
▁ikọ	-14815
▁mbi	-14816
▁mpị	-14817
amata	-14818
ppers	-14819
stone	-14820
umble	-14821
▁Luck	-14822
▁Okay	-14823
▁QSFP	-14824
▁Snap	-14825
▁astr	-14826
▁pipe	-14827
▁roll	-14828
▁teen	-14829
▁umur	-14830
▁Ụgha	-14831
emokwu	-14832
urious	-14833
uwansa	-14834
▁Ozizi	-14835
▁entry	-14836
▁psych	-14837
▁trave	-14838
ogether	-14839
▁10,000	-14840
▁Events	-14841
▁Excell	-14842
▁Midian	-14843
▁Shafin	-14844
▁biliri	-14845
▁meworo	-14846
▁nchara	-14847
▁sukari	-14848
▁Gbanwee	-14849
▁Introdu	-14850
▁Kimiyya	-14851
▁Message	-14852
▁younger	-14853
▁ịdabere	-14854
lications	-14855
▁Emmanuel	-14856
▁Military	-14857
▁Shanghai	-14858
▁bipụtara	-14859
▁concerns	-14860
▁entering	-14861
▁familiar	-14862
▁gaskiyar	-14863
▁kwarewar	-14864
▁printing	-14865
▁universe	-14866
▁alkawarin	-14867
▁consequences	-14868
Wa	-14869
".[	-14870
oid	-14871
▁lụ	-14872
love	-14873
obar	-14874
osph	-14875
post	-14876
urdy	-14877
yyen	-14878
ƙule	-14879
▁API	-14880
▁BTE	-14881
▁GAS	-14882
▁Max	-14883
▁Nji	-14884
▁Rib	-14885
▁Rus	-14886
▁era	-14887
▁zal	-14888
amụrụ	-14889
assed	-14890
cular	-14891
going	-14892
haust	-14893
plate	-14894
posal	-14895
ships	-14896
▁Bulg	-14897
▁Mari	-14898
▁bawa	-14899
▁genu	-14900
▁sayi	-14901
▁zipụ	-14902
▁Ọfọn	-14903
▁Early	-14904
▁Saudi	-14905
▁bugun	-14906
▁grind	-14907
▁idozi	-14908
▁kpahe	-14909
▁mmezi	-14910
▁moist	-14911
▁rants	-14912
▁split	-14913
▁tower	-14914
▁zubar	-14915
atullah	-14916
osoever	-14917
▁Malays	-14918
▁Nature	-14919
▁Sannan	-14920
▁abroad	-14921
▁desert	-14922
▁ekwekọ	-14923
▁exists	-14924
▁ikwusa	-14925
▁kamuwa	-14926
▁lardin	-14927
▁models	-14928
▁occurs	-14929
▁spouse	-14930
▁writer	-14931
▁KARANTA	-14932
▁Nazaret	-14933
▁Senator	-14934
▁Shekaru	-14935
▁Systems	-14936
▁igiyoyi	-14937
▁kirkiro	-14938
▁neglect	-14939
▁touched	-14940
ekwekọghị	-14941
▁Advanced	-14942
▁hannunka	-14943
▁ntuliaka	-14944
▁thorough	-14945
▁connected	-14946
▁requirement	-14947
97	-14948
DS	-14949
TT	-14950
hid	-14951
paị	-14952
sin	-14953
▁72	-14954
▁Xi	-14955
▁nē	-14956
goya	-14957
icci	-14958
nels	-14959
udun	-14960
umps	-14961
▁350	-14962
▁FDA	-14963
▁Jaa	-14964
▁Pap	-14965
▁Vin	-14966
▁idu	-14967
▁pan	-14968
amari	-14969
angar	-14970
astis	-14971
erosp	-14972
esote	-14973
fashi	-14974
hiere	-14975
merce	-14976
metic	-14977
▁10:2	-14978
▁1990	-14979
▁Saut	-14980
▁Trin	-14981
▁aged	-14982
▁aven	-14983
▁milk	-14984
▁oghe	-14985
▁rinj	-14986
ikieme	-14987
lessed	-14988
orters	-14989
▁Injin	-14990
▁Okike	-14991
▁Ranar	-14992
▁Shigo	-14993
▁arise	-14994
▁faced	-14995
▁iburu	-14996
▁kulle	-14997
▁nwute	-14998
▁pione	-14999
▁premi	-15000
▁satan	-15001
▁tsayi	-15002
ekpuchi	-15003
ewetara	-15004
vereign	-15005
▁Berlin	-15006
▁Biafra	-15007
▁Chrome	-15008
▁ancest	-15009
▁assume	-15010
▁hospit	-15011
▁isiala	-15012
▁jikọrọ	-15013
▁kwance	-15014
▁mabiya	-15015
▁silent	-15016
▁tested	-15017
erospace	-15018
▁Explore	-15019
▁Filipaị	-15020
▁Reading	-15021
▁Taimaka	-15022
▁addinin	-15023
▁condemn	-15024
▁garkuwa	-15025
▁impress	-15026
▁insight	-15027
▁matasan	-15028
▁ngwụcha	-15029
▁teaches	-15030
▁ụlọikpe	-15031
▁discount	-15032
▁mpịakọta	-15033
▁Biophilia	-15034
▁afternoon	-15035
▁mkpirikpi	-15036
▁sovereign	-15037
▁daidaituwa	-15038
▁previously	-15039
KỌ	-15040
mut	-15041
urt	-15042
ịna	-15043
▁61	-15044
▁78	-15045
▁IM	-15046
abas	-15047
eral	-15048
hira	-15049
inal	-15050
ptop	-15051
zhou	-15052
▁Bol	-15053
▁Gur	-15054
▁Maq	-15055
▁Zay	-15056
▁emo	-15057
▁kin	-15058
▁kọn	-15059
▁maɓ	-15060
▁ngo	-15061
▁nin	-15062
andom	-15063
kwasa	-15064
sonaa	-15065
ukuwa	-15066
urunụ	-15067
▁Audi	-15068
▁Away	-15069
▁Path	-15070
▁Sani	-15071
▁Virt	-15072
▁WHSR	-15073
▁adul	-15074
▁ewee	-15075
▁flag	-15076
▁grat	-15077
▁indu	-15078
CHUKWU	-15079
ekweta	-15080
gwugwu	-15081
▁Girma	-15082
▁Hence	-15083
▁Okoro	-15084
▁Sales	-15085
▁Stren	-15086
▁accum	-15087
▁dabba	-15088
▁kusur	-15089
▁rough	-15090
▁tayin	-15091
▁tight	-15092
▁trend	-15093
▁zabin	-15094
▁PayPal	-15095
▁Quotes	-15096
▁Simple	-15097
▁Volume	-15098
▁assemb	-15099
▁fright	-15100
▁height	-15101
▁income	-15102
▁karuwa	-15103
▁lubric	-15104
▁matala	-15105
▁medium	-15106
▁stairs	-15107
▁tsaron	-15108
▁Onyeisi	-15109
▁Shekara	-15110
▁capable	-15111
▁enjoyed	-15112
▁helpful	-15113
▁ibudata	-15114
▁tambayi	-15115
▁tụkwasị	-15116
▁winning	-15117
▁ịkụziri	-15118
▁Benefits	-15119
▁Nchọpụta	-15120
▁Following	-15121
▁Solutions	-15122
▁mgbazinye	-15123
▁accordance	-15124
▁Translation	-15125
▁kwaskwarima	-15126
65	-15127
Mụ	-15128
Iwu	-15129
inc	-15130
umu	-15131
▁Pu	-15132
▁uf	-15133
erer	-15134
iton	-15135
mele	-15136
oral	-15137
sage	-15138
ọhịa	-15139
▁22,	-15140
▁Cer	-15141
▁Eri	-15142
▁MAN	-15143
▁Ogu	-15144
▁Ome	-15145
▁hes	-15146
▁jit	-15147
▁sow	-15148
akila	-15149
itage	-15150
which	-15151
▁Film	-15152
▁Guru	-15153
▁Kare	-15154
▁chap	-15155
▁damn	-15156
▁egbe	-15157
▁gbal	-15158
▁hare	-15159
▁nami	-15160
allery	-15161
asanjo	-15162
wering	-15163
▁2008.	-15164
▁2014,	-15165
▁Going	-15166
▁Large	-15167
▁Malta	-15168
▁drawn	-15169
▁gwani	-15170
▁gyare	-15171
▁kisan	-15172
▁ogige	-15173
▁shige	-15174
▁vital	-15175
▁Ọzụzụ	-15176
▁Palest	-15177
▁betray	-15178
▁ejighị	-15179
▁fruits	-15180
▁hotels	-15181
▁karami	-15182
▁ngọngọ	-15183
▁plants	-15184
▁ransom	-15185
▁refers	-15186
▁Foreign	-15187
▁Members	-15188
▁Pouches	-15189
▁anybody	-15190
▁consent	-15191
▁creates	-15192
▁Independ	-15193
▁Manzanni	-15194
▁describe	-15195
▁existing	-15196
▁wakiltar	-15197
▁Onyekwere	-15198
▁expensive	-15199
▁Industrial	-15200
▁advantages	-15201
▁controvers	-15202
▁onyeisiala	-15203
▁effectively	-15204
/20	-15205
Chi	-15206
May	-15207
dio	-15208
tha	-15209
▁Ij	-15210
▁SD	-15211
▁yã	-15212
ghee	-15213
ifer	-15214
kaya	-15215
tanụ	-15216
urai	-15217
▁160	-15218
▁Edo	-15219
▁Enc	-15220
▁Igb	-15221
▁LCD	-15222
▁VPN	-15223
▁Wak	-15224
▁Wat	-15225
▁kow	-15226
Truly	-15227
bochi	-15228
ermon	-15229
ogram	-15230
rader	-15231
ulner	-15232
▁garg	-15233
▁writ	-15234
▁Ịkwụ	-15235
......	-15236
cribed	-15237
erving	-15238
hentic	-15239
ikanin	-15240
pụtala	-15241
ọrọgwụ	-15242
▁tests	-15243
sonance	-15244
ultural	-15245
▁Action	-15246
▁Mesaya	-15247
▁ambaci	-15248
▁cattle	-15249
▁crisis	-15250
▁dubban	-15251
▁gaming	-15252
▁hunger	-15253
▁merely	-15254
▁meters	-15255
▁movies	-15256
▁sojoji	-15257
▁tribes	-15258
▁ƙunshi	-15259
▁Premier	-15260
▁Studies	-15261
▁circuit	-15262
▁halittu	-15263
▁jawabin	-15264
▁siffofi	-15265
▁Teaching	-15266
▁informed	-15267
▁likeness	-15268
everything	-15269
▁expression	-15270
▁possibility	-15271
▁successfully	-15272
▁interpretation	-15273
▁characteristics	-15274
vẹ	-15275
)".	-15276
:3,	-15277
ɗan	-15278
Ukwu	-15279
cycl	-15280
gima	-15281
ulla	-15282
whel	-15283
▁30.	-15284
▁Tax	-15285
▁Umu	-15286
▁WHO	-15287
▁ads	-15288
▁dos	-15289
▁fly	-15290
▁rom	-15291
▁rum	-15292
alize	-15293
ategy	-15294
maker	-15295
okọta	-15296
ville	-15297
▁Okpu	-15298
▁Stan	-15299
▁Trip	-15300
▁Upon	-15301
▁buɗe	-15302
▁clar	-15303
▁giya	-15304
▁hasn	-15305
▁idol	-15306
▁lọta	-15307
▁pref	-15308
▁rela	-15309
Isaiah	-15310
agbasa	-15311
icious	-15312
woofer	-15313
▁2012.	-15314
▁Amara	-15315
▁Final	-15316
▁Signs	-15317
▁Sword	-15318
▁Tower	-15319
▁cache	-15320
▁chụpụ	-15321
▁drunk	-15322
▁emezu	-15323
▁imeri	-15324
▁imewe	-15325
▁janar	-15326
▁nsure	-15327
▁remar	-15328
▁upset	-15329
▁wanke	-15330
▁ɗauki	-15331
▁Asiria	-15332
▁Njikwa	-15333
▁agency	-15334
▁beside	-15335
▁egeghị	-15336
▁nobody	-15337
▁paving	-15338
▁ranked	-15339
ensation	-15340
▁Kirista	-15341
▁Prepare	-15342
▁Working	-15343
▁default	-15344
▁diamond	-15345
▁knoweth	-15346
▁planned	-15347
amakwụkwọ	-15348
▁Apostles	-15349
▁Response	-15350
▁citizens	-15351
▁ministan	-15352
oresonance	-15353
▁converter	-15354
▁dangerous	-15355
▁forgiving	-15356
▁generated	-15357
▁kpebiziri	-15358
▁practical	-15359
▁conclusion	-15360
▁shawarwari	-15361
▁statements	-15362
▁consumption	-15363
▁approximately	-15364
/8	-15365
:45	-15366
sịa	-15367
usu	-15368
viv	-15369
▁87	-15370
▁GO	-15371
▁PH	-15372
KIYA	-15373
ican	-15374
rite	-15375
sely	-15376
wayo	-15377
▁24.	-15378
▁Kee	-15379
▁Log	-15380
▁SMS	-15381
▁Tes	-15382
▁cow	-15383
▁Ịkw	-15384
▁Ọkụ	-15385
adịru	-15386
onent	-15387
zzage	-15388
▁Ethi	-15389
▁ITIL	-15390
▁Them	-15391
▁Yeah	-15392
▁boss	-15393
▁hutu	-15394
▁mask	-15395
▁nawa	-15396
▁pard	-15397
▁raun	-15398
akpọrọ	-15399
alejin	-15400
anọchi	-15401
manent	-15402
▁Honor	-15403
▁Tools	-15404
▁anọwo	-15405
▁forex	-15406
▁index	-15407
▁izere	-15408
▁kenan	-15409
▁nkata	-15410
ensions	-15411
sonaazụ	-15412
▁Obinna	-15413
▁Regard	-15414
▁Senate	-15415
▁Tinubu	-15416
▁advise	-15417
▁alheri	-15418
▁bashin	-15419
▁invite	-15420
▁jariri	-15421
▁muscle	-15422
▁ndokwa	-15423
▁tiyata	-15424
chinyere	-15425
▁Gọọment	-15426
▁Iranian	-15427
▁Kitchen	-15428
▁Richard	-15429
▁afflict	-15430
▁azọpụta	-15431
▁mkpuchi	-15432
▁monthly	-15433
▁shiryar	-15434
▁testify	-15435
▁warrant	-15436
▁zumunta	-15437
▁Delivery	-15438
▁category	-15439
▁constant	-15440
▁provider	-15441
▁Liverpool	-15442
▁gathering	-15443
▁judgement	-15444
▁transmission	-15445
)!	-15446
SE	-15447
fr	-15448
ọd	-15449
:44	-15450
Aga	-15451
BET	-15452
His	-15453
abo	-15454
bọn	-15455
des	-15456
dim	-15457
emp	-15458
gri	-15459
wid	-15460
▁AA	-15461
▁Eh	-15462
▁MS	-15463
▁SC	-15464
▁Yu	-15465
List	-15466
acce	-15467
irci	-15468
kata	-15469
made	-15470
rubu	-15471
sapp	-15472
▁15%	-15473
▁Cla	-15474
▁FOR	-15475
▁Pit	-15476
▁hia	-15477
▁oda	-15478
▁por	-15479
▁ƙwa	-15480
asịrị	-15481
endar	-15482
hovah	-15483
▁Band	-15484
▁excl	-15485
▁hadn	-15486
▁haɗi	-15487
▁hụla	-15488
▁kura	-15489
▁pour	-15490
▁Ọnwa	-15491
giving	-15492
kọtala	-15493
phones	-15494
rosion	-15495
▁Legal	-15496
▁Maqle	-15497
▁Staff	-15498
▁Wasan	-15499
▁doors	-15500
▁fashe	-15501
▁fears	-15502
▁kafar	-15503
▁nkasi	-15504
▁score	-15505
▁unity	-15506
ernacle	-15507
rencies	-15508
▁Images	-15509
▁Taiwan	-15510
▁Wisdom	-15511
▁acting	-15512
▁bịaara	-15513
▁fabric	-15514
▁halaka	-15515
▁idanun	-15516
▁juyawa	-15517
▁nkenke	-15518
▁taushi	-15519
▁ubangi	-15520
▁yardar	-15521
▁zitewo	-15522
ehichapụ	-15523
ịntanetị	-15524
▁Charact	-15525
▁Johnson	-15526
▁Mmalite	-15527
▁gyarawa	-15528
▁mistake	-15529
▁Nazareth	-15530
▁Obasanjo	-15531
▁Official	-15532
▁esemokwu	-15533
▁mepụtara	-15534
▁Represent	-15535
▁administr	-15536
▁ekekọtala	-15537
▁odeakwụkwọ	-15538
▁resolution	-15539
▁cooperation	-15540
▁suggestions	-15541
▁presentation	-15542
00.	-15543
fet	-15544
jji	-15545
ova	-15546
ụra	-15547
▁88	-15548
▁zu	-15549
Hear	-15550
city	-15551
hers	-15552
osie	-15553
tech	-15554
wọrọ	-15555
▁2.5	-15556
▁Fra	-15557
▁Syn	-15558
▁[1]	-15559
▁asi	-15560
▁haa	-15561
digar	-15562
finai	-15563
▁Assy	-15564
▁Hoto	-15565
▁Pack	-15566
▁Wide	-15567
▁bags	-15568
▁furn	-15569
▁kamu	-15570
▁ọnyà	-15571
active	-15572
ataren	-15573
emecha	-15574
▁Dakta	-15575
▁Jerry	-15576
▁Login	-15577
▁Maced	-15578
▁Mmekọ	-15579
▁Yahay	-15580
▁adaft	-15581
▁eaten	-15582
▁hated	-15583
▁hujja	-15584
▁omnip	-15585
▁rated	-15586
▁threw	-15587
▁Amirka	-15588
▁Robert	-15589
▁Zigbee	-15590
▁employ	-15591
▁ezughị	-15592
▁larger	-15593
▁proved	-15594
▁upload	-15595
▁Content	-15596
▁Olympic	-15597
▁gilashi	-15598
▁glorify	-15599
▁hanging	-15600
▁kankare	-15601
▁takaice	-15602
sequently	-15603
▁Cikakken	-15604
▁District	-15605
▁asibitin	-15606
▁obedient	-15607
▁samaniya	-15608
▁settings	-15609
▁strategy	-15610
▁ƙirƙirar	-15611
▁instagram	-15612
▁kyakkyawa	-15613
▁organized	-15614
▁provision	-15615
▁Kyakkyawan	-15616
▁participate	-15617
29	-15618
85	-15619
Pe	-15620
URE	-15621
etu	-15622
▁AZ	-15623
▁EC	-15624
▁TW	-15625
▁YH	-15626
▁Ịn	-15627
atai	-15628
itic	-15629
kụba	-15630
nụba	-15631
ulpt	-15632
uman	-15633
unts	-15634
yaya	-15635
ṅomi	-15636
▁2-3	-15637
▁Aid	-15638
▁Gov	-15639
▁PSA	-15640
▁Sac	-15641
▁Uwe	-15642
▁spo	-15643
▁ọnọ	-15644
▁ỤTỌ	-15645
▁ụnụ	-15646
conne	-15647
▁1999	-15648
▁Akpa	-15649
▁Gosi	-15650
▁Grow	-15651
▁Jobs	-15652
▁Mash	-15653
▁Mini	-15654
▁enth	-15655
▁hero	-15656
▁kọwa	-15657
▁nasu	-15658
▁west	-15659
ambodo	-15660
lessly	-15661
makers	-15662
tering	-15663
▁Asian	-15664
▁Cheap	-15665
▁Depos	-15666
▁Grant	-15667
▁Motor	-15668
▁agent	-15669
▁aṅụrị	-15670
▁boost	-15671
▁inabi	-15672
▁kalma	-15673
▁knife	-15674
▁meela	-15675
▁recon	-15676
▁saith	-15677
▁swear	-15678
▁towel	-15679
▁ƙayya	-15680
▁Divine	-15681
▁Ilimin	-15682
▁Kyauta	-15683
▁Lahadi	-15684
▁Method	-15685
▁compat	-15686
▁gọvanọ	-15687
▁mayest	-15688
▁studio	-15689
▁Ụkpụrụ	-15690
ushalima	-15691
▁Meeting	-15692
▁Mutanen	-15693
▁Protect	-15694
▁Rejoice	-15695
▁Whoever	-15696
▁acetate	-15697
▁aspects	-15698
▁kabilar	-15699
▁mutãnen	-15700
▁reveals	-15701
▁samples	-15702
▁ọkpụkpụ	-15703
ctangular	-15704
▁Halittar	-15705
▁reaction	-15706
▁spending	-15707
▁tsabtace	-15708
▁bịarutere	-15709
▁emergency	-15710
▁hukumomin	-15711
▁practices	-15712
▁competition	-15713
3%	-15714
44	-15715
Ọo	-15716
Bay	-15717
Get	-15718
ILL	-15719
urb	-15720
ỊBỤ	-15721
▁ED	-15722
▁FI	-15723
▁Mọ	-15724
▁PU	-15725
▁sũ	-15726
Time	-15727
mgbe	-15728
real	-15729
uary	-15730
▁10)	-15731
▁186	-15732
▁Gri	-15733
▁Oku	-15734
▁Sib	-15735
▁bọọ	-15736
▁eju	-15737
iform	-15738
ogide	-15739
rying	-15740
taktị	-15741
▁Irin	-15742
▁Side	-15743
▁stre	-15744
▁wipe	-15745
▁Aminu	-15746
▁Based	-15747
▁Books	-15748
▁Colum	-15749
▁Gabas	-15750
▁Gudun	-15751
▁Mercy	-15752
▁abuse	-15753
▁bride	-15754
▁flock	-15755
▁girke	-15756
▁kallo	-15757
▁liber	-15758
▁recip	-15759
itoring	-15760
raction	-15761
▁Chinwe	-15762
▁GỤKWUO	-15763
▁Slovak	-15764
[...]
