▁a 1
▁n 1
▁t 1
in 1
he 1
an 1
▁m 1
ar 1
▁d 1
▁s 1
▁o 1
re 1
▁b 1
▁k 1
▁w 1
▁i 1
▁na 1
at 1
▁the 1
▁y 1
▁g 1
on 1
er 1
▁h 1
▁da 1
▁c 1
en 1
ou 1
▁an 1
ke 1
or 1
es 1
▁f 1
as 1
al 1
▁A 1
it 1
wa 1
▁e 1
le 1
ing 1
▁ọ 1
▁to 1
is 1
am 1
▁of 1
▁I 1
▁p 1
ed 1
▁M 1
un 1
▁ya 1
ere 1
▁S 1
▁N 1
gh 1
▁ma 1
om 1
▁T 1
▁in 1
ka 1
▁and 1
hi 1
ma 1
▁ha 1
ur 1
ll 1
ya 1
▁C 1
▁th 1
▁l 1
us 1
▁ka 1
▁you 1
kw 1
▁" 1
ara 1
ut 1
ch 1
ri 1
dị 1
▁on 1
▁G 1
gb 1
▁O 1
id 1
ion 1
▁bụ 1
▁H 1
ab 1
me 1
ot 1
ay 1
▁B 1
▁is 1
ce 1
ve 1
ta 1
ye 1
ow 1
▁ga 1
▁be 1
od 1
▁W 1
▁D 1
▁J 1
▁1 1
os 1
rụ 1
ic 1
ent 1
▁ihe 1
▁E 1
▁K 1
et 1
▁z 1
▁P 1
la 1
▁re 1
ad 1
we 1
▁ndị 1
▁j 1
▁ị 1
▁nke 1
ir 1
▁r 1
▁for 1
ghị 1
▁ụ 1
▁he 1
el 1
hụ 1
ik 1
▁2 1
ct 1
▁( 1
▁F 1
il 1
ver 1
kp 1
yị 1
ine 1
▁ta 1
▁that 1
▁L 1
▁The 1
ol 1
zi 1
▁dị 1
ee 1
▁sa 1
ga 1
". 1
▁ku 1
▁Ch 1
im 1
▁- 1
▁su 1
▁nw 1
ly 1
ge 1
and 1
▁ab 1
▁ne 1
▁sh 1
bi 1
▁it 1
▁Ọ 1
ith 1
▁Y 1
kwu 1
ra 1
▁R 1
▁ahụ 1
▁An 1
ill 1
▁u 1
▁gị 1
▁as 1
be 1
ak 1
ro 1
▁wh 1
ci 1
ani 1
ation 1
ld 1
▁anyị 1
her 1
ana 1
▁un 1
st 1
▁ot 1
▁st 1
kwa 1
ter 1
um 1
▁with 1
zọ 1
ul 1
ji 1
▁ba 1
▁not 1
▁was 1
tụ 1
▁U 1
ah 1
ann 1
▁do 1
▁kuma 1
dụ 1
▁are 1
che 1
ineke 1
▁God 1
▁your 1
ess 1
▁we 1
are 1
▁Chineke 1
▁kw 1
▁am 1
ant 1
uk 1
op 1
▁me 1
ght 1
uru 1
se 1
rị 1
▁ni 1
ai 1
.. 1
th 1
▁will 1
ore 1
ig 1
▁al 1
ụrụ 1
gw 1
ite 1
if 1
rom 1
ata 1
gbe 1
▁have 1
▁ch 1
▁ike 1
da 1
any 1
▁onye 1
▁nwere 1
all 1
est 1
rọ 1
ist 1
pp 1
ers 1
ba 1
ok 1
one 1
mụ 1
fi 1
em 1
▁3 1
▁In 1
▁at 1
▁lo 1
ile 1
▁20 1
▁com 1
ity 1
ud 1
... 1
ọrọ 1
▁mma 1
sa 1
▁de 1
▁us 1
▁con 1
pụ 1
▁sam 1
▁Ma 1
hen 1
▁they 1
iy 1
uwa 1
▁aka 1
▁He 1
oun 1
ck 1
▁shi 1
▁from 1
▁all 1
ime 1
ate 1
▁mere 1
ịa 1
iri 1
▁en 1
na 1
ure 1
ment 1
▁can 1
▁or 1
ould 1
ikin 1
ive 1
▁le 1
chi 1
▁this 1
▁v 1
▁St 1
▁them 1
ihi 1
ha 1
qu 1
iv 1
▁unu 1
pe 1
▁go 1
▁On 1
art 1
▁by 1
eme 1
▁sị 1
ama 1
▁has 1
ie 1
▁ce 1
una 1
de 1
▁kas 1
▁wor 1
▁ts 1
▁za 1
ari 1
ust 1
▁ji 1
ome 1
▁And 1
ans 1
▁don 1
ub 1
▁so 1
out 1
▁his 1
▁niile 1
▁Wh 1
fe 1
cin 1
ard 1
chị 1
ide 1
pt 1
▁mgbe 1
▁kar 1
og 1
bụ 1
▁who 1
gbu 1
▁iya 1
ang 1
▁ex 1
ort 1
ear 1
▁si 1
annan 1
▁him 1
▁wee 1
ov 1
▁Na 1
▁4 1
▁mai 1
our 1
so 1
eri 1
ag 1
ose 1
iki 1
wo 1
res 1
▁pro 1
ind 1
lọ 1
00 1
▁Th 1
oro 1
▁mat 1
▁cikin 1
now 1
▁yi 1
▁af 1
▁bụla 1
▁5 1
▁wa 1
▁one 1
▁ad 1
lee 1
ord 1
▁All 1
ike 1
ost 1
anya 1
fa 1
▁ko 1
▁mas 1
hu 1
▁maka 1
ala 1
▁otú 1
ib 1
▁up 1
ance 1
yan 1
kọ 1
zu 1
ru 1
▁mkp 1
▁my 1
ark 1
kwụ 1
▁kan 1
▁bụrụ 1
▁bay 1
▁se 1
▁said 1
ong 1
▁daga 1
ight 1
war 1
iya 1
ous 1
ven 1
▁what 1
▁mmadụ 1
to 1
▁Ị 1
ast 1
ry 1
▁' 1
▁fa 1
▁ọrụ 1
▁mu 1
▁ezi 1
▁Ihe 1
ze 1
▁ọzọ 1
wan 1
ịrị 1
▁know 1
ame 1
yi 1
end 1
:1 1
▁ri 1
▁say 1
▁Ha 1
je 1
▁We 1
ụọ 1
▁la 1
▁Is 1
ia 1
cc 1
ach 1
lu 1
reat 1
gbo 1
gba 1
anda 1
ane 1
▁aga 1
here 1
▁out 1
very 1
▁there 1
bọ 1
▁Je 1
▁V 1
▁had 1
▁bu 1
ction 1
▁their 1
▁about 1
nị 1
▁but 1
go 1
▁pr 1
▁yan 1
ọọ 1
▁otu 1
fin 1
ies 1
▁anya 1
▁201 1
ings 1
ban 1
▁kam 1
▁ke 1
▁obi 1
arin 1
▁day 1
▁pe 1
▁were 1
▁Ka 1
man 1
▁wani 1
▁Re 1
▁ozi 1
▁[ 1
▁our 1
▁she 1
ne 1
▁nọ 1
cha 1
ob 1
ink 1
aba 1
ca 1
▁Z 1
pụta 1
fani 1
▁whi 1
▁You 1
yere 1
▁te 1
▁It 1
▁onwe 1
▁kp 1
ice 1
?" 1
gwu 1
wu 1
bu 1
▁when 1
led 1
▁6 1
ound 1
ali 1
ire 1
▁Allah 1
▁ebe 1
▁man 1
anin 1
di 1
▁ụmụ 1
ople 1
der 1
▁ƙ 1
mu 1
▁any 1
▁amfani 1
▁loka 1
ally 1
▁Ji 1
▁ru 1
gha 1
▁Gị 1
▁wannan 1
kụ 1
▁19 1
▁Ya 1
ary 1
▁cewa 1
mp 1
sel 1
hin 1
kar 1
▁Un 1
▁Ụ 1
ree 1
▁Ne 1
▁nwe 1
▁yana 1
tụtụ 1
nụ 1
use 1
▁What 1
▁tare 1
hov 1
▁isi 1
▁nwa 1
▁Ndị 1
▁no 1
ions 1
du 1
lo 1
▁But 1
▁ar 1
▁ra 1
▁people 1
▁sun 1
▁ime 1
.+ 1
▁Olee 1
▁qu 1
ren 1
▁tr 1
▁sp 1
▁did 1
▁sha 1
▁. 1
▁Jehov 1
▁more 1
vers 1
su 1
▁other 1
ebe 1
ish 1
▁if 1
esus 1
▁How 1
▁Ab 1
▁time 1
yar 1
bọchị 1
anyere 1
▁De 1
▁So 1
kwe 1
wụ 1
aka 1
ough 1
other 1
tara 1
able 1
▁res 1
▁ala 1
kwọ 1
▁sab 1
jụ 1
▁okwu 1
▁Jesus 1
asị 1
▁iche 1
▁Am 1
▁which 1
own 1
ise 1
ọn 1
▁wanda 1
▁8 1
ber 1
▁comp 1
▁gb 1
▁mut 1
ap 1
fore 1
int 1
▁kwa 1
aban 1
kpe 1
ife 1
li 1
▁Onye 1
▁Da 1
▁br 1
ence 1
▁7 1
▁10 1
▁been 1
atar 1
▁ci 1
okwu 1
ath 1
ated 1
▁Gịnị 1
▁ndụ 1
ina 1
ather 1
▁shall 1
ps 1
:2 1
ress 1
▁would 1
zọs 1
▁zuwa 1
▁site 1
gwa 1
▁ọma 1
▁Jizọs 1
ass 1
kwụkwọ 1
enwe 1
▁fe 1
yin 1
▁year 1
ank 1
zụ 1
ook 1
▁iji 1
▁En 1
▁Anyị 1
▁saur 1
ase 1
ọdụ 1
▁di 1
▁kwuru 1
ada 1
▁banyere 1
▁For 1
ble 1
▁chọrọ 1
▁eme 1
▁kya 1
▁dis 1
ult 1
kwara 1
▁Do 1
▁ob 1
▁As 1
oh 1
adị 1
▁see 1
▁make 1
asa 1
▁afọ 1
oke 1
▁get 1
▁ik 1
▁also 1
▁suka 1
ory 1
). 1
ug 1
alla 1
▁oge 1
▁mm 1
way 1
anta 1
▁Mgbe 1
ac 1
▁app 1
do 1
ign 1
igh 1
erv 1
ons 1
▁Mar 1
▁fo 1
▁duk 1
▁9 1
za 1
▁har 1
▁aiki 1
▁masu 1
▁way 1
▁mee 1
▁ụzọ 1
ff 1
ations 1
▁Go 1
les 1
up 1
hie 1
▁ọtụtụ 1
ount 1
▁mme 1
wara 1
▁off 1
ft 1
▁pl 1
▁nn 1
▁some 1
▁mmụ 1
▁mar 1
▁gu 1
ita 1
▁wat 1
itt 1
▁her 1
iyar 1
▁like 1
▁sin 1
ukwu 1
ents 1
ness 1
▁Ba 1
ida 1
enye 1
▁lokacin 1
▁mag 1
▁Al 1
esịrị 1
old 1
cause 1
▁how 1
self 1
▁This 1
▁Ot 1
day 1
▁ear 1
dan 1
uta 1
,+ 1
were 1
▁ụlọ 1
▁zai 1
▁than 1
▁Be 1
anar 1
▁Nke 1
age 1
tọ 1
omin 1
kin 1
▁should 1
esi 1
arị 1
▁over 1
iz 1
▁good 1
▁into 1
ical 1
mume 1
urn 1
rin 1
▁work 1
▁may 1
▁many 1
▁mafi 1
▁want 1
▁every 1
▁pre 1
orm 1
▁gr 1
▁per 1
▁Stone 1
▁bú 1
▁need 1
▁take 1
▁does 1
▁mmụọ 1
lic 1
▁acc 1
▁Jehova 1
▁abụọ 1
ku 1
▁again 1
▁mkpa 1
▁chi 1
ayin 1
▁then 1
tain 1
per 1
aa 1
ham 1
anị 1
▁ah 1
▁kamar 1
olog 1
▁ụbọchị 1
com 1
uka 1
irst 1
odu 1
ked 1
▁omume 1
▁bel 1
ami 1
▁bab 1
yo 1
rist 1
ue 1
▁ana 1
▁Ad 1
ezi 1
▁spe 1
▁gwa 1
anyị 1
ụlọ 1
▁mats 1
iff 1
▁/ 1
ible 1
▁imp 1
kpọ 1
sọ 1
nye 1
▁ok 1
▁right 1
ọta 1
▁15 1
▁made 1
ful 1
▁things 1
▁comm 1
gụ 1
elu 1
▁If 1
", 1
gin 1
kan 1
▁those 1
oss 1
▁mus 1
▁ca 1
ws 1
uma 1
▁samar 1
▁gir 1
ting 1
ph 1
▁cont 1
▁fi 1
vid 1
▁12 1
▁zama 1
els 1
ken 1
▁Q 1
tị 1
▁Sa 1
▁elu 1
▁kwesịrị 1
▁iri 1
ashin 1
▁Com 1
▁kayan 1
unye 1
▁because 1
ces 1
mar 1
shi 1
ple 1
▁bụghị 1
▁gh 1
▁Mos 1
▁kun 1
eren 1
ens 1
cts 1
ond 1
▁abin 1
▁sịrị 1
ts 1
vel 1
iti 1
▁these 1
▁thr 1
cl 1
ki 1
ition 1
:3 1
ull 1
ace 1
▁bl 1
▁His 1
ower 1
▁hel 1
▁They 1
ves 1
▁ama 1
ute 1
▁hany 1
wn 1
▁even 1
▁aha 1
▁ruo 1
▁ang 1
▁before 1
▁cl 1
▁far 1
ily 1
▁No 1
▁ụwa 1
▁Pro 1
▁18 1
ning 1
▁adị 1
▁yad 1
te 1
gr 1
amb 1
▁Con 1
jin 1
▁biy 1
▁rep 1
▁Le 1
▁ego 1
▁exp 1
▁bayan 1
king 1
▁haka 1
▁To 1
▁part 1
ote 1
▁mal 1
▁ọn 1
▁great 1
ered 1
▁hal 1
▁under 1
▁Christ 1
isi 1
▁only 1
▁suna 1
▁ò 1
▁11 1
ici 1
ors 1
▁yadda 1
tern 1
▁nan 1
▁des 1
▁nwoke 1
▁Af 1
▁first 1
▁wr 1
oda 1
▁world 1
ran 1
▁just 1
cy 1
igwe 1
obi 1
▁life 1
ual 1
▁down 1
att 1
▁bi 1
ene 1
▁years 1
line 1
gban 1
▁200 1
uwan 1
▁There 1
▁When 1
▁ngwa 1
eth 1
ates 1
▁atụ 1
uri 1
▁akwụkwọ 1
fọdụ 1
▁come 1
ja 1
▁help 1
▁supp 1
▁Se 1
utse 1
▁Lord 1
▁child 1
ima 1
▁ọnụ 1
000 1
▁Ar 1
▁game 1
ivers 1
▁Ò 1
usa 1
abb 1
form 1
xt 1
), 1
har 1
llow 1
atụ 1
▁now 1
▁mara 1
▁co 1
ansu 1
▁give 1
oge 1
▁nyere 1
cre 1
▁bet 1
▁ebi 1
ika 1
abi 1
▁after 1
▁Me 1
▁love 1
ced 1
▁che 1
▁... 1
▁kai 1
ian 1
▁ụtọ 1
uth 1
gbọ 1
▁maara 1
▁dịghị 1
ahụ 1
▁nso 1
▁Sp 1
▁hand 1
ving 1
▁hụrụ 1
▁gaba 1
aga 1
▁ro 1
▁13 1
ouse 1
aven 1
▁serv 1
▁Isra 1
atan 1
▁high 1
ihu 1
eji 1
urin 1
▁biyu 1
ashi 1
▁yawa 1
kara 1
ved 1
▁nna 1
The 1
ds 1
▁gwara 1
▁Igbo 1
ever 1
odo 1
▁two 1
▁diff 1
▁kyau 1
jọ 1
▁ná 1
ely 1
▁ikpe 1
▁Sh 1
ments 1
▁pla 1
oy 1
ayi 1
▁egwu 1
him 1
▁wasu 1
▁through 1
▁NA 1
▁Kuma 1
▁domin 1
iven 1
▁nwunye 1
ale 1
▁14 1
alị 1
ating 1
kpa 1
osi 1
▁name 1
ited 1
▁Why 1
ira 1
▁earth 1
ṅụ 1
▁hanyar 1
▁back 1
gwụ 1
▁belie 1
mb 1
ward 1
▁ukwu 1
ura 1
▁let 1
▁where 1
aring 1
gwọ 1
▁Him 1
▁kasa 1
▁ịhụ 1
▁new 1
als 1
uniya 1
eche 1
sị 1
▁its 1
▁naanị 1
▁Then 1
▁fark 1
▁yin 1
aki 1
cri 1
mn 1
lect 1
uo 1
▁night 1
▁& 1
▁shekar 1
oint 1
▁17 1
▁Te 1
eep 1
ics 1
▁She 1
▁Are 1
ms 1
▁Ta 1
▁ev 1
An 1
wai 1
▁gba 1
▁son 1
ware 1
20 1
▁nile 1
▁pri 1
▁own 1
▁nkwa 1
ope 1
ukan 1
ini 1
▁men 1
▁wad 1
▁My 1
yya 1
▁amma 1
oth 1
iversity 1
ghachi 1
ought 1
▁mbụ 1
red 1
eb 1
▁forg 1
▁pụrụ 1
ows 1
cial 1
itere 1
fiya 1
▁gas 1
▁could 1
eze 1
▁24 1
▁taima 1
▁ụfọdụ 1
inye 1
▁tsa 1
▁Israel 1
▁iwu 1
gar 1
come 1
▁bin 1
▁heaven 1
dom 1
▁nye 1
▁16 1
phe 1
-1 1
▁ing 1
thing 1
isa 1
HE 1
iss 1
▁Ph 1
▁Obi 1
▁ugbu 1
▁fam 1
▁Mo 1
vi 1
▁read 1
erson 1
ives 1
oma 1
▁ole 1
▁very 1
uni 1
▁lokaci 1
ung 1
asin 1
▁mba 1
▁irin 1
idan 1
lim 1
bụl 1
chọ 1
ities 1
▁nwaanyị 1
▁says 1
▁Bu 1
▁happ 1
▁$ 1
▁days 1
oc 1
▁mụ 1
mm 1
▁pụ 1
▁gud 1
▁La 1
kpere 1
▁cons 1
▁against 1
ool 1
▁rel 1
▁akwa 1
▁ag 1
ick 1
▁Nig 1
iness 1
hụrụ 1
akin 1
orn 1
ekwu 1
owane 1
▁pray 1
si 1
▁enwe 1
less 1
ezie 1
▁ciki 1
▁such 1
mber 1
anụ 1
▁add 1
▁inst 1
▁Ex 1
jọọ 1
▁wom 1
▁king 1
▁idan 1
▁30 1
▁most 1
rel 1
IN 1
▁Jose 1
fo 1
▁At 1
▁Nwa 1
fu 1
▁differen 1
▁trans 1
ịbụl 1
▁akụ 1
▁That 1
ality 1
▁Baịbụl 1
oto 1
▁abụ 1
ghara 1
▁adịghị 1
iko 1
mi 1
▁agaghị 1
▁mmiri 1
▁think 1
▁int 1
arar 1
ove 1
hed 1
▁Dị 1
▁nnọọ 1
ati 1
▁cut 1
adi 1
▁ph 1
▁being 1
pl 1
▁Man 1
ility 1
▁tra 1
▁daya 1
arụ 1
▁* 1
af 1
zo 1
imes 1
ili 1
▁rec 1
ohn 1
▁atọ 1
▁ent 1
aye 1
arwa 1
▁ajụ 1
amu 1
▁set 1
▁Your 1
▁creat 1
fect 1
▁nat 1
min 1
▁long 1
read 1
▁produ 1
▁kowane 1
▁25 1
aha 1
▁Nigeri 1
▁New 1
▁away 1
▁duniya 1
ener 1
agba 1
Wh 1
▁prom 1
▁look 1
▁mkpụrụ 1
uwar 1
▁kawai 1
▁start 1
▁Tr 1
▁nk 1
▁taa 1
▁dec 1
▁must 1
▁mutane 1
▁Pl 1
▁follow 1
yy 1
cess 1
gide 1
▁use 1
▁sauran 1
arn 1
:4 1
▁came 1
▁ans 1
▁daban 1
abụ 1
▁uru 1
its 1
▁ahịa 1
lease 1
▁Don 1
ju 1
gram 1
▁ake 1
▁angels 1
RE 1
ty 1
anci 1
▁agha 1
ational 1
ihe 1
jen 1
▁ọjọọ 1
▁kasance 1
▁ac 1
arki 1
ures 1
kọta 1
alite 1
▁nd 1
ars 1
▁(1 1
▁wu 1
▁? 1
AN 1
angi 1
ideo 1
▁father 1
▁ste 1
▁yanzu 1
chukwu 1
▁quest 1
und 1
uring 1
▁ɗ 1
ric 1
▁farko 1
amp 1
ody 1
amman 1
▁kama 1
▁best 1
▁fit 1
jo 1
chie 1
▁karịa 1
ade 1
▁ye 1
▁tsarin 1
▁nuna 1
yst 1
▁Wor 1
▁tsak 1
▁Pr 1
▁med 1
achọ 1
sụ 1
gharị 1
▁put 1
▁form 1
iving 1
ters 1
▁house 1
edu 1
▁ruwa 1
▁tun 1
▁aikin 1
▁find 1
ats 1
▁tabb 1
cept 1
▁tas 1
▁zam 1
▁ụdị 1
▁Nna 1
▁sau 1
ron 1
▁act 1
the 1
▁kwere 1
▁Jehovah 1
▁University 1
etiti 1
▁lab 1
akwa 1
▁ntị 1
ict 1
▁Moses 1
▁going 1
▁fas 1
riend 1
▁sc 1
ject 1
▁0 1
▁anụ 1
▁kpọ 1
ology 1
▁Wannan 1
ants 1
▁Pa 1
▁cal 1
▁free 1
▁nau 1
▁online 1
▁ind 1
ude 1
ange 1
!" 1
▁gaghị 1
▁matsayin 1
▁wata 1
▁pres 1
ụzọ 1
▁Kra 1
▁mon 1
▁upon 1
asi 1
▁well 1
▁bang 1
▁kasar 1
▁ghara 1
▁end 1
▁hour 1
▁Ga 1
▁Can 1
ụwa 1
▁saboda 1
▁nri 1
▁another 1
▁count 1
pen 1
▁Father 1
of 1
▁heart 1
▁Eb 1
▁reg 1
ti 1
bangi 1
bs 1
ng 1
ero 1
▁Mu 1
,000 1
ased 1
▁yake 1
▁power 1
adịghị 1
▁buk 1
esị 1
get 1
▁abub 1
▁Dutse 1
▁mata 1
▁place 1
▁tar 1
▁ekw 1
▁nj 1
▁oké 1
▁list 1
▁nsogbu 1
▁tell 1
▁person 1
▁Bible 1
gy 1
▁à 1
zin 1
▁sm 1
▁today 1
atin 1
▁samun 1
KW 1
▁feel 1
▁Otú 1
▁car 1
▁girma 1
pect 1
▁ukwuu 1
▁Set 1
▁faith 1
selves 1
▁Or 1
▁dai 1
asara 1
ks 1
won 1
iew 1
▁usoro 1
▁100 1
stand 1
▁kafa 1
▁mmehie 1
▁why 1
▁different 1
hip 1
ged 1
ild 1
kam 1
▁min 1
▁kere 1
▁gidan 1
▁babban 1
▁Ike 1
▁21 1
vern 1
▁mutum 1
▁magana 1
▁ezigbo 1
▁masana 1
oly 1
▁same 1
ufa 1
ular 1
▁fil 1
▁each 1
▁ọhụrụ 1
gbanwe 1
ịst 1
▁shug 1
ko 1
▁nwee 1
▁bus 1
cer 1
ins 1
▁ikike 1
ayan 1
▁brother 1
oney 1
zrel 1
▁22 1
yana 1
ode 1
▁By 1
▁hụ 1
▁ụgwọ 1
▁Kraịst 1
▁children 1
▁stud 1
▁found 1
ids 1
▁gaa 1
ash 1
nu 1
otu 1
▁One 1
ording 1
▁samu 1
▁Pre 1
▁unto 1
eso 1
bar 1
kwasị 1
ele 1
▁gara 1
▁Br 1
▁Who 1
▁Ubangi 1
▁land 1
▁Mus 1
gosi 1
▁ekpere 1
bo 1
▁sai 1
▁John 1
▁Su 1
▁Res 1
let 1
▁og 1
▁With 1
daban 1
land 1
▁Che 1
▁num 1
uba 1
▁att 1
iyo 1
AR 1
upu 1
▁yourself 1
▁here 1
▁Bab 1
itta 1
antu 1
▁cin 1
anni 1
kon 1
▁Ts 1
▁dep 1
▁eze 1
▁ekwe 1
ni 1
▁Ony 1
amar 1
eter 1
▁kaya 1
▁eziokwu 1
▁tru 1
▁done 1
▁cr 1
▁san 1
▁bat 1
▁ayy 1
▁Jer 1
▁os 1
▁mgb 1
▁mana 1
akar 1
ys 1
azụ 1
▁lead 1
gu 1
uku 1
▁ND 1
▁ins 1
irit 1
▁ever 1
ering 1
▁sub 1
▁much 1
chiche 1
ip 1
▁import 1
▁• 1
▁gl 1
uki 1
▁er 1
▁adv 1
▁nsọ 1
▁rece 1
▁rub 1
▁sama 1
▁speak 1
▁| 1
gburu 1
▁mgba 1
▁play 1
alin 1
ges 1
▁anọ 1
▁might 1
▁musamman 1
▁col 1
ogle 1
uss 1
▁mb 1
▁ụgbọ 1
▁fara 1
▁23 1
ised 1
▁ajụjụ 1
▁used 1
▁Now 1
▁bir 1
▁sent 1
.1 1
asu 1
▁Sink 1
▁Izrel 1
▁Us 1
▁US 1
KE 1
akọ 1
▁nche 1
▁hann 1
▁ì 1
book 1
▁Our 1
▁post 1
▁saying 1
▁stand 1
▁gab 1
▁nwụrụ 1
▁inv 1
▁ịn 1
▁bayyana 1
co 1
akpọ 1
ines 1
▁book 1
▁Let 1
▁sign 1
ried 1
▁whom 1
pụtara 1
▁obodo 1
▁turn 1
▁fact 1
▁among 1
▁som 1
▁tal 1
alth 1
ution 1
▁Shi 1
▁ref 1
til 1
▁bo 1
tt 1
▁cho 1
▁cle 1
▁Home 1
▁Mai 1
▁Of 1
▁sur 1
tic 1
ziri 1
▁inter 1
▁wan 1
▁ịbụ 1
▁given 1
unan 1
▁shekaru 1
▁ndi 1
▁sabon 1
▁yawan 1
▁akp 1
▁Ins 1
▁others 1
▁shine 1
ano 1
ood 1
▁em 1
weta 1
▁mot 1
▁Gwa 1
ori 1
▁Za 1
kiya 1
▁+ 1
▁bịa 1
ger 1
▁Marble 1
▁Nigeria 1
ystem 1
▁ọchị 1
▁dum 1
▁three 1
▁bar 1
▁old 1
▁cika 1
ublic 1
ket 1
▁resp 1
outh 1
eous 1
▁call 1
▁went 1
▁ntụ 1
▁video 1
▁Har 1
▁Good 1
ished 1
io 1
ledge 1
▁sanya 1
▁nor 1
ọl 1
ames 1
▁uche 1
▁Ju 1
fanin 1
con 1
▁really 1
ween 1
▁mis 1
▁never 1
▁friend 1
aro 1
▁fiye 1
chn 1
zis 1
med 1
okp 1
▁Ì 1
hịa 1
▁May 1
▁App 1
ific 1
▁suke 1
ident 1
ave 1
ices 1
▁agba 1
▁ed 1
▁conf 1
▁Satan 1
▁ju 1
▁gare 1
▁show 1
ustom 1
ghọ 1
ason 1
ites 1
▁ele 1
▁pur 1
ona 1
▁care 1
▁light 1
▁Google 1
wit 1
okin 1
▁eji 1
gwure 1
▁keep 1
▁gburu 1
gwuregwu 1
▁pa 1
kacin 1
▁command 1
mara 1
▁while 1
▁home 1
▁ret 1
▁hank 1
aic 1
▁et 1
act 1
ater 1
▁Face 1
gboro 1
▁gida 1
zinụlọ 1
anna 1
▁gbasara 1
▁ọbụ 1
// 1
velop 1
ctions 1
▁sal 1
▁become 1
gan 1
▁hum 1
▁Mozis 1
▁sec 1
ụbọchị 1
▁anaghị 1
▁Iji 1
eluigwe 1
▁Rep 1
▁nwekwara 1
▁Setan 1
anye 1
ative 1
yocha 1
:// 1
wer 1
atta 1
▁Son 1
▁kasị 1
▁Sl 1
▁Lo 1
▁gịnị 1
▁pụtara 1
▁mean 1
▁called 1
▁lafiya 1
▁del 1
▁Ubangiji 1
▁ap 1
▁created 1
▁Sam 1
▁tabbatar 1
▁until 1
▁water 1
▁mer 1
▁anyi 1
▁times 1
▁requ 1
▁baya 1
▁truth 1
ghi 1
▁aika 1
▁fore 1
▁month 1
ital 1
▁sami 1
ancin 1
▁akwai 1
".+ 1
ship 1
▁war 1
▁ọgwụ 1
▁yau 1
▁poss 1
▁hearing 1
▁understand 1
▁Chi 1
▁akan 1
▁kind 1
ined 1
ention 1
ifi 1
ụsụ 1
▁ibe 1
va 1
▁tụ 1
ision 1
akụ 1
▁Nw 1
▁David 1
▁ja 1
▁az 1
ther 1
Ka 1
ism 1
▁cha 1
▁nakwa 1
nanya 1
▁still 1
zie 1
pụrụ 1
▁guda 1
▁samf 1
▁eluigwe 1
ying 1
▁htt 1
▁shir 1
▁important 1
ches 1
▁sauransu 1
▁China 1
▁between 1
▁nu 1
▁Med 1
▁anwụ 1
ract 1
▁family 1
▁Ob 1
▁ask 1
▁nne 1
lack 1
ually 1
▁believe 1
orts 1
hari 1
lish 1
▁data 1
bara 1
▁ọmụ 1
vious 1
:5 1
ared 1
anọ 1
▁able 1
And 1
▁got 1
▁quality 1
▁Okwu 1
agor 1
▁open 1
ukar 1
▁Sol 1
▁tsakanin 1
▁met 1
▁ohu 1
▁However 1
▁echiche 1
chool 1
▁tupu 1
▁amaghị 1
angu 1
▁too 1
▁1. 1
rịa 1
▁Any 1
▁Otu 1
▁ọkụ 1
▁without 1
iga 1
ging 1
▁dace 1
▁full 1
▁50 1
adin 1
▁ray 1
▁heard 1
alt 1
▁ọsọ 1
anne 1
ones 1
▁huk 1
cript 1
ural 1
▁sake 1
▁incl 1
▁Gran 1
ways 1
▁pass 1
▁rana 1
▁enye 1
▁dere 1
ghar 1
jeri 1
▁es 1
▁told 1
▁sim 1
raham 1
▁sure 1
▁live 1
afọ 1
rol 1
▁test 1
▁par 1
▁shugaban 1
▁dev 1
▁Co 1
AS 1
▁Comm 1
▁shekara 1
utu 1
▁Gr 1
▁fl 1
▁waje 1
agb 1
ched 1
▁learn 1
pr 1
▁money 1
▁jud 1
.... 1
▁Facebook 1
himman 1
▁iwe 1
▁lot 1
ube 1
▁28 1
▁evil 1
cture 1
▁egbu 1
▁abalị 1
▁Mosaic 1
▁X 1
▁Granite 1
▁Ind 1
▁dama 1
NY 1
▁Qu 1
▁Tag 1
wor 1
ator 1
araoh 1
ctor 1
chara 1
ugh 1
urar 1
ething 1
▁eat 1
▁kara 1
▁litt 1
▁ụmụn 1
ling 1
ghọta 1
▁Buhari 1
▁mur 1
ọrụ 1
aik 1
din 1
▁bring 1
▁Amer 1
▁inye 1
▁thing 1
▁shiga 1
▁amụ 1
▁righteous 1
ining 1
▁meet 1
▁asị 1
▁jin 1
▁cer 1
▁wal 1
▁thou 1
▁abụghị 1
▁dr 1
iting 1
▁damar 1
▁Cl 1
5. 1
▁bị 1
▁ter 1
arr 1
ial 1
room 1
den 1
▁asked 1
ream 1
▁ori 1
▁Mat 1
▁eb 1
▁exam 1
gbanye 1
Th 1
▁Ezi 1
▁sol 1
▁King 1
▁bisa 1
▁ef 1
arge 1
▁tri 1
cle 1
▁gener 1
▁Abraham 1
▁mfe 1
▁ƙar 1
▁Ann 1
▁Kas 1
iyya 1
▁Pharaoh 1
▁Eur 1
ikwa 1
▁Paul 1
▁Word 1
formation 1
▁26 1
▁fin 1
▁lam 1
ologo 1
PC 1
akp 1
asy 1
▁words 1
▁Ebe 1
▁hankali 1
rịta 1
gi 1
▁death 1
▁> 1
▁dire 1
ither 1
▁2. 1
ived 1
▁ass 1
▁str 1
ịtị 1
▁Day 1
▁around 1
▁okwukwe 1
ety 1
▁Mary 1
▁karfe 1
▁agb 1
▁ilim 1
▁enyi 1
▁Kar 1
▁azụ 1
▁ig 1
▁support 1
ebi 1
▁pay 1
▁sad 1
ional 1
▁Get 1
▁awa 1
▁Adam 1
▁eke 1
▁point 1
agụ 1
▁kach 1
orin 1
▁Fero 1
▁wife 1
▁bless 1
oup 1
▁talla 1
▁prophe 1
▁Ụlọ 1
▁Col 1
▁Ste 1
▁# 1
▁ita 1
▁hard 1
▁haɗ 1
▁fear 1
▁Joseph 1
▁according 1
gen 1
▁zo 1
▁United 1
▁egwuregwu 1
kpu 1
ened 1
▁News 1
▁something 1
▁gudanar 1
▁sos 1
▁wajen 1
▁dukan 1
utar 1
▁ty 1
▁Did 1
▁jami 1
▁number 1
"? 1
▁gave 1
▁Sin 1
▁word 1
▁giz 1
▁yanar 1
she 1
▁gi 1
cks 1
unci 1
▁abu 1
▁ext 1
▁kus 1
▁Comp 1
▁zuru 1
gine 1
okpuru 1
▁order 1
▁nt 1
▁kayayya 1
ọs 1
▁World 1
▁yar 1
jeriya 1
▁contin 1
▁je 1
reak 1
▁dutse 1
▁olee 1
▁mah 1
▁Ọrụ 1
lla 1
beghị 1
▁binci 1
ashen 1
▁everything 1
OR 1
eld 1
▁begin 1
edi 1
enyere 1
▁ugboro 1
nin 1
ott 1
▁Ama 1
▁bai 1
▁ịna 1
▁mother 1
▁wanka 1
agbanye 1
anai 1
▁arụ 1
▁mil 1
▁ahú 1
uke 1
ries 1
iyan 1
▁sar 1
▁jir 1
▁sons 1
▁cour 1
atọ 1
amin 1
▁Will 1
▁cent 1
▁ebu 1
ME 1
▁IHE 1
▁Sab 1
▁sosai 1
▁govern 1
mail 1
▁blo 1
▁Dis 1
▁ranar 1
▁during 1
▁ebighị 1
jà 1
▁dead 1
▁jụrụ 1
9. 1
You 1
ift 1
▁inda 1
▁rụ 1
▁saw 1
load 1
▁á 1
hing 1
gement 1
▁proble 1
▁ado 1
▁malite 1
ftware 1
enweghị 1
omat 1
erest 1
▁Idan 1
▁199 1
ilt 1
▁Akwa 1
▁27 1
▁nweghị 1
▁40 1
hold 1
erve 1
▁kọ 1
AT 1
▁_ 1
▁blog 1
▁Americ 1
▁inganta 1
GB 1
rop 1
▁iko 1
ozi 1
ccess 1
agwa 1
alle 1
▁kpọrọ 1
anu 1
anet 1
▁always 1
▁Mma 1
chụ 1
hamma 1
jal 1
▁bene 1
▁bind 1
▁kowa 1
▁wadannan 1
ede 1
▁dal 1
▁fun 1
▁hear 1
▁return 1
▁{ 1
antar 1
▁Pe 1
▁face 1
yes 1
▁loc 1
▁Pol 1
▁ehi 1
ashe 1
▁Mun 1
earch 1
▁women 1
▁gra 1
▁ibu 1
▁About 1
▁kachasị 1
▁Eme 1
ately 1
▁prote 1
kere 1
▁Gu 1
▁cur 1
▁last 1
Gị 1
▁Jọn 1
duc 1
wed 1
▁develop 1
50 1
KWU 1
▁left 1
▁system 1
6. 1
uto 1
atun 1
▁ezinụlọ 1
ER 1
lụ 1
▁doing 1
▁custom 1
▁Wind 1
▁yanayin 1
agbanyeghị 1
anyi 1
fice 1
▁Sun 1
▁business 1
▁dist 1
▁More 1
▁question 1
▁After 1
▁law 1
▁taimaka 1
▁uku 1
▁ọbọ 1
▁ịgba 1
ized 1
▁ima 1
▁nweta 1
▁woman 1
▁Eze 1
▁caca 1
▁kung 1
antarki 1
▁State 1
▁jihar 1
▁few 1
▁true 1
▁Ònye 1
▁fall 1
▁ọnwụ 1
▁enweghị 1
▁bayar 1
oni 1
▁means 1
▁yayin 1
▁didn 1
▁launi 1
▁ann 1
▁fus 1
▁ihu 1
inn 1
▁kula 1
▁cor 1
▁Well 1
ister 1
▁knowledge 1
▁Duk 1
▁dog 1
▁build 1
▁Kedu 1
abịa 1
▁chọ 1
▁Have 1
▁Kọ 1
▁manyan 1
▁Unu 1
▁rest 1
arai 1
▁eche 1
▁Ụmụ 1
bin 1
▁opp 1
▁Tur 1
ission 1
▁Europe 1
▁sins 1
aser 1
vert 1
▁Far 1
▁gar 1
▁ọṅụ 1
▁Ọbụ 1
▁head 1
▁gwamn 1
▁little 1
achị 1
▁ago 1
▁2017 1
▁matsal 1
▁Akwụkwọ 1
▁ogologo 1
ump 1
zed 1
▁both 1
▁mind 1
ES 1
4. 1
▁tak 1
zugbo 1
ration 1
▁nde 1
▁tem 1
annin 1
atara 1
▁food 1
▁jiri 1
ikọ 1
▁nas 1
ired 1
▁alaeze 1
▁Ala 1
view 1
▁better 1
1. 1
▁bayanai 1
atu 1
gani 1
▁(2 1
▁Muhamma 1
GH 1
efe 1
mit 1
▁took 1
▁Not 1
▁top 1
▁2018 1
amụ 1
▁gburugburu 1
:8 1
eto 1
▁el 1
▁stop 1
▁akụkọ 1
▁Yana 1
▁https 1
Gịnị 1
unin 1
▁city 1
tagram 1
▁langu 1
▁kamata 1
▁pol 1
ists 1
▁hada 1
ekpe 1
▁kira 1
▁val 1
kpara 1
gg 1
▁Ana 1
▁ise 1
▁mod 1
▁Night 1
▁cikak 1
▁Ro 1
uthor 1
▁From 1
▁speci 1
▁ayyukan 1
▁himself 1
▁Ni 1
ortun 1
oul 1
fic 1
ense 1
▁ide 1
▁state 1
▁Ugbu 1
hir 1
We 1
:10 1
irin 1
▁Inst 1
-2 1
▁run 1
▁body 1
RI 1
▁Bo 1
MA 1
ej 1
▁ziri 1
umar 1
word 1
▁gaban 1
biyar 1
▁try 1
asino 1
yon 1
▁cond 1
gypt 1
▁vis 1
vent 1
▁est 1
▁won 1
▁Does 1
▁ciniki 1
raw 1
ton 1
▁sl 1
▁esi 1
▁dang 1
iver 1
▁prof 1
ership 1
▁kacha 1
urka 1
▁rem 1
▁account 1
▁lantarki 1
▁dan 1
▁po 1
▁dest 1
▁comes 1
WA 1
anen 1
▁nta 1
▁jiki 1
▁ways 1
witter 1
▁example 1
aron 1
▁2019 1
▁Egypt 1
▁Josef 1
ho 1
▁NDỊ 1
▁High 1
▁nnukwu 1
▁Wa 1
▁hot 1
▁having 1
tụrụ 1
What 1
họrọ 1
▁process 1
2. 1
▁saut 1
aika 1
▁Mas 1
▁bincike 1
▁manufa 1
▁obere 1
▁sakam 1
jiya 1
mer 1
▁Yes 1
▁yet 1
▁Where 1
▁ẹ 1
▁vers 1
▁sakamak 1
▁bindiga 1
▁amin 1
▁Next 1
ards 1
▁ọdị 1
DP 1
ubu 1
▁kok 1
gether 1
▁since 1
▁together 1
▁sta 1
matụ 1
▁prov 1
▁ọgụ 1
uli 1
▁3. 1
▁amụma 1
▁id 1
osed 1
▁Ekw 1
▁sit 1
▁mi 1
▁Intern 1
▁thought 1
▁Si 1
▁dem 1
▁kayayyakin 1
ently 1
▁mess 1
▁tsaya 1
himmanci 1
▁malitere 1
▁Ap 1
uwanci 1
kra 1
▁Amurka 1
▁forgiven 1
men 1
▁Mon 1
▁ọnwa 1
▁result 1
tact 1
▁abok 1
▁ban 1
▁karịrị 1
▁abubuwa 1
iken 1
▁whole 1
tụta 1
▁cry 1
▁chere 1
gal 1
ider 1
▁cre 1
▁Kw 1
▁gw 1
▁service 1
▁someone 1
▁ajọ 1
▁week 1
▁bịara 1
▁company 1
▁ak 1
ises 1
:9 1
allam 1
▁certain 1
ages 1
ases 1
▁news 1
osp 1
▁Shu 1
▁listen 1
Unu 1
▁ọbụna 1
.) 1
▁Mee 1
▁seen 1
▁Devid 1
▁software 1
ID 1
▁gy 1
▁kir 1
ified 1
▁kingdom 1
ON 1
ils 1
▁Ko 1
▁iP 1
yinye 1
▁near 1
uts 1
▁Gwamn 1
▁hours 1
une 1
▁die 1
kọrịta 1
zọpụta 1
▁information 1
ught 1
▁Amma 1
▁Read 1
bịa 1
ature 1
▁masa 1
ert 1
ito 1
▁ple 1
alm 1
lite 1
▁experi 1
▁kwụ 1
▁ilimi 1
▁kim 1
esa 1
ịta 1
oyin 1
▁whe 1
ready 1
▁tsara 1
▁kwe 1
▁Ọtụtụ 1
▁kamfanin 1
▁change 1
ended 1
▁Ukra 1
▁provid 1
▁agụ 1
▁kpe 1
▁second 1
▁Instagram 1
▁din 1
▁bid 1
bsite 1
▁issu 1
▁daida 1
▁anything 1
▁Kp 1
▁hu 1
▁Pres 1
▁though 1
▁aud 1
nt 1
ƙi 1
ral 1
▁ọchịchị 1
▁questions 1
▁Up 1
▁dri 1
ury 1
▁suff 1
▁Twitter 1
▁Yan 1
▁IS 1
▁Ib 1
▁achọ 1
▁includ 1
▁hon 1
atch 1
▁country 1
▁send 1
fan 1
▁Here 1
3. 1
ikpe 1
0. 1
oli 1
▁brought 1
▁Min 1
▁dara 1
▁answer 1
▁design 1
cip 1
Do 1
oko 1
ọnụ 1
▁gbara 1
▁hakan 1
▁Annabi 1
new 1
edit 1
▁ol 1
▁thy 1
▁kashe 1
cing 1
oice 1
umma 1
▁Lee 1
▁Spe 1
▁Biko 1
▁Par 1
▁Mana 1
▁osisi 1
athroom 1
▁god 1
;+ 1
ef 1
ully 1
TA 1
▁dịrị 1
▁mult 1
▁Eng 1
▁kansa 1
He 1
▁abubuwan 1
▁Rom 1
▁asaa 1
yl 1
▁mp 1
ushe 1
ERE 1
▁Muna 1
▁spirit 1
vail 1
▁Some 1
▁main 1
▁already 1
▁disc 1
wee 1
▁ọrịa 1
aching 1
▁Pri 1
illed 1
▁worship 1
▁hold 1
▁bukatar 1
▁ekwesị 1
gth 1
▁Dr 1
▁Lab 1
▁vari 1
▁njem 1
gn 1
▁Prophe 1
▁supply 1
uw 1
amihe 1
▁tafi 1
▁ki 1
▁chaa 1
manụ 1
itten 1
jalis 1
▁ikwu 1
▁bit 1
▁oke 1
reham 1
▁ekwu 1
▁chang 1
chnology 1
gwè 1
laim 1
▁202 1
▁watan 1
deed 1
▁samfurin 1
anan 1
▁ịga 1
icial 1
▁babu 1
▁next 1
▁wind 1
▁themselves 1
CH 1
ead 1
obile 1
right 1
aut 1
▁Other 1
▁Onyenwe 1
kwụsị 1
▁trust 1
-3 1
In 1
▁Car 1
▁izu 1
rib 1
cen 1
▁wis 1
▁easy 1
▁asụsụ 1
▁clear 1
oo 1
tu 1
▁Ok 1
▁wadanda 1
▁imm 1
▁Afri 1
▁mor 1
oura 1
▁Shug 1
▁hanya 1
▁sabis 1
▁Bụ 1
etara 1
▁States 1
▁ịdị 1
▁cann 1
:- 1
iles 1
▁Isa 1
▁Please 1
▁= 1
▁knows 1
▁young 1
▁eyes 1
cted 1
▁prep 1
▁waɗ 1
▁halin 1
wered 1
▁tara 1
ọnwụ 1
▁taken 1
▁Ebreham 1
ƙa 1
oud 1
▁29 1
omi 1
▁im 1
ands 1
imiri 1
▁bara 1
▁bas 1
lex 1
▁ebube 1
▁interest 1
illion 1
▁shigar 1
!! 1
kọwa 1
▁Was 1
kk 1
▁Ra 1
▁Des 1
for 1
▁elect 1
sh 1
iru 1
▁Ndi 1
▁fire 1
▁appear 1
irc 1
▁real 1
▁pop 1
▁treat 1
mà 1
tar 1
▁opt 1
idi 1
came 1
▁Oge 1
▁rashin 1
hes 1
▁Di 1
▁Sai 1
▁akpọ 1
▁four 1
▁rage 1
▁peace 1
iwu 1
▁Tra 1
▁known 1
▁wurin 1
▁brothers 1
:7 1
karị 1
ided 1
ciken 1
eru 1
▁kafin 1
▁pos 1
:6 1
uci 1
ịza 1
▁cap 1
▁dig 1
▁ina 1
▁Fr 1
leep 1
nyere 1
▁Domin 1
▁abokan 1
ner 1
urch 1
▁Pita 1
▁Lokacin 1
▁Just 1
▁mach 1
▁small 1
▁nle 1
umi 1
iber 1
▁Yah 1
▁div 1
utere 1
era 1
▁PC 1
fully 1
▁anyone 1
▁reason 1
enụ 1
olu 1
ahịa 1
▁ume 1
umin 1
▁soul 1
▁bụkwa 1
▁answered 1
ony 1
▁"" 1
▁Top 1
▁Kachi 1
▁const 1
eziokwu 1
▁nothing 1
ekw 1
▁Ed 1
▁Abu 1
▁ikom 1
▁wrong 1
▁jama 1
▁Enwere 1
onus 1
itions 1
▁31 1
▁Russ 1
aled 1
zon 1
ues 1
▁Part 1
▁leave 1
▁Windows 1
▁halitta 1
▁ịhụnanya 1
▁narị 1
▁Bayan 1
jalisar 1
ariya 1
▁commun 1
▁human 1
▁ozugbo 1
used 1
▁Jud 1
▁ikon 1
▁reme 1
▁appro 1
▁artic 1
▁intern 1
▁amamihe 1
ista 1
▁Slab 1
▁became 1
▁inf 1
▁siri 1
▁incre 1
▁Therefore 1
lam 1
kwanụ 1
▁doro 1
▁Mba 1
▁bango 1
OU 1
ify 1
▁mkpu 1
▁shafin 1
▁36 1
ikan 1
▁APC 1
ement 1
ories 1
▁stat 1
ots 1
rid 1
ten 1
icked 1
istory 1
▁transl 1
▁Sc 1
▁nụrụ 1
▁line 1
IS 1
▁Jo 1
▁Sha 1
▁big 1
▁friends 1
▁Ke 1
▁fasaha 1
erm 1
▁Has 1
▁wasan 1
ush 1
▁started 1
adu 1
aru 1
yle 1
▁ada 1
▁occ 1
▁gaskiya 1
itness 1
▁Cor 1
▁yanayi 1
unk 1
▁Pọl 1
▁kwuo 1
▁bad 1
▁sla 1
▁duba 1
▁ganin 1
▁kokarin 1
▁Ozi 1
▁break 1
▁materi 1
ians 1
raid 1
▁nanị 1
▁allow 1
▁gina 1
▁kusa 1
▁ƴ 1
ewe 1
aren 1
rap 1
▁fata 1
▁kudi 1
▁mmasị 1
ouch 1
▁within 1
ros 1
▁SE 1
enweta 1
▁haske 1
▁aikace 1
▁Previous 1
zz 1
▁60 1
▁ƴan 1
eti 1
akpa 1
▁Cont 1
vo 1
▁equ 1
▁gabatar 1
▁drink 1
mf 1
▁ngw 1
▁case 1
inyere 1
▁hands 1
▁meere 1
▁coming 1
ọk 1
ery 1
pos 1
▁ir 1
bel 1
cient 1
▁Trans 1
▁website 1
▁32 1
adda 1
apan 1
cent 1
▁rema 1
usal 1
ED 1
▁Art 1
▁uwe 1
▁success 1
ock 1
▁gani 1
oration 1
▁concer 1
▁Fa 1
▁mụrụ 1
▁abinci 1
ansa 1
▁sani 1
▁cutar 1
▁living 1
▁Cent 1
▁buru 1
▁rese 1
▁Best 1
▁zane 1
▁control 1
▁mov 1
egosi 1
▁2020 1
▁Musul 1
yoyin 1
▁Mic 1
▁red 1
▁making 1
▁written 1
▁Mr 1
▁mun 1
rag 1
▁4. 1
idar 1
▁Zamu 1
▁Anyasi 1
▁flo 1
▁Abin 1
▁Holy 1
▁Post 1
ruction 1
ison 1
▁kare 1
▁puku 1
▁side 1
▁ọnọdụ 1
▁nwanyị 1
uality 1
▁strong 1
aaKa 1
▁Kachifo 1
▁ỌbụaaKa 1
ilar 1
obin 1
▁language 1
▁receive 1
▁dole 1
▁once 1
▁wasa 1
ny 1
▁past 1
▁bayani 1
utes 1
▁Kayan 1
▁effect 1
▁present 1
▁Mme 1
emgbe 1
gress 1
wards 1
▁Isi 1
ịs 1
▁sing 1
▁applic 1
▁cikakken 1
▁ahu 1
▁Play 1
▁prayer 1
▁yankin 1
▁rị 1
roid 1
▁job 1
▁Aust 1
arch 1
▁olu 1
▁makes 1
:11 1
lling 1
▁Japan 1
▁offer 1
▁ruwan 1
▁afraid 1
▁shekarar 1
▁Mak 1
▁ịma 1
▁Prophet 1
▁sy 1
▁PDP 1
▁haif 1
"." 1
ghe 1
▁bapt 1
▁dịka 1
▁ohere 1
▁ehihie 1
▁school 1
add 1
biri 1
idai 1
▁Acc 1
▁low 1
asure 1
▁memb 1
▁cannot 1
aper 1
▁Produ 1
▁Spirit 1
▁choose 1
kpo 1
▁tab 1
▁Make 1
▁knew 1
gs 1
eries 1
ped 1
▁Net 1
▁These 1
ability 1
▁Fe 1
rent 1
:18 1
...] 1
▁inwe 1
▁following 1
▁relations 1
org 1
emekwa 1
▁tsaro 1
ccen 1
chaa 1
maka 1
shen 1
▁Noa 1
▁needs 1
ency 1
vailable 1
▁gyara 1
▁Jac 1
▁reve 1
▁Jami 1
ret 1
▁Mụ 1
▁age 1
▁2016 1
▁ib 1
:15 1
ising 1
ọpụta 1
▁Black 1
▁ọka 1
▁wasanni 1
▁gre 1
▁sil 1
▁duka 1
▁perform 1
uture 1
lection 1
▁bayyan 1
▁kull 1
▁Jerusal 1
10 1
▁→ 1
▁San 1
▁forgive 1
▁Per 1
▁kwu 1
▁Nn 1
▁lee 1
▁[...] 1
▁kungiyar 1
▁possible 1
▁Gb 1
warar 1
▁alama 1
▁Peter 1
elf 1
ayil 1
port 1
ato 1
kwuo 1
▁Take 1
▁zafi 1
▁stone 1
▁, 1
▁hope 1
▁enough 1
▁Ina 1
▁Nor 1
▁fur 1
▁kuwa 1
ducation 1
▁Mmadụ 1
▁began 1
▁public 1
AL 1
far 1
▁thir 1
▁daidai 1
▁shirin 1
▁bil 1
▁bro 1
▁ákw 1
bur 1
▁Bl 1
amara 1
▁Akwai 1
▁sound 1
▁months 1
▁sannan 1
▁Ah 1
Olee 1
ekwe 1
banye 1
▁tamb 1
▁doesn 1
▁Christian 1
▁please 1
kpụrụ 1
▁First 1
But 1
▁1, 1
▁Bar 1
▁died 1
▁inji 1
▁kunne 1
▁zaman 1
▁shirya 1
▁Jerusalem 1
oles 1
▁emp 1
▁2015 1
▁bakin 1
▁course 1
▁students 1
▁enter 1
▁share 1
▁indust 1
?+ 1
:13 1
▁Mal 1
▁dab 1
▁nwanne 1
oki 1
▁Im 1
▁gha 1
▁net 1
▁gizo 1
▁story 1
vir 1
unta 1
▁mom 1
▁hannu 1
▁worth 1
▁sauti 1
zuk 1
▁CH 1
▁Sm 1
▁mak 1
▁zan 1
▁wanted 1
onwe 1
▁Job 1
For 1
▁morning 1
▁Site 1
▁benef 1
▁using 1
àjà 1
akwụkwọ 1
▁oper 1
▁hannun 1
▁working 1
▁products 1
nwa 1
▁key 1
▁kill 1
IT 1
ateg 1
ides 1
▁nzu 1
▁Because 1
▁English 1
OS 1
iqu 1
row 1
▁Fin 1
▁rah 1
▁else 1
▁isii 1
▁South 1
▁wants 1
abe 1
ource 1
▁Maka 1
:14 1
ria 1
▁Bel 1
▁para 1
ically 1
▁accept 1
▁specific 1
▁tana 1
▁angel 1
▁stri 1
▁Ọkpara 1
assa 1
lied 1
▁eff 1
▁mes 1
erede 1
▁girl 1
▁Babban 1
▁laghachi 1
Ma 1
ram 1
▁stay 1
anks 1
▁Abụ 1
▁blood 1
▁National 1
▁umar 1
▁dream 1
▁ọmụmụ 1
▁misali 1
▁version 1
ned 1
▁ezu 1
▁stru 1
▁sauki 1
▁mid 1
ulation 1
▁kyauta 1
alụ 1
▁Bet 1
It 1
This 1
▁ANY 1
▁kasashen 1
▁born 1
▁ingancin 1
▁jagor 1
▁least 1
hone 1
▁daugh 1
▁author 1
▁therefore 1
kwo 1
hazi 1
rafa 1
▁anti 1
▁later 1
gwà 1
ayar 1
SS 1
my 1
udu 1
▁Many 1
▁ones 1
▁matsa 1
ols 1
▁Aga 1
▁email 1
▁article 1
LE 1
ora 1
usb 1
▁lik 1
▁zara 1
cturer 1
wun 1
▁33 1
▁getting 1
▁Whi 1
▁grow 1
▁Ukraine 1
ota 1
ulf 1
▁ịch 1
lad 1
▁Ku 1
▁happy 1
▁njọ 1
▁Meri 1
ufe 1
▁ịm 1
rịrị 1
ences 1
ubere 1
▁Free 1
▁ó 1
▁Mess 1
lished 1
▁report 1
urs 1
▁Noah 1
▁Serv 1
▁maza 1
▁onyinye 1
xy 1
▁lamb 1
:17 1
▁ịtụ 1
▁Para 1
▁dalib 1
was 1
asar 1
pped 1
▁yarda 1
▁Muhammad 1
▁available 1
▁kana 1
utt 1
▁Aka 1
allen 1
▁wall 1
▁wuri 1
▁mutanen 1
lick 1
▁tatt 1
hic 1
egbu 1
▁Haram 1
▁ikpeazụ 1
▁GA 1
▁whether 1
woro 1
▁Sub 1
kwuru 1
▁isiokwu 1
▁farashin 1
▁gụ 1
▁sk 1
▁host 1
▁waya 1
▁bonus 1
▁stren 1
▁special 1
▁government 1
hè 1
".. 1
▁Ge 1
▁kark 1
▁muna 1
▁cause 1
oyi 1
▁Mm 1
▁haifar 1
▁nyocha 1
▁everyone 1
cut 1
▁Feb 1
▁riga 1
▁experience 1
ewa 1
mme 1
▁Oh 1
▁nụ 1
aman 1
kkya 1
▁page 1
▁farin 1
▁voice 1
▁ɗa 1
▁matsalar 1
irm 1
▁CO 1
▁biri 1
▁fayil 1
▁sakamakon 1
▁Jagor 1
▁Tsarin 1
work 1
▁rayuwa 1
▁kawo 1
▁shafi 1
▁taking 1
▁Sy 1
▁tsawon 1
ila 1
▁TV 1
▁Ben 1
ounter 1
cce 1
▁parents 1
▁43 1
▁ọmụma 1
▁35 1
pping 1
ney 1
▁El 1
ayen 1
▁Ang 1
▁estab 1
▁Quality 1
kè 1
▁ụra 1
▁Boko 1
eder 1
▁See 1
▁Marmara 1
If 1
▁Iran 1
▁cast 1
▁Jacob 1
▁above 1
▁media 1
▁President 1
ets 1
▁fre 1
▁NKE 1
abata 1
▁Every 1
▁makar 1
▁sanar 1
▁Online 1
br 1
họ 1
:12 1
▁akw 1
▁etc 1
▁Onyx 1
cience 1
▁Ci 1
onye 1
▁ọcha 1
▁Fl 1
dalla 1
▁Wall 1
▁beginning 1
:20 1
uck 1
▁MA 1
▁Year 1
▁ije 1
lem 1
▁jo 1
lace 1
▁Phi 1
▁promise 1
comm 1
▁Ọzọ 1
▁Book 1
▁Ja 1
ior 1
pụghị 1
▁respect 1
iet 1
▁save 1
bie 1
▁thee 1
ugu 1
▁akụkụ 1
▁Alaeze 1
▁zitere 1
▁provide 1
▁bada 1
ountain 1
joy 1
▁Ca 1
Onye 1
ibility 1
▁wisdom 1
▁sarrafa 1
▁Em 1
▁Tun 1
omatik 1
▁jar 1
▁kasuwanci 1
face 1
▁abịa 1
▁akpa 1
▁less 1
chụàjà 1
eje 1
▁Gl 1
zukọ 1
gharịa 1
▁wicked 1
▁taimakon 1
BI 1
▁Jam 1
▁jer 1
uran 1
▁ez 1
▁program 1
fer 1
kwas 1
▁Bay 1
▁arz 1
▁obs 1
▁Laser 1
▁aut 1
▁Musa 1
▁Ụfọdụ 1
▁destro 1
▁perfect 1
▁binciken 1
gre 1
▁nkw 1
▁obe 1
▁2013 1
▁thous 1
▁tsari 1
▁Stud 1
▁neman 1
▁tsaye 1
KA 1
dd 1
▁Jon 1
▁alb 1
▁iPhone 1
8. 1
:16 1
▁Lead 1
▁dịkwa 1
▁often 1
Ya 1
▁Dep 1
ejere 1
itted 1
▁Know 1
▁Shugaban 1
kpụ 1
▁War 1
▁ver 1
▁kwan 1
▁gives 1
inks 1
obodo 1
▁yayi 1
▁yiri 1
Mat 1
urity 1
▁enem 1
▁sleep 1
▁Android 1
ping 1
▁fav 1
astic 1
ouble 1
▁5. 1
▁mo 1
ruit 1
▁kowace 1
▁Najeriya 1
kai 1
▁City 1
▁along 1
oub 1
▁ụjọ 1
▁camp 1
pes 1
kewa 1
▁beh 1
▁price 1
ams 1
▁Og 1
▁Bus 1
▁Gre 1
conom 1
▁Kano 1
▁ụmụnna 1
YA 1
▁Aha 1
▁happen 1
▁heavens 1
head 1
▁cov 1
▁saka 1
▁conne 1
chịkọta 1
▁jirgin 1
▁Bathroom 1
osiri 1
ending 1
▁ready 1
▁short 1
▁myself 1
▁ahụhụ 1
▁works 1
▁Govern 1
ẹn 1
urre 1
▁kashi 1
▁remember 1
4, 1
Na 1
hew 1
irs 1
▁forgiveness 1
iw 1
zar 1
agen 1
▁husb 1
▁longer 1
▁ụgbọala 1
yom 1
ilin 1
ivid 1
▁Oct 1
▁atta 1
1, 1
son 1
▁du 1
▁Supp 1
most 1
▁Abub 1
▁Solom 1
▁opportun 1
itus 1
▁ụka 1
▁ọgụgụ 1
▁future 1
ured 1
▁oriri 1
▁karanta 1
gment 1
▁beaut 1
where 1
▁fahim 1
▁respons 1
▁waɗanda 1
▁Nd 1
play 1
▁Her 1
▁Tim 1
▁Enwe 1
▁move 1
▁Musulunci 1
▁ịmụ 1
▁Even 1
▁dalla 1
▁press 1
▁problem 1
cewa 1
abalị 1
▁igwe 1
▁watch 1
.' 1
▁Kam 1
▁ndu 1
▁rea 1
▁level 1
▁yara 1
artment 1
▁Allahu 1
▁neither 1
top 1
ring 1
erence 1
▁health 1
▁research 1
iter 1
▁Dan 1
▁Law 1
▁enc 1
ption 1
▁music 1
▁sallam 1
▁isn 1
▁buga 1
ụkwụ 1
kwute 1
OL 1
▁agwa 1
▁step 1
mes 1
soci 1
mahịa 1
▁Life 1
▁chọọ 1
9, 1
ront 1
jojin 1
▁gban 1
gbochi 1
itting 1
par 1
▁họ 1
woke 1
▁Saboda 1
▁fast 1
▁proper 1
by 1
ills 1
▁okp 1
▁bude 1
gbakọ 1
▁Chukwu 1
▁hà 1
▁mos 1
▁nufin 1
▁bã 1
aran 1
▁musu 1
▁type 1
▁sauri 1
▁tre 1
▁Mere 1
ileanya 1
2, 1
uter 1
▁fulf 1
▁expla 1
7. 1
▁hana 1
▁ụgha 1
▁karfi 1
▁hy 1
ored 1
akụkụ 1
▁mouth 1
▁ɓ 1
▁Off 1
▁alihi 1
▁alone 1
▁matter 1
Ch 1
NA 1
dọ 1
atiu 1
▁burn 1
▁Os 1
▁nji 1
▁List 1
▁nọrọ 1
25 1
ances 1
▁decl 1
▁pụta 1
▁canza 1
▁however 1
▁nations 1
▁ngwaahịa 1
ems 1
0000 1
dide 1
▁eru 1
▁mul 1
▁situ 1
atthew 1
▁quick 1
▁atụmatụ 1
eds 1
▁Kor 1
▁nku 1
▁ìgwè 1
▁style 1
ensu 1
utun 1
▁sat 1
▁kwal 1
▁pati 1
▁jerin 1
ious 1
acher 1
▁gosi 1
▁juya 1
▁talk 1
ably 1
ober 1
▁Kwa 1
veral 1
▁Kama 1
atever 1
▁birth 1
., 1
pu 1
Why 1
ughe 1
ember 1
▁trad 1
▁farkon 1
▁destroy 1
▁happened 1
pa 1
oday 1
pose 1
▁Out 1
press 1
salla 1
▁biya 1
▁loss 1
ciples 1
▁Nat 1
cking 1
itute 1
▁complet 1
▁kusan 1
icult 1
utsen 1
▁gano 1
aikata 1
AD 1
OD 1
▁Hot 1
▁ewu 1
▁Nsọ 1
zation 1
▁Ọma 1
hief 1
aling 1
▁Cons 1
▁àgwà 1
▁ụkwụ 1
mba 1
▁kụ 1
▁Samu 1
▁necess 1
▁looking 1
ern 1
▁198 1
▁tsan 1
▁forth 1
▁America 1
▁← 1
▁ịrụ 1
time 1
aniel 1
▁100% 1
▁Down 1
▁shak 1
"> 1
▁fito 1
▁tree 1
ourage 1
▁mmalite 1
mas 1
ril 1
ests 1
▁image 1
▁gwajin 1
▁received 1
can 1
▁alụ 1
▁wucin 1
cret 1
▁Men 1
oring 1
▁close 1
▁cover 1
▁enjoy 1
▁kwụsị 1
▁Casino 1
▁hak 1
▁hig 1
▁ruru 1
▁married 1
▁Would 1
▁goyon 1
amba 1
yanwụ 1
15 1
▁Nso 1
▁hor 1
eriod 1
▁ákwá 1
▁Islam 1
▁Business 1
60 1
Abụ 1
3) 1
ebuli 1
▁Paris 1
▁expect 1
aku 1
cil 1
val 1
▁KA 1
riage 1
▁House 1
▁glory 1
▁witness 1
-4 1
ghịkwa 1
▁kyakkya 1
▁bur 1
▁plan 1
▁People 1
▁Bir 1
▁ìhè 1
kwala 1
▁lie 1
istan 1
▁taron 1
▁shirye 1
▁addition 1
▁consider 1
▁Yadda 1
▁Yanzu 1
▁buy 1
▁Great 1
▁loved 1
▁pract 1
▁weebụ 1
▁Africa 1
gọ 1
▁Ac 1
▁Nche 1
▁kemgbe 1
▁miliyan 1
Bet 1
ORD 1
lete 1
mọdụ 1
▁Sec 1
▁spoke 1
IC 1
sy 1
allon 1
▁Power 1
▁achie 1
▁kansu 1
▁servants 1
nd 1
oft 1
▁gbu 1
▁Solomon 1
▁actually 1
void 1
▁biko 1
▁servant 1
▁fal 1
▁Start 1
▁gosiri 1
▁atomatik 1
▁including 1
▁34 1
ners 1
anuary 1
▁muhimmanci 1
ights 1
utions 1
tr 1
ela 1
▁matakin 1
cus 1
▁Mi 1
▁Ear 1
▁bra 1
▁Daga 1
aly 1
▁Ụdị 1
cially 1
ential 1
▁mercy 1
innitus 1
▁azụmahịa 1
ehi 1
enes 1
anetị 1
▁group 1
uwancin 1
ahar 1
▁Sim 1
▁akara 1
essional 1
iful 1
▁turned 1
▁million 1
▁gift 1
▁zabi 1
▁games 1
▁saịtị 1
▁search 1
▁Contact 1
uf 1
godị 1
▁Iwu 1
▁boy 1
▁path 1
▁zuci 1
ividual 1
▁School 1
▁ourselves 1
llo 1
▁pun 1
▁five 1
▁koma 1
▁black 1
▁yanke 1
asha 1
aniya 1
zọụkwụ 1
▁ochie 1
▁Sup 1
▁Look 1
▁dalibai 1
▁exce 1
asinos 1
▁mayar 1
▁tafiya 1
ep 1
▁Bra 1
ideos 1
▁based 1
▁girman 1
▁mmetụta 1
▁6. 1
lege 1
▁SEO 1
▁kal 1
▁win 1
▁ezie 1
kwaghị 1
ication 1
▁problems 1
tù 1
▁siff 1
▁White 1
▁kudin 1
▁mmanụ 1
30 1
ux 1
zing 1
itive 1
▁market 1
▁January 1
▁countries 1
ido 1
Anyị 1
lesh 1
▁rufe 1
▁Health 1
chiri 1
jects 1
▁amsa 1
▁injin 1
▁seven 1
▁osimiri 1
▁ịrị 1
▁relationship 1
▁Mag 1
▁view 1
rew 1
ror 1
abin 1
▁joy 1
▁Nwere 1
▁atụrụ 1
▁cibiyar 1
/? 1
LA 1
ips 1
ball 1
side 1
▁Dec 1
aikace 1
▁access 1
▁mobile 1
ain 1
▁Atụ 1
ruary 1
etimes 1
debe 1
ament 1
▁impro 1
elt 1
▁Tal 1
keting 1
▁makam 1
EN 1
jụjụ 1
▁eto 1
▁isa 1
▁mam 1
▁njikọ 1
gwù 1
▁hop 1
▁inyom 1
▁ve 1
raph 1
anel 1
▁lat 1
▁tot 1
▁bank 1
▁kuna 1
uselem 1
▁history 1
▁Jeruselem 1
▁x 1
▁cost 1
▁shar 1
itical 1
▁litta 1
▁mataki 1
▁mgbanwe 1
▁non 1
▁sex 1
▁kamfan 1
Yan 1
iyi 1
▁Fo 1
▁Air 1
▁Rel 1
▁rai 1
▁LORD 1
▁large 1
▁kpatara 1
▁karkashin 1
▁wo 1
▁deb 1
▁righteousness 1
nọ 1
ese 1
▁Test 1
▁kwamf 1
WU 1
▁Mad 1
▁roba 1
▁shalt 1
▁hasken 1
▁period 1
▁Kingdom 1
▁Sat 1
▁six 1
▁Most 1
akan 1
▁Say 1
▁Name 1
pecially 1
My 1
fort 1
itin 1
amban 1
▁dark 1
▁India 1
▁technology 1
▁Act 1
ivity 1
▁hund 1
▁kada 1
resent 1
▁accom 1
▁mkpọrọ 1
▁building 1
ɓi 1
abar 1
▁whose 1
▁protect 1
▁90 1
Press 1
aract 1
▁ANYỊ 1
chamara 1
▁February 1
umb 1
▁dak 1
▁ill 1
▁gadi 1
▁serve 1
▁Daniel 1
▁nation 1
apa 1
ross 1
attle 1
▁Tare 1
▁Stand 1
▁nhọrọ 1
▁nasara 1
wel 1
onse 1
▁hid 1
▁size 1
▁saman 1
HA 1
gwo 1
ethod 1
iyyar 1
▁Time 1
▁difficult 1
kọb 1
mat 1
▁Eke 1
▁lay 1
▁circ 1
▁scre 1
▁several 1
lin 1
yịn 1
ewed 1
▁Mac 1
▁sadarwa 1
▁ù 1
Ihe 1
aima 1
▁ọdụ 1
▁Gener 1
▁recog 1
How 1
▁Reg 1
▁air 1
▁Karfe 1
▁flesh 1
▁dauki 1
▁lives 1
▁takes 1
▁visit 1
ady 1
olic 1
▁ris 1
cious 1
▁Today 1
attauna 1
ungiyar 1
▁development 1
▁ile 1
abere 1
▁walk 1
▁dashi 1
wasound 1
▁management 1
Be 1
ARA 1
▁MP 1
eweda 1
▁+0000 1
▁ndụmọdụ 1
▁tattalin 1
ola 1
oked 1
▁fem 1
fects 1
zarin 1
▁ƙasa 1
iwatar 1
▁Samuel 1
▁indeed 1
▁magani 1
raft 1
▁Ụzọ 1
ishin 1
▁jakar 1
▁truly 1
▁Should 1
▁amount 1
▁kimiyya 1
ley 1
irar 1
tery 1
▁fari 1
-19 1
acy 1
▁art 1
▁wel 1
▁area 1
▁Jekọb 1
▁Usoro 1
▁record 1
▁forever 1
▁individual 1
▁Es 1
alci 1
eria 1
▁Hel 1
▁gaf 1
▁2014 1
▁2021 1
▁direct 1
▁okenye 1
▁ụmụaka 1
▁husband 1
onụ 1
▁37 1
▁80 1
▁IT 1
icip 1
▁ịzụ 1
▁Kamar 1
▁fitar 1
▁popular 1
▁respond 1
▁Ahụ 1
lement 1
▁claim 1
urrection 1
▁download 1
ubi 1
▁fr 1
▁Juu 1
▁Ndụ 1
▁Jade 1
▁holy 1
rosoft 1
▁Script 1
▁ụmụnne 1
▁Ime 1
istry 1
▁kuka 1
▁ịkpọ 1
OT 1
▁iz 1
▁Yor 1
▁clean 1
▁Natural 1
ij 1
▁char 1
▁class 1
▁Comments 1
▁material 1
aṅụ 1
▁Dece 1
▁hath 1
▁Ajụjụ 1
▁Ijipt 1
▁sunan 1
▁megide 1
▁Akụ 1
▁Jos 1
▁wid 1
▁gold 1
ession 1
▁fruit 1
▁October 1
▁UK 1
▁aik 1
▁rul 1
▁ten 1
▁soro 1
chọpụta 1
▁arziki 1
ZI 1
kes 1
▁Ag 1
▁Bi 1
▁Ver 1
▁muka 1
▁Apple 1
▁Ty 1
akwụ 1
▁arri 1
▁foot 1
▁wuce 1
▁wuta 1
▁asatọ 1
zụzụ 1
▁ran 1
▁carry 1
:28 1
bed 1
ọma 1
▁-- 1
▁Gal 1
▁rik 1
ification 1
rọn 1
iled 1
▁Eli 1
▁Yin 1
▁Aaron 1
:19 1
▁Port 1
▁exist 1
jar 1
alli 1
sure 1
▁taka 1
▁early 1
▁ekele 1
▁reali 1
awa 1
ler 1
▁Fri 1
▁Eche 1
4) 1
5, 1
rench 1
viron 1
▁except 1
▁needed 1
▁bukatun 1
▁current 1
▁hukumar 1
], 1
▁Ee 1
▁197 1
▁abs 1
▁ghọ 1
▁raba 1
▁nchụàjà 1
fafa 1
obal 1
▁teach 1
▁strength 1
▁tw 1
▁Jin 1
▁aid 1
▁kore 1
▁various 1
▁~ 1
▁Mut 1
▁room 1
▁taba 1
▁labarai 1
icy 1
▁Hal 1
▁ayyuka 1
▁apology 1
key 1
▁iro 1
kwere 1
▁Prof 1
▁rele 1
▁otuto 1
▁content 1
▁deta 1
▁WordPress 1
SA 1
gest 1
edebe 1
itude 1
▁Egwu 1
▁fadi 1
▁repent 1
▁rubuta 1
▁Microsoft 1
▁tsoh 1
▁International 1
▁Ru 1
▁Sal 1
▁muku 1
▁kwesị 1
▁Imp 1
▁Blog 1
▁belong 1
▁casinos 1
arewa 1
▁Ol 1
ming 1
▁Bin 1
▁pra 1
▁àmà 1
▁giving 1
▁mmanya 1
▁address 1
▁challen 1
▁require 1
▁December 1
WE 1
▁Gir 1
▁Nai 1
▁wak 1
▁phot 1
▁create 1
▁minutes 1
7, 1
bia 1
aria 1
▁Pay 1
▁gane 1
▁behind 1
onin 1
abara 1
idere 1
▁iska 1
▁rawa 1
allace 1
▁product 1
▁Wr 1
▁ịjụ 1
▁Sept 1
▁American 1
▁university 1
lls 1
▁team 1
verter 1
▁judgment 1
ado 1
▁faru 1
▁tunani 1
▁tinnitus 1
iyoyin 1
▁organi 1
▁anyanwụ 1
▁greater 1
▁Republic 1
inch 1
▁ubi 1
▁ekpe 1
enesis 1
▁gizon 1
▁position 1
lier 1
▁lim 1
▁pụọ 1
▁kids 1
▁gaske 1
▁relig 1
▁baby 1
▁lost 1
xBet 1
▁gil 1
▁sho 1
daịs 1
just 1
▁ịkp 1
▁igbu 1
▁okpu 1
▁Russia 1
ighb 1
▁led 1
▁cyan 1
▁nkwadide 1
adem 1
ointed 1
▁quite 1
▁advice 1
BA 1
SO 1
Jọn 1
bibi 1
itle 1
ument 1
▁poor 1
▁song 1
▁marriage 1
ako 1
ris 1
rate 1
▁gur 1
▁adalci 1
▁killed 1
▁aiwatar 1
3, 1
TM 1
agaghị 1
▁depart 1
▁continu 1
▁decision 1
▁hanyoyin 1
kee 1
▁ee 1
unch 1
▁Blu 1
▁machine 1
ding 1
atures 1
▁zamani 1
ikh 1
▁Sk 1
▁Yet 1
▁inc 1
▁laa 1
▁Jews 1
ternal 1
▁Child 1
▁attention 1
▁olileanya 1
All 1
umm 1
▁THE 1
▁pie 1
▁anim 1
▁study 1
▁value 1
▁bri 1
▁members 1
▁continue 1
▁pub 1
itable 1
▁takard 1
▁industry 1
▁38 1
fiyar 1
▁Anya 1
▁Keep 1
▁draw 1
kwunye 1
▁perse 1
▁ọkachamara 1
▁Ƙ 1
hab 1
▁dee 1
▁steel 1
▁ground 1
▁meeting 1
▁daidaita 1
▁Nj 1
▁vi 1
adum 1
▁Mis 1
▁foto 1
▁North 1
IL 1
201 1
▁Ibe 1
▁Ken 1
▁achị 1
▁obey 1
akwado 1
▁Bakin 1
▁nkịtị 1
▁birnin 1
▁promised 1
▁self 1
▁fight 1
▁launin 1
▁fasahar 1
▁purpose 1
): 1
bet 1
▁aff 1
▁pain 1
▁choice 1
▁former 1
▁taimako 1
▁ntụkwasị 1
ET 1
hah 1
▁48 1
▁lõ 1
aiah 1
anwụ 1
gara 1
▁vir 1
▁Nwoke 1
▁Ezigbo 1
▁Majalisar 1
▁necessary 1
Tube 1
ergy 1
▁buƙ 1
▁tso 1
kpughe 1
EC 1
eal 1
▁Fil 1
▁Oke 1
▁becom 1
▁single 1
▁Ụbọchị 1
▁forward 1
▁whatever 1
fofin 1
▁sassa 1
▁abokin 1
▁reward 1
▁gwamnatin 1
▁Az 1
body 1
ster 1
▁def 1
▁hur 1
▁udo 1
▁dawo 1
urance 1
▁Video 1
▁musul 1
▁white 1
▁ọbara 1
▁inyere 1
God 1
"... 1
▁YOU 1
▁wah 1
arkin 1
▁express 1
▁sw 1
▁okè 1
▁sea 1
▁ụtụtụ 1
▁travel 1
ige 1
atic 1
iews 1
▁Shin 1
▁dare 1
▁soon 1
▁touch 1
kanin 1
▁pers 1
▁event 1
▁takar 1
nam 1
▁agh 1
▁eld 1
▁rev 1
ously 1
▁rule 1
▁James 1
Is 1
ibr 1
▁45 1
▁IN 1
▁due 1
arden 1
emember 1
▁gọ 1
acka 1
▁eye 1
▁Ụwa 1
ators 1
▁Yesu 1
▁date 1
▁sana 1
▁color 1
▁labarin 1
eke 1
▁194 1
ummar 1
▁gudun 1
▁kullum 1
▁Gi 1
▁Eji 1
▁Kpọ 1
There 1
anced 1
▁half 1
▁seek 1
▁issue 1
▁nwanna 1
▁contain 1
▁revealed 1
▁ịnọ 1
▁clos 1
▁entire 1
▁origin 1
▁According 1
icin 1
▁ugwu 1
bata 1
board 1
▁dauke 1
▁table 1
▁videos 1
PS 1
▁À 1
▁Fam 1
quare 1
▁Creat 1
▁Inter 1
▁invol 1
▁watsa 1
▁tattauna 1
▁especially 1
:22 1
zim 1
kaci 1
reme 1
▁prophet 1
▁complete 1
nihu 1
over 1
▁oji 1
▁sul 1
▁Mafi 1
▁dauka 1
▁discuss 1
▁Nigerian 1
▁faithful 1
Let 1
ray 1
arka 1
atsu 1
▁Del 1
▁chụ 1
▁Count 1
elekọta 1
itation 1
RA 1
▁ut 1
kwal 1
▁glad 1
▁deter 1
▁malla 1
▁invest 1
▁regard 1
▁Cibiyar 1
ING 1
Who 1
ege 1
▁maj 1
▁June 1
▁wasn 1
▁nzukọ 1
▁ghaghị 1
▁social 1
▁Christians 1
vy 1
xed 1
▁41 1
amma 1
▁ọla 1
enger 1
usion 1
▁Agha 1
▁nauyi 1
olution 1
▁mountain 1
olin 1
▁Lin 1
▁ife 1
▁jam 1
apter 1
chapụ 1
▁Find 1
▁Saul 1
▁deal 1
▁port 1
▁Medical 1
KP 1
bon 1
▁March 1
▁emplo 1
▁bidiyo 1
▁recomm 1
▁tabbata 1
As 1
▁Nan 1
inese 1
▁parts 1
Mar 1
upụrụ 1
▁kwand 1
istance 1
▁disciples 1
OM 1
atal 1
rodu 1
sịrị 1
▁fig 1
▁plu 1
asing 1
▁Uche 1
▁ofufe 1
tallace 1
▁YouTube 1
vironment 1
▁ekwesịghị 1
▁production 1
DC 1
▁ur 1
oved 1
semb 1
▁ọtọ 1
▁bear 1
▁marasa 1
▁njikere 1
So 1
INE 1
▁ayi 1
▁July 1
▁fass 1
▁jiji 1
ermany 1
▁Turai 1
▁hearts 1
▁lõkacin 1
hon 1
xim 1
▁Aud 1
▁kiya 1
▁wutar 1
▁aikata 1
▁taught 1
▁changed 1
▁mechara 1
John 1
unwa 1
▁Aug 1
▁Love 1
▁saved 1
mission 1
▁engine 1
▁blessed 1
Ndị 1
▁Leg 1
▁iyi 1
▁Sing 1
▁goes 1
▁April 1
▁ịchọta 1
▁Internet 1
gun 1
hib 1
uff 1
▁0. 1
▁oru 1
▁àjà 1
▁Erọn 1
vation 1
▁defin 1
▁tinye 1
az 1
▁39 1
▁Add 1
▁Cal 1
▁sig 1
▁Feder 1
▁nachi 1
▁samuwa 1
aị 1
▁ere 1
▁eri 1
alika 1
▁Mark 1
▁Over 1
▁ùgwù 1
▁bread 1
▁steps 1
▁bamban 1
▁kweere 1
▁Hearing 1
▁2, 1
▁zie 1
▁jini 1
▁Chinese 1
▁prophets 1
▁JI 1
iche 1
jibi 1
▁kee 1
▁asus 1
▁Daban 1
▁Reply 1
▁asali 1
▁karshe 1
▁inganci 1
▁Nọ 1
entị 1
▁Cle 1
▁Int 1
▁Char 1
▁phone 1
odi 1
ingo 1
▁aji 1
▁exact 1
▁oil 1
▁gone 1
▁inte 1
▁grace 1
▁French 1
▁Sheikh 1
▁wonder 1
▁BỤ 1
▁(1) 1
▁Luk 1
▁Ukwu 1
▁hats 1
▁Under 1
▁tashi 1
▁dukkan 1
▁charact 1
▁factory 1
US 1
mma 1
They 1
ikwu 1
▁Tags 1
▁third 1
▁Social 1
▁method 1
▁rayuwar 1
mala 1
vest 1
BC 1
ourn 1
athan 1
▁text 1
uwatsu 1
▁rather 1
ends 1
▁Hon 1
▁dise 1
▁felt 1
▁reach 1
▁inweta 1
▁opportunity 1
dle 1
ted 1
lands 1
▁gini 1
▁salon 1
▁female 1
▁immedi 1
osen 1
▁Ngwa 1
▁Media 1
▁dogon 1
▁sacri 1
▁thousand 1
,, 1
▁Wom 1
enant 1
▁ịgwa 1
▁Elect 1
▁Matiu 1
▁Quest 1
▁ebere 1
▁kiwon 1
▁umarnin 1
akw 1
▁GỊ 1
▁il 1
ires 1
issa 1
▁emb 1
▁Cheta 1
▁subject 1
efu 1
put 1
▁70 1
kwem 1
▁Ask 1
▁den 1
▁mbọ 1
antly 1
▁Hausa 1
▁fiber 1
▁Friday 1
▁partic 1
▁Germany 1
▁onyeisi 1
▁shawarar 1
▁anw 1
▁Aids 1
▁baki 1
▁kanan 1
▁neighb 1
-5 1
unar 1
▁USB 1
▁Naanị 1
▁write 1
▁Matthew 1
ete 1
Then 1
▁janye 1
▁Church 1
▁HU 1
▁OT 1
▁196 1
▁500 1
▁sus 1
▁redu 1
▁baara 1
▁kasuwa 1
asọ 1
▁Ir 1
ayer 1
▁dam 1
▁siy 1
amụta 1
mkwem 1
▁almost 1
▁karatu 1
ZỌ 1
▁Tso 1
▁ịme 1
ahapụ 1
▁rejo 1
▁beautiful 1
▁@ 1
▁· 1
▁aw 1
▁ara 1
▁Sara 1
▁code 1
▁feed 1
▁field 1
▁prin 1
ificial 1
▁prayers 1
▁results 1
chọrọ 1
kokin 1
▁Dutsen 1
▁mention 1
▁enyemaka 1
▁understanding 1
mai 1
mon 1
▁cop 1
▁dand 1
▁multi 1
cription 1
▁European 1
▁commanded 1
:25 1
▁Ser 1
▁gwi 1
iling 1
▁raga 1
▁zasu 1
▁favor 1
▁lamba 1
ambling 1
▁message 1
▁laghachiri 1
RỤ 1
hia 1
▁zaa 1
belie 1
▁indic 1
▁separ 1
▁digiri 1
▁mama 1
▁priv 1
▁naghị 1
▁mgbaghara 1
▁Ful 1
▁web 1
rahim 1
▁cele 1
▁sand 1
zalika 1
▁ident 1
▁murab 1
0, 1
ays 1
lly 1
cked 1
though 1
▁arịrị 1
▁System 1
▁dogara 1
▁hundred 1
▁services 1
:23 1
don 1
▁oh 1
▁Red 1
▁Sur 1
fukan 1
▁akwụ 1
▁male 1
arorin 1
attara 1
▁conditions 1
▁Kat 1
▁sace 1
▁apost 1
ụn 1
rye 1
izim 1
eech 1
wute 1
▁moment 1
▁tsohon 1
ex 1
arịọ 1
▁Mach 1
▁pict 1
▁tuna 1
▁grant 1
▁Amazon 1
▁office 1
▁series 1
▁kananan 1
NYE 1
ply 1
▁Rem 1
▁Ter 1
ively 1
▁Mart 1
▁Thus 1
agbalị 1
▁ajiya 1
▁convers 1
▁í 1
lock 1
osing 1
▁gbaa 1
galaba 1
▁adadin 1
▁daughter 1
hua 1
▁ọm 1
▁rie 1
▁yes 1
▁Gold 1
▁hapụ 1
▁nkọwa 1
▁AL 1
oken 1
▁Nri 1
▁nkụ 1
▁ser 1
▁Imam 1
▁chee 1
▁kept 1
▁vict 1
▁mashah 1
▁College 1
▁promises 1
▁training 1
99 1
CC 1
Ha 1
:21 1
▁42 1
ender 1
uminum 1
▁audio 1
▁check 1
▁quickly 1
▁certainly 1
bol 1
ulu 1
▁Ọn 1
annu 1
▁Kore 1
▁mmụta 1
▁kyawun 1
▁Ibrahim 1
no 1
▁€ 1
jir 1
When 1
▁Cour 1
▁Lear 1
▁gaya 1
▁sight 1
▁replied 1
▁willing 1
ww 1
▁II 1
▁195 1
▁Bit 1
▁Met 1
▁dru 1
▁fad 1
▁2012 1
▁Ikpe 1
▁kewa 1
▁yanki 1
▁ịmụta 1
▁either 1
▁meaning 1
▁response 1
▁Ilu 1
▁cli 1
▁Give 1
▁hung 1
▁Jihar 1
▁decided 1
▁kwakwal 1
▁mmekọrịta 1
▁treatment 1
▁Gh 1
▁Gab 1
▁leg 1
▁opened 1
▁deliver 1
istration 1
▁kyakkyawan 1
imi 1
gers 1
▁efu 1
▁zar 1
atory 1
ilite 1
▁Were 1
▁Watch 1
▁focus 1
▁kasuwar 1
ebu 1
▁7. 1
back 1
tage 1
▁box 1
owing 1
▁Also 1
▁zaka 1
▁cewar 1
▁maima 1
▁obibi 1
aikacen 1
arkokin 1
erubere 1
▁Canada 1
▁surely 1
▁tashar 1
▁September 1
▁mahimmanci 1
▁AN 1
▁Ego 1
▁Hol 1
▁mir 1
▁rag 1
▁Open 1
ources 1
▁built 1
▁daily 1
▁karin 1
▁Before 1
▁tasiri 1
▁comfort 1
▁kammala 1
ening 1
▁fọrọ 1
▁nwụọ 1
▁wish 1
▁cross 1
▁tsada 1
▁evening 1
▁teaching 1
▁SI 1
acha 1
uses 1
▁Ali 1
▁Kan 1
▁alh 1
▁ess 1
▁front 1
▁users 1
▁Heaven 1
▁trying 1
▁Austral 1
▁bayanan 1
▁medical 1
▁nchekwa 1
▁mad 1
emere 1
ụtara 1
▁Data 1
order 1
▁road 1
▁judge 1
▁saukar 1
:26 1
▁op 1
esiri 1
urare 1
▁Neja 1
gharala 1
ization 1
▁forget 1
▁higher 1
▁contact 1
▁yourselves 1
wari 1
▁bott 1
▁Abuja 1
▁Akụkọ 1
▁Super 1
▁Tiles 1
▁Commun 1
▁agbanwe 1
ɗi 1
▁iy 1
dise 1
wers 1
▁Step 1
▁Tile 1
▁cibi 1
▁mota 1
▁pret 1
▁ọzụzụ 1
vin 1
▁below 1
▁Fulani 1
▁kariya 1
DA 1
RU 1
bers 1
▁Adv 1
▁Had 1
▁zur 1
▁York 1
▁econom 1
▁particular 1
EM 1
ikak 1
lead 1
▁pot 1
iyoyi 1
▁wait 1
▁model 1
▁towards 1
otes 1
▁kat 1
amasị 1
▁babbar 1
▁karfin 1
▁education 1
kay 1
weh 1
▁obu 1
▁swe 1
ushen 1
▁akpụ 1
▁avoid 1
▁dangane 1
▁instead 1
ix 1
Nke 1
ied 1
▁Ye 1
▁sugg 1
arraba 1
kwụnye 1
▁doctor 1
▁tallafin 1
ọdị 1
ores 1
oses 1
▁Huk 1
▁Wee 1
▁upd 1
hered 1
redit 1
▁Dire 1
gation 1
▁biyar 1
▁dabar 1
aikatan 1
▁cututt 1
▁likita 1
▁master 1
▁toward 1
▁karshen 1
▁mahadum 1
▁mberede 1
po 1
▁Ẹ 1
pro 1
▁gig 1
▁Masu 1
▁Nkwa 1
gbọghọ 1
▁mahai 1
▁customers 1
12 1
mahụ 1
▁Elu 1
▁Ima 1
oster 1
▁kụzi 1
▁France 1
▁casino 1
▁desire 1
▁simple 1
▁tarihi 1
▁Remember 1
▁personal 1
zy 1
▁q 1
▁Sọ 1
▁rụọ 1
▁Work 1
▁doub 1
▁tawa 1
asting 1
okwukwe 1
▁Service 1
▁achieve 1
▁littafin 1
▁prepared 1
IA 1
mọn 1
cies 1
anish 1
ọkịta 1
▁Gree 1
▁gbuo 1
▁held 1
orobịa 1
▁charge 1
▁further 1
▁kpọmkwem 1
IV 1
orrow 1
▁Swed 1
▁eight 1
▁mkpebi 1
▁tallace 1
▁creation 1
ique 1
oton 1
xbet 1
▁Wad 1
INEKE 1
▁tụrụ 1
▁range 1
▁yunwa 1
iku 1
por 1
▁Jen 1
▁bre 1
▁idea 1
▁ndọrọ 1
▁nkeji 1
▁kiyaye 1
▁weight 1
▁install 1
:0 1
▁Jere 1
▁none 1
▁Light 1
▁green 1
▁nghọta 1
▁nupụrụ 1
▁Atụmatụ 1
▁dukkanin 1
▁situation 1
vil 1
▁Cha 1
▁Fre 1
▁Pat 1
▁Gidan 1
edience 1
▁natural 1
▁Products 1
▁sir 1
▁door 1
ograph 1
▁consid 1
▁Muhammadu 1
ih 1
ajụ 1
ƙin 1
tụla 1
▁Mod 1
erved 1
▁lura 1
▁miss 1
▁sayar 1
▁enwere 1
▁presence 1
▁application 1
erc 1
▁om 1
ando 1
▁Mot 1
▁jụọ 1
▁Only 1
▁deep 1
▁load 1
▁bukata 1
▁sister 1
▁request 1
▁gilashin 1
▁nkà 1
▁Chin 1
▁Host 1
▁ngwá 1
▁signs 1
▁Custom 1
▁£ 1
gbụ 1
empt 1
▁Two 1
▁mic 1
▁ogb 1
▁Conf 1
▁total 1
▁comment 1
▁introdu 1
▁believers 1
▁resurrection 1
enu 1
ịlụ 1
▁HA 1
▁Ig 1
▁Yi 1
fety 1
itor 1
race 1
▁Lat 1
▁kud 1
▁via 1
▁shan 1
▁yasa 1
▁garga 1
▁nwata 1
▁Office 1
▁chosen 1
▁bụrụkwa 1
▁kwanaki 1
▁surface 1
8, 1
▁dar 1
▁safe 1
Marble 1
▁devil 1
▁drive 1
▁nkume 1
▁Manufa 1
▁button 1
velation 1
▁learned 1
▁Tri 1
▁bak 1
▁gam 1
atawa 1
urori 1
▁alka 1
▁ịrịba 1
▁announ 1
▁feeling 1
ufi 1
aics 1
arant 1
▁mita 1
▁Israelites 1
unt 1
▁AB 1
know 1
▁dun 1
asons 1
▁Bank 1
▁Like 1
▁kpọọ 1
▁Sinks 1
▁mosaics 1
6, 1
ofer 1
▁Dem 1
▁Ger 1
▁Kya 1
▁gan 1
▁kur 1
ziaka 1
amaghị 1
▁zauna 1
▁ịmata 1
▁format 1
▁CHINEKE 1
▁manufacturer 1
ml 1
ald 1
faf 1
▁Est 1
▁lar 1
▁Wani 1
▁expl 1
verage 1
▁thinking 1
▁mashahuri 1
▁Nye 1
▁Web 1
▁Mult 1
▁akwu 1
▁lala 1
etinye 1
isions 1
▁raised 1
▁agbọghọ 1
xic 1
▁YA 1
coin 1
▁Hum 1
▁exc 1
▁kalm 1
▁Group 1
▁Download 1
▁internet 1
▁gbagharala 1
ns 1
abta 1
enty 1
▁Ngw 1
▁Som 1
▁ido 1
▁oche 1
▁town 1
▁ahead 1
▁condu 1
▁gabata 1
▁places 1
ological 1
▁akwatin 1
▁counter 1
?"+ 1
dep 1
▁Ass 1
▁Alex 1
▁Gumi 1
edom 1
▁Nwe 1
▁thank 1
▁ahụkwa 1
▁achọghị 1
▁nwetara 1
▁reading 1
▁Kamfanin 1
OW 1
ọkụ 1
▁IP 1
rest 1
adịrị 1
▁fita 1
▁prob 1
▁surpr 1
▁asusun 1
▁rubutu 1
%. 1
▁44 1
▁kn 1
▁Sil 1
▁kpa 1
▁zun 1
▁asib 1
▁biyan 1
▁weeks 1
▁Duniya 1
▁gasịrị 1
▁mgbasa 1
▁Ekwensu 1
▁effects 1
▁function 1
No 1
▁00 1
▁Taa 1
▁emi 1
ewere 1
utara 1
iction 1
inihin 1
▁cinye 1
▁! 1
GHA 1
cel 1
hel 1
iyu 1
▁lea 1
▁Nove 1
▁Rasha 1
▁ziyar 1
amalite 1
▁Tsohon 1
▁rawaya 1
▁general 1
▁Nijeriya 1
▁Artificial 1
▁Isaac 1
▁hadin 1
▁koyar 1
kwasịrị 1
▁descri 1
▁foreign 1
▁knowing 1
▁similar 1
▁Jonathan 1
▁greatest 1
ushi 1
vani 1
▁Rec 1
▁Sen 1
phone 1
▁rụrụ 1
▁thus 1
▁shows 1
▁Russian 1
▁Australia 1
▁Loc 1
▁http 1
▁instru 1
▁prison 1
▁source 1
▁Enweghị 1
▁enemies 1
fied 1
haps 1
▁Mid 1
urịta 1
▁Coun 1
ension 1
▁shawo 1
▁offers 1
tainless 1
mo 1
▁Iv 1
ụghọ 1
itory 1
▁shah 1
▁lived 1
▁satis 1
▁sulhu 1
▁teacher 1
▁therein 1
▁authority 1
lt 1
sal 1
▁dõ 1
yyar 1
▁ord 1
▁Cikak 1
▁kinds 1
▁sense 1
▁condition 1
▁majalisar 1
wh 1
kun 1
▁Tren 1
▁wato 1
anning 1
▁nhazi 1
▁Eziokwu 1
▁immediately 1
▁● 1
▁PR 1
▁Zam 1
▁apụ 1
ondon 1
ronic 1
▁Onwe 1
▁ọkwa 1
▁Speak 1
▁lalle 1
▁mesịa 1
▁shaida 1
▁gụnyere 1
▁Institute 1
MS 1
▁jụ 1
ears 1
inin 1
▁alam 1
▁kunn 1
▁mint 1
▁stra 1
abụkwa 1
uraren 1
urorin 1
▁Design 1
▁outside 1
▁cy 1
▁iru 1
▁baƙi 1
▁hara 1
▁seri 1
▁Those 1
▁ekwentị 1
▁fassara 1
▁hatsari 1
40 1
pper 1
▁Mem 1
▁Val 1
▁nrọ 1
▁gama 1
▁party 1
▁Paradaịs 1
VID 1
doro 1
inku 1
▁Flo 1
▁MGB 1
ciety 1
ospel 1
▁mezu 1
▁Right 1
▁excell 1
▁recogn 1
▁project 1
▁running 1
▁concerning 1
Nna 1
▁Id 1
▁LED 1
alata 1
ikwuu 1
rough 1
▁Sign 1
▁summ 1
▁aminci 1
▁Chinyere 1
]. 1
▁tọ 1
▁Rub 1
▁improve 1
▁matsaka 1
▁specification 1
tak 1
▁DA 1
hapụ 1
▁ghọọ 1
▁hang 1
▁muke 1
ananan 1
uments 1
▁smart 1
▁super 1
▁spoken 1
▁exactly 1
▁provided 1
▁Department 1
Ònye 1
▁Cho 1
▁Anyi 1
▁wise 1
▁inher 1
▁Yahweh 1
▁events 1
▁Kwesịrị 1
▁rubutun 1
ppy 1
▁Ho 1
yoyi 1
zuru 1
▁Mgb 1
cknow 1
▁Back 1
▁Resp 1
▁dake 1
▁mutu 1
▁ƙarfi 1
▁kwarewa 1
▁November 1
TH 1
Don 1
▁RE 1
▁nje 1
▁rab 1
▁hell 1
▁Which 1
▁exper 1
▁honor 1
▁techn 1
▁tells 1
▁changes 1
▁represent 1
▁translation 1
oti 1
▁300 1
▁pow 1
light 1
▁activ 1
▁Isaiah 1
ãn 1
www 1
▁Game 1
▁Jiri 1
▁fada 1
▁goma 1
▁pros 1
▁Categ 1
▁Earth 1
▁Trump 1
▁mmekọ 1
▁wrote 1
▁Sunday 1
▁itself 1
▁talking 1
▁Nwachukwu 1
gree 1
ller 1
▁ọha 1
▁mada 1
▁skin 1
▁filin 1
olesale 1
▁chance 1
▁display 1
▁shawara 1
▁kazalika 1
▁powerful 1
▁Kasuwancin 1
HỤ 1
▁ep 1
alar 1
inka 1
▁Uru 1
▁inn 1
alaka 1
▁agụụ 1
▁occur 1
▁Mallam 1
▁celebr 1
▁member 1
▁ngwaọrụ 1
▁suffering 1
▁established 1
rect 1
▁kom 1
▁Fore 1
▁Mkpa 1
▁fail 1
▁speaking 1
IP 1
▁daɗ 1
▁kpam 1
ipment 1
▁types 1
▁Family 1
▁Lafiya 1
▁London 1
▁dọkịta 1
▁prevent 1
ii 1
cher 1
▁Ọnụ 1
arkar 1
assan 1
▁Full 1
▁nway 1
arihin 1
ouches 1
ikpeazụ 1
▁baptizim 1
▁president 1
6) 1
net 1
▁Hà 1
▁191 1
▁Use 1
▁film 1
▁tube 1
▁Ịgba 1
▁initi 1
▁Review 1
▁simply 1
▁Spanish 1
▁mbilite 1
▁suggest 1
▁gbaghara 1
▁solution 1
▁taimakawa 1
▁um 1
,... 1
▁mem 1
anies 1
anner 1
umber 1
▁local 1
▁issues 1
▁passed 1
▁Instead 1
▁accompl 1
▁sinners 1
▁required 1
▁returned 1
-8 1
imma 1
▁Gas 1
ambobin 1
▁behold 1
▁church 1
▁darajar 1
DỤ 1
reet 1
▁Ele 1
▁Heb 1
▁ize 1
▁kau 1
▁rich 1
▁canja 1
▁laser 1
▁compet 1
▁plugin 1
▁sitere 1
▁ghọtara 1
▁Gwamnoni 1
▁Technology 1
hiri 1
▁dwe 1
itary 1
jejen 1
▁Ebee 1
ourney 1
▁famfo 1
▁Advert 1
▁cities 1
▁aghụghọ 1
▁sakamako 1
▁Cy 1
▁Nne 1
▁Old 1
▁gri 1
▁tsanani 1
▁kwanduna 1
▁tsakiyar 1
zil 1
▁1: 1
salm 1
▁ịgụ 1
▁mamaki 1
▁praise 1
▁select 1
▁matakan 1
EE 1
Lee 1
ich 1
pir 1
agha 1
▁ata 1
▁rob 1
ching 1
gency 1
▁role 1
▁banye 1
▁percent 1
▁shafukan 1
▁sometimes 1
▁statement 1
▁Mah 1
▁ewe 1
▁iso 1
▁aids 1
▁card 1
▁mụta 1
▁yaya 1
▁fadin 1
▁chọpụta 1
▁include 1
▁particip 1
▁Education 1
kà 1
hil 1
que 1
rad 1
▁Gaa 1
▁Hak 1
▁Pet 1
▁desc 1
▁batun 1
Chineke 1
▁ensure 1
▁interp 1
wul 1
▁2: 1
▁Hi 1
cast 1
vere 1
▁Sọl 1
▁neg 1
▁Cong 1
▁books 1
▁ngosi 1
▁punish 1
▁environment 1
:32 1
▁.. 1
▁Kr 1
▁ON 1
egwu 1
hern 1
itis 1
▁Mer 1
▁Sak 1
▁Judah 1
▁review 1
▁Company 1
MP 1
▁SA 1
▁ho 1
chite 1
harma 1
▁viol 1
▁common 1
▁ability 1
jan 1
uty 1
hood 1
▁Rev 1
otion 1
▁Mata 1
▁gets 1
▁gods 1
▁zaku 1
▁azịza 1
▁kadan 1
▁mgbapụta 1
lị 1
▁Hany 1
▁gine 1
▁kake 1
▁wuya 1
▁While 1
▁wills 1
▁amince 1
▁congre 1
▁dacewa 1
▁related 1
asinjojin 1
hụụ 1
more 1
▁Afọ 1
▁added 1
▁false 1
▁fuska 1
▁speed 1
▁helped 1
▁mụtara 1
▁shugab 1
▁zuciya 1
▁trouble 1
app 1
àmà 1
wise 1
▁pen 1
▁disp 1
▁phys 1
▁sara 1
ashing 1
atives 1
▁acknow 1
▁asking 1
▁commit 1
▁faruwa 1
▁Jagororin 1
▁< 1
▁Od 1
list 1
sequ 1
idence 1
▁gwamnati 1
▁protection 1
:24 1
▁fir 1
▁gat 1
aster 1
▁Real 1
▁magantu 1
▁gambling 1
bn 1
vey 1
▁cam 1
▁zin 1
▁ịnụ 1
▁Call 1
▁kuke 1
▁Since 1
▁gaara 1
▁major 1
▁nwanyi 1
▁advanta 1
▁maganin 1
ɓa 1
Con 1
ops 1
▁Sad 1
▁maf 1
▁band 1
▁heat 1
▁sick 1
▁paper 1
▁gigice 1
▁Kasuwanci 1
▁cibiyoyin 1
alu 1
kọrọ 1
▁aro 1
▁crow 1
▁emer 1
ibrary 1
▁brand 1
▁ƙasar 1
▁Center 1
▁device 1
▁Develop 1
▁marmara 1
▁covenant 1
ocr 1
mama 1
▁inj 1
ridge 1
tọala 1
▁agre 1
othing 1
▁hapụrụ 1
▁wealth 1
▁ainihin 1
▁okpukpe 1
-- 1
edo 1
RIWA 1
aben 1
▁ton 1
ength 1
hụnanya 1
OP 1
▁ṅ 1
▁BA 1
tala 1
▁jur 1
antin 1
uguda 1
▁Fran 1
▁dece 1
▁layi 1
▁HURIWA 1
▁Yuguda 1
▁matasa 1
▁thanks 1
▁believed 1
▁kasancewa 1
ahú 1
▁tu 1
▁vol 1
▁addu 1
▁atụla 1
▁datta 1
▁jikin 1
▁plant 1
▁achịcha 1
▁ngalaba 1
▁nnyocha 1
▁tunanin 1
▁salvation 1
▁Fasinjojin 1
ɗa 1
alịa 1
inst 1
▁Emp 1
▁cult 1
▁join 1
▁names 1
▁purch 1
▁terms 1
▁ọbụla 1
▁Indeed 1
akpọlite 1
▁Government 1
LC 1
kets 1
▁Pen 1
▁haɓ 1
jista 1
▁West 1
▁dõmin 1
aikatar 1
▁siyasa 1
▁speech 1
▁possess 1
▁zi 1
▁End 1
▁Exp 1
▁fee 1
enced 1
▁hali 1
▁jaka 1
▁weak 1
▁agadi 1
▁writing 1
▁Research 1
▁applications 1
▁Po 1
door 1
▁chị 1
▁pat 1
▁cire 1
achara 1
tained 1
▁Check 1
▁Green 1
▁admin 1
▁kaadị 1
▁filled 1
▁located 1
▁nzọụkwụ 1
cho 1
zụga 1
▁Big 1
▁Que 1
▁Prin 1
▁seed 1
▁secret 1
▁ịghọta 1
▁gidajen 1
▁computer 1
▁reported 1
500 1
bes 1
fai 1
yen 1
▁Abdu 1
▁agwụ 1
▁Spain 1
▁slave 1
azọpụta 1
▁Author 1
▁inherit 1
▁takarda 1
▁kwamfuta 1
emi 1
ụntụ 1
▁Kad 1
▁Ole 1
▁Tru 1
▁Wed 1
▁hom 1
▁horo 1
ishing 1
▁August 1
▁lambar 1
▁remain 1
▁rights 1
▁ụkpụrụ 1
▁automat 1
▁construction 1
)? 1
▁CB 1
▁Ik 1
▁li 1
▁(2) 1
▁MMA 1
▁bal 1
▁gef 1
▁Tupu 1
▁bauta 1
▁Et 1
▁Gụọ 1
▁bul 1
▁cri 1
▁hit 1
asụsụ 1
essel 1
▁East 1
▁Juda 1
▁Ogbu 1
▁anal 1
▁mgbu 1
icient 1
▁Money 1
▁rauni 1
agbanwe 1
▁threat 1
▁wajibi 1
▁wezụga 1
▁disease 1
▁fathers 1
▁benefits 1
▁progress 1
CA 1
▁° 1
ica 1
▁dí 1
ọnwa 1
wokwa 1
▁abun 1
▁gawa 1
▁hudu 1
▁Court 1
▁broken 1
▁temper 1
▁increase 1
▁AD 1
adio 1
oolu 1
vior 1
▁ụda 1
wanye 1
▁Note 1
▁dali 1
▁rasa 1
▁taro 1
▁ọhịa 1
▁hourly 1
▁nchịkọta 1
ox 1
▁ƙa 1
▁10. 1
rican 1
▁Dang 1
▁Gida 1
▁task 1
▁yiwu 1
gbụgba 1
sembly 1
▁wayar 1
▁across 1
▁damuwa 1
▁agaghịkwa 1
xi 1
fta 1
zer 1
ague 1
▁Adị 1
▁Wal 1
▁hat 1
▁idi 1
akari 1
arịta 1
▁Priv 1
▁Wasu 1
▁firm 1
▁ghọrọ 1
▁kunna 1
▁rịọrọ 1
▁sauya 1
▁inside 1
▁zọpụta 1
▁answers 1
▁fitarwa 1
5% 1
waa 1
▁Aị 1
ifts 1
▁pee 1
▁feet 1
▁yank 1
depend 1
ọọment 1
▁Steel 1
▁shigo 1
▁ịzụta 1
▁Joshua 1
▁Science 1
▁welcome 1
▁gaghịkwa 1
▁Dri 1
▁oma 1
▁Babu 1
▁Care 1
▁panel 1
▁spend 1
▁itoolu 1
▁tushen 1
▁wurare 1
▁features 1
); 1
▁mã 1
oted 1
▁400 1
▁2011 1
▁beha 1
▁nice 1
▁rate 1
▁Arewa 1
▁Water 1
▁ciyar 1
▁During 1
▁nkwado 1
▁nwayọọ 1
▁scient 1
▁measure 1
leadership 1
▁establish 1
bit 1
owed 1
ults 1
▁eas 1
▁Brit 1
▁hair 1
▁lord 1
▁risk 1
▁tour 1
nyeere 1
▁Solar 1
▁ciwon 1
▁German 1
▁Korona 1
▁caused 1
▁itinye 1
▁Hukumar 1
▁girmama 1
▁matsayi 1
▁tarayya 1
▁darkness 1
mdi 1
usi 1
▁Ep 1
▁OF 1
naya 1
ulty 1
▁Hib 1
▁Ogb 1
▁Ori 1
▁guz 1
▁Kuna 1
abụghị 1
assion 1
isters 1
▁enweta 1
▁nauyin 1
▁tawagar 1
▁ịgbanwe 1
wordpress 1
▁thoughts 1
Sa 1
mụọ 1
ryen 1
▁Vir 1
▁mpa 1
▁adop 1
▁blind 1
asọpụrụ 1
▁Banyere 1
▁Nwaanyị 1
▁followed 1
fụ 1
▁Tụ 1
chan 1
▁dro 1
▁fla 1
▁zuk 1
inian 1
ouses 1
▁coun 1
ambaya 1
▁fagen 1
▁Muslim 1
▁reject 1
▁ahụmahụ 1
▁electric 1
▁international 1
kind 1
rial 1
▁Fac 1
▁Kim 1
▁Van 1
▁fili 1
▁Chọrọ 1
▁floor 1
▁nature 1
▁player 1
▁pretty 1
▁murabus 1
▁security 1
11 1
CT 1
oshi 1
▁Bri 1
▁Mil 1
ctors 1
ropri 1
yịnya 1
▁File 1
▁sett 1
itution 1
▁Public 1
▁nasarar 1
▁tasirin 1
▁gathered 1
▁offering 1
▁previous 1
ls 1
▁bud 1
▁Ahịa 1
▁Prom 1
▁gudu 1
▁kirk 1
▁zaɓi 1
▁sheep 1
▁determin 1
ipe 1
owa 1
oned 1
▁uwa 1
Atụla 1
Lingo 1
esonụ 1
▁jide 1
▁mace 1
▁action 1
▁priest 1
▁Islamic 1
▁daughters 1
hy 1
ọt 1
▁NW 1
asan 1
▁gụọ 1
▁lai 1
icine 1
wayon 1
▁hade 1
▁mill 1
▁nuni 1
istant 1
▁Bless 1
▁Krist 1
▁refer 1
▁Person 1
▁daɗewa 1
▁garden 1
▁ilimin 1
▁General 1
▁fayiloli 1
▁probably 1
:30 1
▁8. 1
▁Nt 1
▁qual 1
▁sword 1
▁tebur 1
▁tried 1
ilities 1
▁honest 1
▁matukar 1
ena 1
ịka 1
ival 1
▁fill 1
▁star 1
▁imani 1
▁youth 1
▁cutting 1
▁kwallon 1
80 1
▁CN 1
anto 1
▁Ada 1
▁vid 1
▁ókè 1
▁Luke 1
▁ịkwụ 1
istics 1
▁ƙarin 1
vention 1
▁Leadership 1
VC 1
▁И 1
=5. 1
laị 1
lip 1
ubo 1
▁Ez 1
▁WH 1
▁òtù 1
rogen 1
▁Help 1
▁Mara 1
▁file 1
▁goal 1
▁ahapụ 1
▁Master 1
▁gather 1
▁rejoice 1
▁bathroom 1
▁pressure 1
▁committed 1
▁completely 1
IF 1
amm 1
▁GB 1
fest 1
▁Den 1
▁JIN 1
▁Zan 1
▁cra 1
arshe 1
▁ònye 1
▁ɓang 1
atform 1
▁store 1
▁Associ 1
▁looked 1
▁temple 1
▁Himself 1
▁gargajiya 1
▁kwakwalwa 1
▁materials 1
sì 1
uro 1
amai 1
chle 1
▁kari 1
▁laun 1
arning 1
▁nzuzo 1
▁enyere 1
▁haɗewa 1
▁fulfill 1
▁justice 1
пр 1
▁150 1
▁Kit 1
▁Nde 1
▁Ndu 1
ivery 1
limin 1
▁Acts 1
▁Haka 1
▁wide 1
▁Nweta 1
▁breat 1
▁fatan 1
▁professional 1
-7 1
бо 1
гбо 1
▁rọ 1
irka 1
▁kab 1
▁sie 1
▁gain 1
▁Игбо 1
▁COVID 1
▁force 1
▁ghọta 1
▁nkiri 1
▁siffo 1
▁Mother 1
▁Nsogbu 1
▁window 1
PA 1
isha 1
▁Tas 1
▁lok 1
Where 1
▁Ekwe 1
▁Women 1
▁fully 1
▁tsare 1
▁guarant 1
▁hanyoyi 1
▁Abubakar 1
▁2) 1
ensị 1
▁Lim 1
cover 1
imate 1
mputa 1
▁Họrọ 1
▁juna 1
▁tool 1
▁wine 1
menala 1
▁Found 1
▁Never 1
▁gwada 1
▁lalata 1
▁Federal 1
▁benefit 1
▁hoputara 1
▁Management 1
CE 1
ав 1
▁jọ 1
oper 1
▁Bas 1
round 1
▁coll 1
▁paid 1
abanye 1
▁sanyi 1
shiryen 1
▁leaders 1
▁nazarin 1
ua 1
ит 1
olf 1
▁46 1
ayya 1
▁Key 1
alaxy 1
uncin 1
▁Click 1
▁files 1
▁gwiwa 1
▁micro 1
▁ọkara 1
▁Second 1
▁watanni 1
▁mpaghara 1
arewasound 1
▁character 1
▁difference 1
esh 1
ogi 1
▁Kh 1
▁od 1
▁cell 1
▁desp 1
▁haɗu 1
▁juru 1
▁named 1
▁compla 1
▁courage 1
▁kwalban 1
▁signific 1
inu 1
udo 1
▁UN 1
▁ṅụ 1
aign 1
file 1
kure 1
uche 1
agara 1
▁Fire 1
▁lies 1
▁warn 1
▁apply 1
▁deliv 1
▁minti 1
▁ọṅụṅụ 1
▁Wholesale 1
▁WorldLingo 1
-0 1
UN 1
▁Ing 1
▁MGBE 1
▁echi 1
▁court 1
▁print 1
▁associ 1
▁eleghị 1
▁kwarar 1
▁obiọma 1
▁sports 1
▁danganta 1
▁Gwamnatin 1
▁Ikechukwu 1
cis 1
ить 1
▁ij 1
orge 1
▁Mel 1
esite 1
▁kwat 1
ganihu 1
▁egosi 1
▁influ 1
▁round 1
anọgide 1
▁Ekpere 1
▁Machine 1
6.1 1
GHỊ 1
rik 1
прав 1
▁CSO 1
▁Tak 1
▁gal 1
▁ony 1
▁fusk 1
▁mart 1
shirye 1
▁board 1
править 1
▁Manzon 1
▁spread 1
▁Special 1
▁kpebiri 1
ake 1
▁EU 1
kakin 1
karịa 1
▁Diff 1
▁Build 1
▁lissa 1
▁staff 1
▁consum 1
▁energy 1
▁provides 1
▁Manufacturer 1
ium 1
mna 1
▁3, 1
▁AS 1
▁oy 1
owar 1
cuted 1
gidere 1
▁maida 1
▁daukar 1
▁ƙarfin 1
▁wuraren 1
▁blessings 1
lit 1
set 1
▁fat 1
▁fet 1
▁mụọ 1
▁nka 1
umike 1
▁họrọ 1
▁Party 1
▁areas 1
▁aware 1
▁gashi 1
▁verse 1
▁affect 1
▁African 1
▁becomes 1
▁magance 1
ãwa 1
▁55 1
▁Fir 1
antun 1
▁fell 1
▁Think 1
▁click 1
▁faịlụ 1
▁iyaka 1
▁Wadannan 1
▁learning 1
▁community 1
▁generation 1
Go 1
EME 1
asụ 1
▁". 1
▁lif 1
Jesus 1
▁"... 1
▁ịkwa 1
▁Union 1
▁designed 1
▁marketing 1
▁performance 1
26 1
St 1
ez 1
draw 1
oker 1
▁ign 1
▁tax 1
alian 1
▁diam 1
▁haih 1
▁sink 1
▁họọrọ 1
▁marry 1
▁motsa 1
▁mulkin 1
▁ndịozi 1
▁wouldn 1
▁anụmanụ 1
ec 1
▁KW 1
▁Lot 1
▁rap 1
aries 1
itate 1
▁Ekwu 1
▁hoto 1
▁riri 1
▁shop 1
astics 1
▁Truth 1
▁wives 1
akụziri 1
▁Sarkin 1
▁battle 1
▁buƙatar 1
▁explain 1
▁appointed 1
ãni 1
▁193 1
▁Bat 1
▁Lag 1
▁doc 1
▁Bang 1
▁saya 1
▁Jamus 1
▁Three 1
▁gefen 1
itional 1
▁collect 1
▁haihuwa 1
▁harshen 1
▁matsala 1
▁bịakwute 1
GA 1
VD 1
:27 1
GHAO 1
chen 1
▁Team 1
▁Type 1
▁Audio 1
▁tarihin 1
▁standing 1
▁delivered 1
24 1
▁DỊ 1
zuzu 1
▁Cur 1
▁lose 1
garanya 1
▁Brazil 1
▁JINGHAO 1
▁Support 1
▁PCB 1
▁dra 1
lọmọn 1
olume 1
▁bilie 1
▁ihere 1
▁mwute 1
ression 1
▁kewaye 1
▁remind 1
▁covered 1
▁gbanwee 1
▁congregation 1
bl 1
gon 1
▁kpo 1
▁nnọ 1
kiyar 1
oting 1
▁Need 1
▁Tara 1
▁mani 1
▁tere 1
chịkwa 1
▁cimma 1
▁circum 1
▁regular 1
▁sauraron 1
▁Ev 1
eness 1
mical 1
▁dika 1
▁tren 1
▁Angel 1
▁bawul 1
▁gwaji 1
▁older 1
▁Kpọtụrụ 1
▁Sọlọmọn 1
▁correct 1
90 1
▁Dig 1
▁Tom 1
▁tur 1
urely 1
▁Stop 1
▁Yahu 1
▁Prote 1
▁lashe 1
▁tabba 1
▁haɓaka 1
▁photos 1
▁suffer 1
▁dattawa 1
▁salonka 1
▁gbanwere 1
5) 1
?? 1
aso 1
las 1
▁(3 1
dden 1
itan 1
built 1
ilies 1
oshin 1
ouple 1
▁Come 1
▁Mgba 1
▁Once 1
▁hast 1
▁seem 1
▁Mmiri 1
▁Press 1
▁Follow 1
▁Galaxy 1
▁Another 1
▁offered 1
▁ofishin 1
▁governor 1
▁multiple 1
▁Advertise 1
DM 1
ọm 1
bal 1
ier 1
ula 1
whi 1
▁3) 1
▁3: 1
▁ky 1
▁gun 1
ụtụtụ 1
▁lụrụ 1
change 1
▁enemy 1
▁Duwatsu 1
▁efforts 1
▁eternal 1
▁maganar 1
▁bayyanar 1
▁involved 1
zik 1
▁AT 1
take 1
▁jig 1
▁pas 1
kenke 1
▁Lamb 1
▁Nwan 1
▁Peace 1
▁ozizi 1
▁anytime 1
ewu 1
udi 1
▁AM 1
▁rẹ 1
▁Kir 1
▁Put 1
▁haƙ 1
▁ịsị 1
▁Samf 1
▁block 1
▁maybe 1
▁unique 1
▁bayanin 1
▁baptized 1
▁considered 1
Je 1
fawa 1
▁Bur 1
▁Jar 1
▁Mor 1
▁taf 1
▁ụkọ 1
▁dubu 1
▁fama 1
▁hira 1
▁danna 1
▁divor 1
gharịrị 1
▁apụghị 1
▁letter 1
▁musulmi 1
▁tinyere 1
▁customer 1
▁kamfanoni 1
?, 1
má 1
▁Ef 1
▁lọ 1
aghọ 1
▁efe 1
▁kid 1
▁Hand 1
▁Land 1
▁horm 1
▁manu 1
▁ƙara 1
▁glass 1
▁photo 1
▁leader 1
▁mmekọahụ 1
?' 1
EL 1
fl 1
ell 1
Ùnu 1
▁kẹ 1
ades 1
ysis 1
zari 1
▁Ans 1
▁Ext 1
▁Gud 1
▁USA 1
▁kaf 1
▁norm 1
▁papa 1
▁rise 1
▁seems 1
▁History 1
▁kwadoro 1
▁ịmalite 1
▁maimakon 1
wal 1
▁Hy 1
▁NE 1
arku 1
bere 1
▁Vis 1
▁fif 1
▁hea 1
Allah 1
▁Camp 1
▁kanta 1
▁stero 1
▁stuff 1
▁wacce 1
aimakin 1
▁Academ 1
▁Mobile 1
▁interpret 1
▁languages 1
nyị 1
achụ 1
gawa 1
odin 1
▁Moh 1
▁rịọ 1
▁twe 1
▁ɗan 1
▁ịkụ 1
ental 1
▁Asia 1
▁Shar 1
▁ball 1
▁jari 1
▁rike 1
▁arịrịọ 1
▁karfafa 1
▁release 1
▁taimake 1
▁Christmas 1
▁amaghịkwa 1
▁] 1
▁4, 1
attu 1
osis 1
▁uju 1
▁flow 1
▁pick 1
▁term 1
▁Korea 1
▁anger 1
▁chief 1
▁kwana 1
▁loves 1
▁midst 1
▁sanin 1
ography 1
▁Council 1
▁allowed 1
▁betting 1
▁sacrifice 1
bid 1
▁1) 1
▁Cap 1
▁Way 1
▁Cath 1
▁harm 1
▁kame 1
▁ojii 1
▁Board 1
▁Trust 1
▁basis 1
▁cases 1
▁garin 1
▁kiran 1
ọdịnihu 1
▁Engine 1
▁attack 1
▁integr 1
▁tsarka 1
▁ịnweta 1
:29 1
Luk 1
jah 1
iland 1
urday 1
▁Umar 1
▁note 1
ospital 1
▁bututu 1
▁juriya 1
▁aluminum 1
▁okorobịa 1
▁excellent 1
To 1
ker 1
▁SS 1
▁Ban 1
▁Bul 1
▁hau 1
▁2009 1
▁Arab 1
▁pump 1
▁alive 1
▁gasar 1
▁Kaduna 1
▁sudden 1
▁Through 1
▁projects 1
▁yawancin 1
fuo 1
ours 1
wide 1
▁bes 1
ables 1
ograp 1
ọtụtụ 1
▁acqu 1
▁century 1
▁companies 1
▁collection 1
▁AP 1
▁Ugo 1
▁ule 1
izing 1
jital 1
mitin 1
orial 1
zzabi 1
▁enga 1
=5.6.1 1
adịkwa 1
ekpebi 1
fortun 1
▁Niile 1
▁Their 1
▁doubt 1
▁kwụrụ 1
▁lafiyar 1
▁sabuwar 1
▁published 1
han 1
ums 1
▁Tha 1
▁fai 1
▁igbo 1
▁sens 1
▁wepụ 1
▁throw 1
▁Listen 1
▁Monday 1
▁Number 1
▁Vessel 1
▁ịkpọrọ 1
▁sayensị 1
▁ọgbụgba 1
▁Children 1
rs 1
uel 1
iman 1
ints 1
▁Fear 1
▁evid 1
▁fund 1
▁jawa 1
▁mini 1
▁tempt 1
atalyst 1
▁object 1
▁placed 1
▁states 1
▁Cikakke 1
▁Saturday 1
LS 1
:31 1
joji 1
ogin 1
▁IKE 1
▁Tai 1
▁dim 1
istic 1
▁sche 1
▁tọrọ 1
▁ideas 1
▁zafin 1
▁dakatar 1
▁Plastics 1
▁comments 1
▁political 1
▁Mb 1
aden 1
brag 1
oups 1
resh 1
▁Gba 1
▁Naị 1
ayoyi 1
▁dred 1
▁agree 1
▁sauƙi 1
▁degree 1
▁Isiokwu 1
▁jiragen 1
▁bangaren 1
▁blessing 1
▁structure 1
8) 1
TS 1
obe 1
yal 1
▁Fi 1
▁Sw 1
onst 1
wood 1
▁iju 1
atụle 1
barka 1
rated 1
▁Tele 1
▁hars 1
▁link 1
▁mark 1
▁capac 1
▁moved 1
▁mulki 1
▁shown 1
▁appeared 1
▁makamashi 1
RỊ 1
unu 1
▁Ak 1
hova 1
▁oku 1
▁ɗin 1
▁ịṅụ 1
▁2000 1
▁Easy 1
▁guid 1
chịchị 1
▁Aịzik 1
▁Enter 1
▁angry 1
▁exerc 1
▁stood 1
▁kullun 1
▁Scriptures 1
-10 1
▁Cr 1
▁WE 1
anti 1
▁bata 1
▁educ 1
▁tele 1
echeta 1
▁komai 1
jection 1
▁Portug 1
▁daraja 1
▁released 1
▁Commission 1
13 1
èz 1
iro 1
lai 1
maya 1
rupt 1
▁Live 1
▁Sams 1
▁moto 1
ekwusa 1
▁Games 1
▁Learn 1
▁Yawan 1
▁ajiye 1
▁motsi 1
▁stars 1
▁vision 1
▁hosting 1
▁journey 1
▁decoration 1
hun 1
itar 1
lies 1
pher 1
istor 1
▁Born 1
▁Tell 1
▁bari 1
ensive 1
▁Apost 1
▁juyin 1
▁Stones 1
▁dubawa 1
▁merenụ 1
▁Kakakin 1
▁akaụntụ 1
▁careful 1
kwekọrịta 1
▁shugabannin 1
Re 1
off 1
▁Cre 1
▁Tem 1
▁fac 1
▁jan 1
yayya 1
agụkwa 1
▁Leave 1
▁realize 1
▁ịnyịnya 1
agbaghara 1
▁destroyed 1
▁equipment 1
OV 1
ule 1
▁Ay 1
▁Jun 1
▁2008 1
▁ONYE 1
▁organ 1
▁Onyeka 1
▁credit 1
▁yaushe 1
standing 1
▁payment 1
▁reasons 1
▁practice 1
▁throughout 1
CS 1
rar 1
▁$1 1
kiri 1
mark 1
then 1
year 1
▁Jew 1
▁ọkà 1
erous 1
rency 1
▁NDDC 1
▁Pụrụ 1
▁Sabb 1
cturing 1
▁silver 1
▁digital 1
▁suitable 1
▁continued 1
▁effective 1
▁cututtukan 1
-6 1
ST 1
èzí 1
daga 1
▁Abi 1
▁Mbụ 1
▁Sov 1
▁ikw 1
▁muh 1
▁lift 1
ressed 1
▁Langu 1
▁Multi 1
▁amara 1
▁stock 1
▁omenala 1
▁prosper 1
▁kamfanonin 1
Dị 1
rog 1
kpam 1
with 1
▁AKA 1
▁Inf 1
▁Non 1
▁OTÚ 1
▁ant 1
▁ede 1
▁zag 1
chael 1
ọnọdụ 1
▁Last 1
▁doll 1
▁nada 1
▁sune 1
▁piece 1
ception 1
echegbu 1
▁Policy 1
▁asarar 1
▁halitt 1
▁bangare 1
▁Ubangijin 1
▁interested 1
:34 1
ọsh 1
▁Ki 1
▁hol 1
▁oyi 1
range 1
▁Anti 1
ancial 1
▁Color 1
▁guard 1
emepụta 1
▁square 1
▁rahoton 1
▁injiniya 1
iny 1
oms 1
uko 1
▁9. 1
▁Ur 1
▁eh 1
madu 1
oron 1
▁frequ 1
▁sales 1
vanized 1
▁Allahn 1
▁center 1
▁hungry 1
▁points 1
▁details 1
▁dịkarịa 1
▁kewayon 1
ew 1
alen 1
ubar 1
▁kad 1
▁kpu 1
▁Kula 1
▁koya 1
▁late 1
▁soji 1
▁vill 1
▁wear 1
▁lezie 1
▁motor 1
lasting 1
▁middle 1
▁okporo 1
ackaging 1
▁arrived 1
▁consist 1
▁ezumike 1
▁options 1
AM 1
Ala 1
box 1
cont 1
▁Roy 1
▁Head 1
▁gari 1
▁nemi 1
▁Faith 1
▁offic 1
▁Menene 1
▁Search 1
▁impact 1
▁dijital 1
▁fahimtar 1
▁Messenger 1
▁followers 1
BE 1
oon 1
reci 1
▁Str 1
▁1000 1
▁Lady 1
▁Week 1
▁cool 1
▁ọbịa 1
▁helps 1
▁Nwunye 1
▁brings 1
▁gesite 1
▁mmemme 1
▁tsofaf 1
▁widely 1
▁yellow 1
▁carried 1
▁official 1
▁shakatawa 1
FP 1
▁47 1
▁zã 1
▁Rob 1
▁ọlị 1
iyawa 1
otten 1
▁mirac 1
▁worry 1
▁decide 1
▁mankind 1
▁Governor 1
▁Ukrainian 1
▁mentioned 1
gra 1
▁Er 1
6.25 1
arsa 1
miah 1
otal 1
puta 1
▁Bow 1
▁Ham 1
▁Bill 1
▁fine 1
▁sada 1
▁Could 1
▁Lalle 1
▁katin 1
ciences 1
▁akaebe 1
▁windows 1
▁straight 1
▁fulfilled 1
kta 1
ishi 1
like 1
▁Div 1
▁Jụọ 1
▁Sta 1
▁Park 1
▁drop 1
▁ears 1
▁hukum 1
▁posts 1
akpagbu 1
▁Poland 1
▁easily 1
▁priests 1
▁declared 1
▁selection 1
▁activities 1
▁kõ 1
wuwa 1
▁Mov 1
▁las 1
▁nrụ 1
▁pịa 1
▁ruk 1
abiga 1
ittee 1
▁cike 1
aduate 1
▁meant 1
▁pursu 1
▁sauke 1
▁Amfani 1
▁amazing 1
▁animals 1
▁hukunci 1
▁kuskure 1
▁lamarin 1
▁neighbor 1
▁chọpụtara 1
▁listening 1
▁acknowledge 1
▁ingantaccen 1
95 1
pọ 1
guz 1
▁vs 1
ania 1
riel 1
▁ọkọ 1
▁Aiki 1
▁Food 1
▁Hell 1
▁Show 1
▁teku 1
ulated 1
▁bibie 1
▁bikin 1
▁crowd 1
▁Indust 1
▁couldn 1
▁notice 1
▁Samsung 1
▁observe 1
▁Thailand 1
▁makaranta 1
pty 1
▁wụ 1
awar 1
gbuo 1
▁Bud 1
▁Ọdị 1
ented 1
▁Mean 1
▁aure 1
kwaara 1
▁Music 1
▁cochle 1
▁mesịrị 1
▁ịchọrọ 1
ropriate 1
▁entered 1
▁players 1
▁dọ 1
▁Ber 1
▁Ebu 1
▁Fas 1
▁Pal 1
▁arm 1
uruwan 1
▁Maybe 1
▁leading 1
▁takardar 1
ky 1
that 1
▁nwụ 1
▁ohi 1
▁View 1
▁capt 1
▁okay 1
alized 1
▁depos 1
▁guide 1
▁couple 1
▁growth 1
▁seeing 1
▁Brother 1
▁Chapter 1
▁Faransa 1
▁ederede 1
▁employe 1
▁reached 1
▁sabunta 1
▁carefully 1
▁Professional 1
▁ej 1
OKWU 1
resp 1
▁jik 1
▁Kasị 1
▁Wire 1
▁acid 1
▁beat 1
▁farf 1
▁kadd 1
▁prot 1
▁repe 1
asures 1
▁Title 1
▁alaka 1
▁sarki 1
▁shing 1
▁yamma 1
▁agbata 1
▁latest 1
▁njehie 1
▁Getting 1
▁Project 1
▁kọmputa 1
▁finished 1
▁temperature 1
▁› 1
Jọsh 1
ibly 1
▁cru 1
▁tor 1
ebibi 1
▁Choose 1
▁global 1
▁ntinye 1
▁rigaka 1
Lambobin 1
osterone 1
▁Onyinye 1
▁extreme 1
▁feature 1
▁matakai 1
▁zamanto 1
▁interior 1
Iji 1
clud 1
yond 1
▁Rah 1
▁Win 1
▁bed 1
▁gon 1
attun 1
▁Enye 1
▁lack 1
▁mine 1
▁rufi 1
▁Const 1
▁Greek 1
▁Messi 1
▁kyaut 1
▁sirri 1
sụgharị 1
▁script 1
▁strugg 1
▁Control 1
▁standard 1
▁bayyanannu 1
▁Bot 1
▁DVD 1
▁Tar 1
▁ámá 1
▁gwar 1
▁slow 1
▁Lagos 1
▁Legit 1
▁Ekwere 1
▁loving 1
▁Michael 1
▁herself 1
▁kafofin 1
▁zazzabi 1
▁samfurori 1
lor 1
▁ge 1
Mgbe 1
▁Yar 1
▁izi 1
▁kil 1
arori 1
▁comb 1
▁fair 1
▁distrib 1
▁kasashe 1
▁prepare 1
▁communic 1
▁harkokin 1
.] 1
ION 1
gbè 1
juju 1
▁Ife 1
▁wed 1
ighty 1
welve 1
yonyo 1
▁Main 1
▁hawa 1
ournal 1
ọgbakọ 1
▁Patri 1
▁tsabta 1
▁clearly 1
▁tambaye 1
▁whoever 1
▁kwukwara 1
▁transgress 1
7) 1
▁oo 1
comp 1
hips 1
iced 1
▁Ayy 1
▁PVC 1
▁guy 1
▁mbà 1
▁ịgb 1
▁Igwe 1
▁Mats 1
▁dabi 1
▁yaki 1
mitted 1
▁Share 1
▁nzuzu 1
▁prior 1
▁sinad 1
▁inform 1
▁length 1
▁sitting 1
▁responsibility 1
9] 1
yer 1
▁Lu 1
onia 1
▁Aut 1
▁Bro 1
▁arị 1
asion 1
▁cert 1
▁yunk 1
abeghị 1
▁fetur 1
▁final 1
▁ịbanye 1
▁Program 1
▁daidait 1
▁metụtara 1
iversities 1
▁Egwuregwu 1
esu 1
õda 1
▁TH 1
born 1
▁Ruo 1
▁ozo 1
▁tit 1
eding 1
▁Artic 1
▁Bekee 1
comment 1
▁Sweden 1
▁region 1
▁Counter 1
▁ogbenye 1
▁produce 1
▁ọgwụgwọ 1
▁PS 1
chol 1
▁Dee 1
▁Dok 1
▁Kasa 1
▁Oper 1
▁clot 1
▁till 1
▁Clear 1
▁Daily 1
▁gifts 1
▁kọọrọ 1
▁Ọbụna 1
▁Ọhụrụ 1
▁season 1
▁worked 1
▁private 1
▁tambaya 1
RS 1
fun 1
adar 1
sume 1
▁fan 1
▁gbo 1
▁ire 1
▁irè 1
aṅụrị 1
▁rain 1
▁subs 1
▁kings 1
▁nkụzi 1
▁shiri 1
▁woofer 1
▁Nzọụkwụ 1
▁variety 1
▁ụgbọelu 1
▁ọgaranya 1
'. 1
Sh 1
TE 1
asta 1
ụọla 1
▁iOS 1
▁lic 1
▁Dist 1
▁Mmụọ 1
▁desi 1
▁glor 1
▁ɗaya 1
▁abund 1
▁calls 1
▁Angels 1
▁alụmdi 1
▁prayed 1
▁ọgbakọ 1
▁average 1
▁descend 1
▁finally 1
▁Kara 1
▁Vict 1
▁frame 1
▁reply 1
▁tsawo 1
▁Ozugbo 1
▁ịkwụsị 1
▁Gwamnan 1
▁aghaghị 1
▁pleased 1
▁speaker 1
▁stopped 1
▁Musamman 1
▁shekarun 1
▁repentance 1
ses 1
Have 1
wụsị 1
▁Kur 1
▁Lev 1
igned 1
▁guzo 1
▁gụrụ 1
▁tace 1
▁wire 1
▁elder 1
▁raise 1
fection 1
▁showed 1
▁happens 1
▁ịtụnanya 1
▁recommend 1
▁requirements 1
16 1
GE 1
tops 1
▁Ell 1
▁Try 1
ilder 1
▁yadu 1
▁2017. 1
▁crying 1
▁lamari 1
wararren 1
▁nzọpụta 1
▁onyonyo 1
▁zamanta 1
Al 1
IM 1
-20 1
hur 1
hest 1
▁Bag 1
▁Fun 1
▁ISO 1
anyụọ 1
dachi 1
▁canc 1
▁cuta 1
▁kpee 1
▁saba 1
▁Psalm 1
▁Queen 1
▁dakin 1
kwutere 1
▁gafere 1
Catalyst 1
lication 1
▁nlekọta 1
▁nyochaa 1
▁plastic 1
▁wonderful 1
▁Arewasound 1
▁Information 1
LỌ 1
▁È 1
▁Ly 1
cape 1
eman 1
▁Abd 1
oking 1
▁fish 1
▁poly 1
▁Econom 1
▁Global 1
▁Nether 1
▁halaye 1
▁ngwọta 1
▁Product 1
▁ziyarci 1
▁national 1
▁shigarwa 1
▁Marketing 1
OB 1
dy 1
ọzi 1
haji 1
osary 1
▁maga 1
▁ịchọ 1
▁dabam 1
▁girls 1
▁kanka 1
▁wrath 1
▁Transl 1
▁aghọta 1
▁playing 1
▁rajista 1
▁patients 1
▁connection 1
▁responsible 1
ivil 1
ties 1
▁Att 1
▁GOD 1
▁dry 1
▁jee 1
▁tag 1
aches 1
▁Meet 1
▁Wiki 1
▁Asụsụ 1
▁labor 1
▁zaune 1
ination 1
▁Kristi 1
▁amalite 1
▁granted 1
▁mgbochi 1
▁Although 1
▁approach 1
gas 1
izu 1
anku 1
zine 1
▁DSS 1
▁Ntu 1
▁Ref 1
▁akọ 1
▁pet 1
▁ịkw 1
▁ụba 1
itely 1
▁Swit 1
▁doka 1
▁gami 1
▁sall 1
▁yafi 1
ground 1
▁Hibru 1
▁Litta 1
▁crypt 1
▁ọnụnọ 1
▁Kagara 1
▁albark 1
▁usually 1
himmancin 1
▁Services 1
▁nọnyeere 1
▁original 1
▁platform 1
App 1
▁Li 1
down 1
gọzi 1
▁Kud 1
erent 1
▁Stat 1
▁deaf 1
▁fing 1
▁shot 1
▁user 1
tobrag 1
▁Table 1
▁deeds 1
▁flood 1
▁advert 1
▁advantage 1
▁kayayyaki 1
builttobrag 1
On 1
bot 1
sec 1
▁75 1
inar 1
rịnt 1
▁250 1
▁Its 1
pects 1
▁2010 1
▁pred 1
▁tong 1
overed 1
▁Anyan 1
▁Moham 1
undunar 1
▁Kọrịnt 1
▁ntọala 1
▁desires 1
▁yawanci 1
▁kwatanta 1
▁standards 1
▁FileCatalyst 1
ize 1
nes 1
▁51 1
▁ng 1
alma 1
aton 1
bing 1
llig 1
▁Eve 1
omọkụ 1
▁aren 1
▁cand 1
▁Human 1
▁MMADỤ 1
▁Tsarki 1
▁makiya 1
▁Creator 1
▁akpụkpọ 1
▁littatta 1
▁maintain 1
▁jagoranci 1
▁obedience 1
▁Netherlands 1
▁everlasting 1
aza 1
oké 1
ọbụ 1
▁CE 1
▁Mc 1
▁SP 1
oman 1
▁Gig 1
▁Hun 1
▁Kai 1
▁Mom 1
▁Okp 1
▁log 1
▁pit 1
▁ulo 1
▁Miss 1
▁Waya 1
jalisa 1
▁Nazar 1
▁album 1
▁sinks 1
▁zaben 1
igation 1
kwaghịm 1
▁Hanyar 1
▁Marufi 1
▁marble 1
▁saurin 1
▁tsarki 1
▁Francis 1
▁waiting 1
righteous 1
dex 1
ffic 1
itiz 1
koki 1
▁Cup 1
▁Dam 1
▁Kọr 1
▁akù 1
▁aṅụ 1
▁hyp 1
▁ibi 1
eless 1
uxury 1
okporo 1
▁Thank 1
▁bushe 1
▁shari 1
▁George 1
▁effort 1
▁magung 1
▁offici 1
▁remove 1
▁sevent 1
▁yiwuwa 1
▁contrib 1
▁muhalli 1
▁location 1
lue 1
ares 1
iten 1
rane 1
▁192 1
▁sna 1
artar 1
aghọta 1
reanya 1
▁laugh 1
▁sites 1
▁ugbua 1
ezinụlọ 1
osition 1
▁Window 1
▁eating 1
▁safety 1
▁devices 1
▁sayarwa 1
▁tattaunawa 1
yed 1
▁49 1
▁52 1
▁fim 1
▁lit 1
▁ome 1
eweta 1
▁bike 1
▁gark 1
▁sort 1
engers 1
friend 1
▁accur 1
▁baiwa 1
▁fallen 1
▁hotuna 1
▁profit 1
▁onyeozi 1
▁apostles 1
▁household 1
gl 1
?"" 1
IYA 1
biya 1
edic 1
lymp 1
▁bow 1
▁ndú 1
osisi 1
▁alle 1
▁fool 1
▁Daalụ 1
▁ebubo 1
▁subst 1
▁bibiri 1
▁ndepụta 1
▁advanced 1
▁Converter 1
▁persecuted 1
▁Development 1
▁OK 1
ịsịa 1
▁Jan 1
▁Mur 1
▁Opt 1
▁arọ 1
osure 1
▁extra 1
▁shida 1
▁space 1
▁yours 1
▁unless 1
▁Ọzọkwa 1
▁attempt 1
▁karịsịa 1
▁unbelie 1
▁waɗannan 1
▁Ịhụnanya 1
▁thousands 1
.[ 1
CO 1
Me 1
cci 1
uted 1
▁Nle 1
▁aza 1
▁han 1
▁thi 1
▁umu 1
▁vac 1
akọta 1
▁Abụọ 1
▁Baby 1
▁OKWU 1
▁nọdụ 1
▁prop 1
▁weld 1
▁closer 1
▁groups 1
▁sassan 1
▁albarka 1
▁battery 1
▁billion 1
▁convert 1
▁ruwaito 1
BU 1
pre 1
▁Ije 1
odies 1
▁lots 1
▁ọgbọ 1
▁Place 1
▁tools 1
▁wadda 1
▁Rashin 1
▁adjust 1
▁sautin 1
▁kwụsịrị 1
70 1
lang 1
ocur 1
▁Bid 1
▁CNC 1
▁cook 1
▁dabb 1
▁foda 1
▁karị 1
editar 1
estern 1
▁kwara 1
▁shakka 1
▁target 1
▁yankan 1
▁dabarun 1
▁encoura 1
▁magburu 1
▁bụrụgodị 1
▁kpamkpam 1
▁Association 1
MỤ 1
WỤ 1
▁BI 1
▁kã 1
▁Pop 1
oured 1
▁Want 1
▁jima 1
▁nesa 1
akpata 1
▁Sarah 1
▁mmadu 1
▁Alhaji 1
▁baturi 1
▁kwanan 1
▁nchebe 1
▁Inganta 1
▁fahimci 1
▁Kungiyar 1
▁Security 1
▁religion 1
MU 1
law 1
▁TO 1
Igbo 1
allo 1
tail 1
▁Dev 1
▁owu 1
alted 1
▁Litt 1
▁Mike 1
▁debe 1
arshen 1
▁Chief 1
▁Small 1
▁Timoti 1
▁Vanity 1
▁sabbin 1
▁screen 1
▁Society 1
▁Subject 1
▁kpọtụrụ 1
▁separate 1
En 1
:00 1
CHE 1
ago 1
ino 1
ume 1
▁FT 1
▁ID 1
▁Buy 1
▁Pur 1
ịzaya 1
▁proc 1
▁quar 1
▁Class 1
▁Verse 1
▁legal 1
▁plans 1
▁ịhọrọ 1
anabata 1
▁burden 1
▁mesoro 1
▁reduce 1
▁skills 1
▁ọkpara 1
▁appreci 1
▁picture 1
▁tattara 1
▁families 1
▁relative 1
▁decisions 1
9) 1
atab 1
▁NOT 1
▁Sea 1
▁Wel 1
ghach 1
paper 1
▁Conne 1
▁lying 1
▁merie 1
▁noise 1
▁pregn 1
▁Gospel 1
▁Market 1
▁mgbaru 1
alization 1
▁Paradise 1
▁yarjejen 1
▁Okechukwu 1
▁Scripture 1
▁Stainless 1
fortunately 1
edụ 1
ịar 1
ụdị 1
▁Cry 1
Ijipt 1
aming 1
anned 1
emede 1
erial 1
gthen 1
jirịa 1
▁Disc 1
▁Ngwá 1
enance 1
▁Happy 1
▁absol 1
▁itace 1
▁oyiyi 1
antance 1
▁Mataki 1
▁property 1
ax 1
:33 1
:37 1
▁Jọ 1
enti 1
isan 1
▁50% 1
▁AHỤ 1
▁bag 1
▁tom 1
arwar 1
▁Blue 1
▁Bugu 1
▁Magn 1
▁Phot 1
▁dari 1
▁maye 1
▁Obodo 1
▁maghị 1
▁Series 1
▁bangon 1
▁mgbede 1
▁walking 1
▁pleasure 1
▁transfer 1
▁accomplish 1
▁compassion 1
NT 1
au 1
abu 1
ont 1
via 1
ẹnẹ 1
▁lu 1
bụrụ 1
dozi 1
ecut 1
oval 1
roll 1
ọcha 1
▁Bil 1
▁Dal 1
▁Ebi 1
▁Fur 1
▁ISI 1
▁arg 1
▁dub 1
annel 1
▁Fact 1
▁Rome 1
▁Ugwu 1
▁Wuta 1
▁moon 1
▁Olymp 1
▁goals 1
▁heavy 1
▁kawar 1
▁Nwanne 1
▁cancer 1
▁icheta 1
▁sample 1
▁largest 1
▁praying 1
▁rarraba 1
▁section 1
▁ịmepụta 1
▁withdraw 1
▁Insurance 1
▁happiness 1
▁operation 1
▁successful 1
ãy 1
REE 1
▁Fal 1
▁Low 1
akụzi 1
esome 1
llahi 1
▁ISHA 1
▁Kwan 1
▁Page 1
▁Star 1
▁Tabb 1
▁copy 1
▁miƙa 1
▁ígwè 1
amples 1
bolone 1
kpuchi 1
▁haven 1
▁sakon 1
▁sanda 1
▁zunubi 1
▁British 1
▁Plastic 1
▁asibiti 1
▁calling 1
▁karatun 1
▁kwesiri 1
▁network 1
▁pouches 1
▁dịghịkwa 1
▁Testament 1
▁chegharịa 1
▁developed 1
▁ST 1
▁bọ 1
▁sã 1
odes 1
othy 1
veni 1
▁sup 1
udata 1
▁bull 1
▁bịar 1
▁Ọnwụ 1
▁Italy 1
▁fellow 1
▁joined 1
▁throne 1
▁telling 1
▁ƙananan 1
▁matsaloli 1
▁tụkwasịrị 1
mg 1
hụa 1
nna 1
not 1
och 1
▁5, 1
icon 1
lict 1
toba 1
▁Run 1
▁nza 1
alled 1
▁Each 1
▁Holm 1
▁kọrọ 1
▁menu 1
▁eruwo 1
▁asalin 1
▁emeela 1
▁wahala 1
▁Academy 1
▁Witness 1
▁njedebe 1
▁student 1
▁ọganihu 1
▁Abubuwan 1
28 1
UT 1
aịn 1
▁Ve 1
atto 1
mụmụ 1
▁Qur 1
▁kit 1
ọshụa 1
▁Indi 1
▁Talk 1
▁army 1
▁crit 1
▁fare 1
▁gana 1
▁sell 1
▁ọhụụ 1
▁empty 1
▁paths 1
▁tushe 1
▁walla 1
▁Friend 1
▁lalace 1
▁likely 1
▁maroki 1
▁meekwa 1
▁shinge 1
▁Hosting 1
▁chọọchị 1
▁gọọment 1
▁ọgwụgwụ 1
2) 1
you 1
UKWU 1
isto 1
lipp 1
rict 1
▁Bal 1
▁Ret 1
▁Yak 1
lying 1
▁laid 1
▁race 1
▁saki 1
▁Ụgbọ 1
coming 1
▁brown 1
▁cried 1
▁dwell 1
▁ifufe 1
▁inhab 1
▁maxim 1
▁teeth 1
akpando 1
▁Kemgbe 1
▁formed 1
▁rememb 1
▁worthy 1
▁dalilin 1
▁Catholic 1
▁minister 1
etụ 1
▁Oj 1
atak 1
cean 1
elds 1
rine 1
ylon 1
▁fix 1
▁jim 1
ading 1
asins 1
hausa 1
▁Fall 1
▁Mama 1
▁jere 1
▁mãsu 1
▁ship 1
▁vaịn 1
ifying 1
▁canji 1
▁conce 1
▁emewo 1
▁ended 1
▁Ibeene 1
▁Faculty 1
▁Limited 1
▁biliyan 1
▁kalmomi 1
▁science 1
▁serious 1
▁tsananin 1
▁Questions 1
▁appropriate 1
Af 1
wẹ 1
kel 1
aste 1
oria 1
▁Fab 1
▁Pịa 1
▁nma 1
xygen 1
▁Song 1
▁asks 1
▁bunk 1
▁laws 1
▁Saint 1
▁Syria 1
▁amata 1
▁Mutane 1
▁Secret 1
▁elders 1
▁houses 1
▁mgbakọ 1
▁nyeere 1
▁police 1
ads 1
▁sọ 1
miss 1
▁Cop 1
▁cig 1
▁ege 1
xiety 1
▁audi 1
▁mako 1
▁tall 1
▁Birth 1
▁Death 1
▁Georg 1
▁Story 1
▁Tinye 1
▁contr 1
▁fashi 1
▁karya 1
▁kpụrụ 1
▁looks 1
▁ịhapụ 1
isiokwu 1
▁attend 1
▁images 1
▁sashen 1
▁served 1
▁harvest 1
▁Language 1
▁Naịjirịa 1
▁Abdullahi 1
.16 1
tan 1
umn 1
▁hi 1
▁sụ 1
ules 1
▁Ron 1
▁Whe 1
▁egw 1
▁nob 1
using 1
▁Hall 1
▁pool 1
etooth 1
▁haɗin 1
▁Afrika 1
▁Gaskiya 1
▁sauraro 1
▁physical 1
▁zinariya 1
▁kasuwancin 1
▁nkwekọrịta 1
Ba 1
!!! 1
▁Akp 1
▁Bad 1
▁alk 1
▁ila 1
▁tie 1
▁Aika 1
▁Kada 1
taniya 1
▁River 1
▁title 1
▁akwụsị 1
▁oghere 1
▁phones 1
▁chapter 1
▁mmepụta 1
▁Question 1
▁meditate 1
▁individuals 1
td 1
Ony 1
▁Dar 1
▁Hen 1
▁Sug 1
▁onu 1
▁ìsì 1
ahọrọ 1
emezu 1
▁rare 1
▁nketa 1
▁peeji 1
▁topic 1
▁track 1
▁Jọshụa 1
▁allows 1
▁arrest 1
▁carbon 1
▁ekwela 1
▁lokuta 1
▁attract 1
▁samarwa 1
▁campaign 1
▁tabbacin 1
▁solutions 1
nke 1
▁Aw 1
fara 1
▁Cri 1
▁Jir 1
▁Ital 1
▁Jems 1
▁Moab 1
▁club 1
▁drug 1
rimara 1
▁drugs 1
▁izute 1
▁Gwamna 1
▁disapp 1
▁famous 1
▁pieces 1
▁waters 1
ulations 1
▁gwargwa 1
▁workers 1
▁Binciken 1
▁includes 1
▁positive 1
▁essential 1
SP 1
ỌN 1
obo 1
▁Ek 1
That 1
omas 1
▁10, 1
▁BBC 1
▁obl 1
▁omn 1
works 1
▁Daya 1
▁Fili 1
▁Mill 1
▁dọrọ 1
▁nbibi 1
▁tears 1
▁Verily 1
▁remains 1
▁stories 1
▁Mohammed 1
▁Samfurin 1
▁ụlọikwuu 1
14 1
Un 1
air 1
▁Hor 1
iding 1
ulate 1
▁Long 1
▁Scre 1
▁furu 1
▁ịkpa 1
ements 1
▁ndekọ 1
▁Golden 1
▁ncheta 1
▁Central 1
▁conduct 1
▁kụziiri 1
▁obvious 1
▁perhaps 1
▁surround 1
▁completed 1
▁witnesses 1
hh 1
dig 1
Ụlọ 1
▁Ze 1
Come 1
kwun 1
rics 1
rome 1
wụwa 1
ụọgụ 1
itors 1
orage 1
saịtị 1
▁huge 1
▁opin 1
▁Beaut 1
chester 1
▁hidden 1
▁highly 1
▁zahiri 1
▁Sabbath 1
▁earlier 1
▁takalma 1
▁ọdịnaya 1
▁alkawari 1
▁mahaifin 1
▁overcome 1
▁siffofin 1
19 1
nri 1
▁FA 1
▁Def 1
▁Sud 1
▁til 1
▁Slov 1
▁gode 1
▁hurt 1
▁mass 1
▁symb 1
▁Break 1
▁prost 1
▁quiet 1
Onyenwe 1
▁Hasken 1
▁Nkechi 1
▁belief 1
▁causes 1
▁moving 1
▁sabõda 1
▁Washing 1
▁Ministry 1
▁starting 1
▁challenge 1
▁matsalolin 1
fee 1
Kuma 1
rain 1
yawa 1
▁Jim 1
▁amo 1
▁beg 1
▁daa 1
▁tan 1
araba 1
odule 1
▁Cert 1
▁Borno 1
▁dokar 1
▁grand 1
▁League 1
▁aghara 1
▁numbers 1
▁football 1
▁scientific 1
▁communication 1
lis 1
▁4: 1
rant 1
▁13, 1
▁cat 1
▁ịda 1
akọwa 1
▁Nwee 1
▁drag 1
▁hate 1
celona 1
▁Emeka 1
▁bashi 1
▁beast 1
▁innov 1
▁karar 1
▁stick 1
▁Things 1
▁azaman 1
▁condem 1
▁obtain 1
▁parent 1
▁shawar 1
▁Bitcoin 1
▁Students 1
▁independ 1
▁announced 1
▁daruruwan 1
▁direction 1
▁bịakwutere 1
▁4) 1
▁HE 1
▁Bia 1
▁Cut 1
▁Agba 1
▁zite 1
▁Being 1
▁ought 1
▁stream 1
▁Electric 1
▁capacity 1
▁kungiyoyin 1
1) 1
Da 1
Kp 1
oe 1
Pro 1
atị 1
▁ti 1
atsa 1
cons 1
gasị 1
nize 1
uffa 1
▁600 1
▁CBD 1
inted 1
▁Thou 1
▁fọdụ 1
▁zuba 1
▁Atụrụ 1
▁bound 1
▁rules 1
▁salla 1
▁humans 1
▁Chọpụta 1
▁Building 1
▁Congress 1
▁kwamitin 1
▁Ó 1
▁CD 1
Okwu 1
▁GSS 1
▁NLS 1
▁und 1
▁òkè 1
▁ịlụ 1
iforn 1
oples 1
▁caji 1
▁imel 1
▁magn 1
▁brain 1
▁cloud 1
▁sauka 1
▁souls 1
▁double 1
▁echefu 1
▁twelve 1
▁Digital 1
▁Okwukwe 1
▁dokokin 1
▁Barcelona 1
▁religious 1
▁spiritual 1
▁punishment 1
:36 1
Now 1
▁65 1
▁aj 1
andu 1
enyo 1
mọrụ 1
▁3:1 1
▁Udo 1
aying 1
▁Dead 1
▁Join 1
▁uses 1
▁wood 1
ayoyin 1
mighty 1
▁NWERE 1
▁categ 1
▁gagar 1
▁nọkwa 1
▁Report 1
▁sarari 1
▁tashin 1
▁zargin 1
makwụkwọ 1
▁Finally 1
▁Gbanyụọ 1
▁Nazarin 1
▁kpọlite 1
▁tsakiya 1
▁Japanese 1
▁delivery 1
▁evidence 1
▁currently 1
▁kwamfutar 1
SR 1
Rom 1
omy 1
thy 1
zes 1
ỊRỊ 1
dawa 1
▁eso 1
▁etu 1
ekele 1
stood 1
yinyo 1
▁Bowl 1
▁Card 1
▁Form 1
▁Road 1
▁pull 1
▁sold 1
echebe 1
onents 1
terior 1
▁Belie 1
▁tsufa 1
orthern 1
▁basins 1
▁ọdachi 1
akwanyere 1
▁purchase 1
▁explained 1
▁Decoration 1
▁mgbakwunye 1
]> 1
hou 1
oji 1
▁Equ 1
▁OBI 1
▁map 1
▁dear 1
▁rock 1
▁Ekele 1
▁mmeri 1
▁prove 1
▁Server 1
▁Thanks 1
▁slaves 1
▁Shugaba 1
▁resistance 1
,' 1
Nwa 1
pha 1
ɓar 1
ɗin 1
▁Nk 1
otun 1
▁Alk 1
▁EZI 1
▁Mkp 1
ghẹnẹ 1
under 1
▁Papa 1
▁Ruwa 1
▁cash 1
▁dabe 1
▁dadi 1
▁swit 1
atsina 1
charge 1
▁Again 1
▁Times 1
▁shimf 1
▁twice 1
ifornia 1
▁beyond 1
▁testim 1
▁useful 1
▁Indones 1
▁actions 1
▁Personal 1
▁commandment 1
▁zamantakewa 1
BỤ 1
sp 1
adọ 1
cet 1
win 1
▁PA 1
sych 1
▁doo 1
▁.... 1
▁baka 1
▁easi 1
▁jobs 1
▁pill 1
▁tufa 1
▁Order 1
▁mezuo 1
▁spent 1
▁terri 1
huriyar 1
otional 1
▁Prayer 1
▁agụghị 1
▁bottle 1
▁hakkin 1
▁jijiji 1
▁Labarai 1
▁bincika 1
▁okpomọkụ 1
▁Sometimes 1
▁Revelation 1
IE 1
cs 1
FCC 1
▁(4 1
▁6, 1
▁NY 1
▁fã 1
▁ịd 1
Bear 1
Your 1
▁Ade 1
▁Gar 1
▁Ten 1
▁lin 1
▁nar 1
▁ult 1
inner 1
omain 1
▁base 1
▁Brown 1
▁links 1
▁nduzi 1
▁Behold 1
▁Jewish 1
▁Nkwado 1
▁Nwanna 1
▁Nyocha 1
▁Sports 1
▁addini 1
▁caught 1
▁manner 1
▁sanann 1
▁siffar 1
▁akwukwo 1
▁removed 1
▁increased 1
1] 1
3: 1
rẹ 1
Are 1
See 1
▁7, 1
▁Hu 1
▁TA 1
free 1
▁gag 1
based 1
rance 1
rehen 1
▁Atta 1
▁Foto 1
▁Onwu 1
▁arịọ 1
▁haɗa 1
▁Omume 1
▁facts 1
ekweghị 1
▁Achọrọ 1
▁Soviet 1
▁alamar 1
▁bakwai 1
▁demand 1
▁ọlaedo 1
▁highest 1
▁ntanetị 1
▁reflect 1
▁nchọpụta 1
▁kpakpando 1
▁opportunities 1
Obi 1
She 1
amị 1
has 1
zab 1
▁MD 1
▁Vi 1
▁(3) 1
▁Bak 1
▁Imm 1
▁Liv 1
▁mbu 1
yansa 1
▁Jord 1
▁emee 1
▁tent 1
▁trip 1
▁Brand 1
▁Nhọrọ 1
▁Sarki 1
▁chose 1
▁Ndịàmà 1
▁Nwanyi 1
▁campus 1
▁closed 1
▁figure 1
▁option 1
▁sinned 1
ographic 1
▁Gbasara 1
▁mallaka 1
▁pleases 1
▁seeking 1
▁sisters 1
▁alụkwaghịm 1
▁weebụsaịtị 1
rd 1
anic 1
gbee 1
usta 1
▁Saị 1
▁hyd 1
falen 1
yaran 1
▁Fast 1
▁Iche 1
▁chat 1
▁mkpọ 1
▁pure 1
▁ịbịa 1
▁Royal 1
▁Terms 1
ntanetị 1
▁fuskar 1
▁gurbin 1
▁kallon 1
▁reveal 1
▁worshi 1
▁capital 1
▁ọchịchọ 1
▁distance 1
▁shaharar 1
II 1
TỤ 1
▁ĩ 1
▁ze 1
cike 1
cles 1
ilty 1
posh 1
teen 1
▁Vol 1
▁sak 1
jamin 1
▁Farf 1
▁Wata 1
▁corn 1
▁iPad 1
▁jira 1
achọta 1
▁Willi 1
▁baƙin 1
▁Change 1
▁Filist 1
▁active 1
▁allura 1
▁ememme 1
▁mechaa 1
▁oxygen 1
▁Network 1
▁counsel 1
▁kimanin 1
▁zamanin 1
▁accepted 1
▁importance 1
▁recommended 1
Ee 1
jj 1
▁⁠ 1
▁LE 1
fito 1
fuge 1
mary 1
▁sky 1
▁sor 1
▁lady 1
▁Ọgwụ 1
irting 1
▁abada 1
▁makon 1
echekwa 1
▁Afirka 1
▁Ugboro 1
▁dịkwuo 1
▁mutuwa 1
▁pharma 1
▁Dangane 1
▁belongs 1
▁gwamnan 1
▁malamai 1
▁encourage 1
200 1
IDS 1
KWỤ 1
uit 1
arịa 1
ford 1
▁cup 1
▁flu 1
anaka 1
hians 1
pring 1
▁Turn 1
▁narr 1
▁sunã 1
▁valu 1
emeghe 1
▁cheta 1
▁colle 1
▁disob 1
▁liter 1
▁mechan 1
▁strike 1
▁Echiche 1
▁Turanci 1
▁arụmọrụ 1
▁nkwụnye 1
▁zuciyar 1
▁Consider 1
▁Minister 1
▁Software 1
▁auditory 1
▁Bluetooth 1
▁bangarori 1
▁California 1
▁Foundation 1
▁situations 1
▁unrighteous 1
1: 1
imb 1
mel 1
ancy 1
imar 1
imer 1
kota 1
pent 1
▁Agb 1
▁amb 1
▁edu 1
irman 1
known 1
prise 1
▁Hold 1
▁Sand 1
▁Send 1
▁Tips 1
▁azur 1
▁hadu 1
▁igbe 1
▁nkwu 1
▁Bello 1
▁Panel 1
▁Point 1
▁Simon 1
▁dadin 1
▁otutu 1
▁uncle 1
▁Martin 1
▁Source 1
▁Surely 1
▁bindaga 1
▁direkta 1
▁opening 1
▁persons 1
▁expected 1
▁commandments 1
coh 1
uce 1
rapy 1
▁ṅụọ 1
chọta 1
▁Hope 1
▁Phar 1
▁basu 1
▁Grand 1
▁Obama 1
▁hotel 1
▁nzube 1
▁ọdịda 1
atakịrị 1
iciency 1
▁Access 1
▁Ojukwu 1
▁Street 1
▁Travel 1
▁beings 1
▁divided 1
▁ekwughị 1
▁reality 1
▁sojojin 1
▁exercise 1
▁takardun 1
▁Naijeriya 1
▁implement 1
▁confidence 1
wọ 1
-15 1
▁ly 1
Anya 1
kwkw 1
shin 1
▁120 1
▁nya 1
verse 1
▁Bish 1
▁Siri 1
▁kuɗi 1
▁rank 1
▁wash 1
ezighị 1
▁Heart 1
▁minim 1
▁stage 1
amaiman 1
▁Square 1
▁tunawa 1
▁umeala 1
▁ƙarshe 1
▁Ọghẹnẹ 1
▁gachara 1
▁onyenwe 1
▁analysis 1
▁military 1
▁Different 1
▁regarding 1
18 1
Oh 1
mụta 1
▁Iri 1
▁Iwe 1
▁maa 1
▁Body 1
▁Ekpe 1
▁Expl 1
▁ikwe 1
▁karo 1
▁tips 1
▁ugbo 1
litere 1
▁Floor 1
▁aband 1
▁arewa 1
▁catch 1
▁kwall 1
▁shuka 1
▁Privacy 1
▁putting 1
▁setting 1
▁systems 1
▁meetings 1
▁membrane 1
▁tsofaffi 1
▁believing 1
▁challenges 1
kù 1
run 1
▁>> 1
zara 1
▁AND 1
▁Agụ 1
▁Box 1
▁Hey 1
▁ren 1
▁ƙir 1
cific 1
house 1
utely 1
wawan 1
▁Dara 1
▁cold 1
▁earn 1
▁mika 1
▁mode 1
▁rabo 1
akwụsị 1
▁Techn 1
▁apart 1
▁trees 1
▁Organi 1
▁orders 1
▁speaks 1
▁appoint 1
▁demonst 1
▁reports 1
▁victory 1
▁drinking 1
▁included 1
▁kaddamar 1
▁ịtụkwasị 1
▁appearance 1
RP 1
Ebe 1
cow 1
cue 1
uso 1
▁** 1
ager 1
dule 1
▁190 1
▁Ira 1
▁Ram 1
▁ham 1
▁ram 1
▁Prep 1
▁mold 1
▁nema 1
▁neur 1
▁tech 1
▁Ụgwọ 1
ercial 1
▁Archi 1
▁Atiku 1
▁Ohere 1
▁apụta 1
▁proce 1
▁shoes 1
tụbeghị 1
uration 1
▁Nkenke 1
▁demons 1
▁fadada 1
▁mafita 1
▁ɗaukar 1
▁Account 1
▁Hakanan 1
▁ancient 1
▁mission 1
▁kwayoyin 1
▁pictures 1
▁realized 1
▁Categories 1
▁albarkatun 1
▁strengthen 1
JỤ 1
MI 1
▁53 1
▁HD 1
pere 1
▁Fat 1
▁sen 1
▁squ 1
▁ịkọ 1
▁ỌZỌ 1
virus 1
▁Code 1
▁Thir 1
▁gona 1
▁gran 1
▁seat 1
ekpere 1
▁Lazar 1
▁Mexic 1
▁award 1
▁nkuru 1
▁zarar 1
▁Corint 1
▁academ 1
▁handle 1
▁labari 1
▁victim 1
▁Jagoran 1
▁amfanin 1
▁warware 1
▁Benjamin 1
▁yankunan 1
Ex 1
sk 1
fọn 1
saka 1
▁SOL 1
▁Zai 1
▁]]> 1
▁gbe 1
cceed 1
ciple 1
gwoju 1
▁2007 1
▁mumm 1
Bearbe 1
▁Phone 1
▁Write 1
▁cards 1
▁discl 1
▁gwaje 1
Matthew 1
▁Jordan 1
▁Malite 1
▁dabara 1
▁Welcome 1
▁bunkasa 1
▁ọlaọcha 1
▁ọnwụnwa 1
▁anywhere 1
Bearbeiten 1
▁destruction 1
UK 1
ndụ 1
oso 1
see 1
▁Gy 1
jack 1
▁Mrs 1
▁Oké 1
▁dad 1
▁nit 1
▁ọlụ 1
▁ụta 1
poses 1
▁Mada 1
▁Suna 1
▁Turk 1
▁aghọ 1
▁deci 1
▁hide 1
▁zamu 1
▁ọkpụ 1
batara 1
covery 1
▁Admin 1
▁Latin 1
▁karbi 1
▁leads 1
▁dreams 1
▁policy 1
▁freedom 1
▁circumst 1
▁lighting 1
▁produced 1
▁remained 1
▁described 1
▁determined 1
▁mataimakin 1
', 1
een 1
lar 1
▁66 1
Know 1
gage 1
▁Sus 1
▁amf 1
▁asọ 1
▁ozu 1
ached 1
▁Biyu 1
▁defe 1
▁madu 1
▁reli 1
▁2015. 1
▁Cover 1
▁Cross 1
▁Nzukọ 1
▁barin 1
▁erila 1
▁irite 1
▁items 1
▁trial 1
▁ṅụrịa 1
▁ịkọwa 1
▁walked 1
▁wancan 1
▁bụkwanụ 1
▁ordered 1
▁shepher 1
▁commands 1
▁guidance 1
▁instance 1
▁gabatarwa 1
▁matattara 1
▁educational 1
ZỌS 1
gor 1
▁CA 1
▁SU 1
umba 1
▁Sir 1
▁ezé 1
▁fol 1
▁pul 1
arian 1
cinsu 1
inder 1
▁Bene 1
▁Gent 1
▁Viet 1
▁anda 1
▁coup 1
▁jefa 1
▁nake 1
▁sale 1
abaghị 1
▁Roman 1
▁gafee 1
▁iniqu 1
▁nleta 1
istered 1
▁Romans 1
▁ahụghị 1
▁beauty 1
▁bidoro 1
▁dating 1
▁etinye 1
▁ekweghị 1
▁holding 1
▁ndabere 1
▁patient 1
▁tụnyere 1
▁becoming 1
▁directly 1
▁Ugochukwu 1
▁galvanized 1
chu 1
how 1
▁aa 1
abol 1
amak 1
isii 1
▁Dak 1
▁Ibu 1
▁suf 1
▁ung 1
ounds 1
▁yaro 1
Jehova 1
akpali 1
anaghị 1
icians 1
▁Ebube 1
▁JIZỌS 1
▁match 1
▁metal 1
▁ƙarfe 1
▁nọgide 1
▁sexual 1
▁England 1
▁connect 1
▁mutumin 1
▁showing 1
▁wasannin 1
▁extremely 1
▁definitely 1
▁gwargwadon 1
▁organization 1
yu 1
EST 1
lọn 1
▁JH 1
▁Nu 1
adan 1
outs 1
ugwu 1
▁Ash 1
▁Kun 1
▁NDỤ 1
▁fra 1
▁ẹre 1
abbin 1
laịja 1
▁Such 1
▁vine 1
anions 1
▁Forum 1
▁Samun 1
▁tụlee 1
ossible 1
▁rutere 1
▁Comment 1
▁Philipp 1
▁Timothy 1
▁deposit 1
▁library 1
▁sanyaya 1
▁bambanci 1
▁kwararru 1
▁paradise 1
▁cryptocur 1
▁Manchester 1
▁Corinthians 1
ɓɓ 1
▁Hụ 1
gent 1
ogue 1
▁Blo 1
▁Lọt 1
▁Olu 1
▁Sky 1
▁WEB 1
▁Wan 1
▁kuj 1
▁riẹ 1
▁syn 1
▁tic 1
force 1
icies 1
iring 1
▁Bala 1
▁fort 1
▁gate 1
▁naka 1
▁samo 1
▁sets 1
▁warm 1
▁yabo 1
▁Kwere 1
▁Quick 1
▁animal 1
▁finish 1
▁katako 1
▁levels 1
▁Looking 1
▁consult 1
▁daukaka 1
▁lissafi 1
▁profile 1
▁mountains 1
17 1
ERS 1
▁AK 1
▁ALL 1
▁Cam 1
▁Joy 1
▁OEM 1
▁gang 1
▁rami 1
▁shut 1
▁2018. 1
▁Abdul 1
▁Dakar 1
▁pụghị 1
▁sanct 1
atabase 1
▁akpaka 1
▁bodies 1
▁dalibi 1
▁daukan 1
▁modern 1
▁nearly 1
▁volume 1
▁Babylon 1
▁clients 1
▁existence 1
▁recognize 1
ibo 1
cere 1
oung 1
▁Ntụ 1
▁Jana 1
▁soft 1
▁virt 1
abolic 1
anduje 1
spring 1
▁Basin 1
▁Import 1
▁Misali 1
▁failed 1
▁gudana 1
▁gịnịzi 1
▁memory 1
▁raunin 1
▁Freedom 1
▁Georgia 1
▁Katsina 1
▁Patrick 1
▁founded 1
▁malaman 1
▁Witnesses 1
▁universities 1
Ab 1
ev 1
100 1
ANY 1
cal 1
mal 1
ono 1
lant 1
▁Gen 1
▁mel 1
warin 1
while 1
▁Bapt 1
▁Gift 1
▁Heze 1
▁Ibom 1
▁ther 1
▁yada 1
utical 1
▁ememe 1
▁nọmba 1
▁shame 1
▁Member 1
▁ekweta 1
▁hukuma 1
▁luxury 1
▁prices 1
▁Anyanwu 1
▁balance 1
▁seconds 1
▁ministry 1
▁Indonesia 1
▁automatic 1
"" 1
apụ 1
azi 1
ogo 1
▁EN 1
▁Uz 1
iler 1
▁OLE 1
Matiu 1
▁Enyi 1
▁Kedụ 1
▁Rich 1
▁radi 1
▁tayi 1
▁ọchụ 1
agụnye 1
ulture 1
▁Kwụsị 1
▁broad 1
▁movie 1
▁ndidi 1
theless 1
▁depend 1
▁rahama 1
▁recent 1
▁stated 1
▁Ụmụaka 1
▁Respons 1
▁amaokwu 1
▁matters 1
▁Jeremiah 1
▁feelings 1
▁supposed 1
▁violence 1
▁responded 1
▁tallafawa 1
▁worldwide 1
▁takamaiman 1
▁installation 1
Hz 1
agn 1
but 1
hao 1
mak 1
arun 1
bels 1
ilee 1
irga 1
istr 1
▁gee 1
▁phr 1
▁ịba 1
amali 1
power 1
tails 1
▁Bara 1
▁Ikwu 1
▁Jesu 1
uesday 1
▁Sabon 1
▁gbasa 1
▁ginin 1
▁haram 1
▁instr 1
▁saita 1
▁umurn 1
▁Mkpụrụ 1
▁dutsen 1
▁motoci 1
▁shared 1
▁status 1
▁talaka 1
▁Farfesa 1
▁Messiah 1
▁ikikere 1
▁conversation 1
ilu 1
mpt 1
▁dh 1
ario 1
▁ARE 1
▁Tor 1
▁aba 1
▁eje 1
▁Ùnu 1
▁guys 1
▁kumb 1
▁nisa 1
▁zata 1
▁Abram 1
▁Steps 1
▁dedic 1
▁kaina 1
▁lower 1
▁trade 1
akọrịta 1
enyekwa 1
▁Nnukwu 1
▁Others 1
▁Sauran 1
▁godiya 1
▁submit 1
▁Without 1
▁advance 1
▁nchegbu 1
▁Almighty 1
▁activity 1
▁Jamhuriyar 1
▁foundation 1
▁significant 1
Com 1
▁NO 1
cell 1
tuɓi 1
▁(20 1
▁Hig 1
▁fer 1
▁nte 1
ician 1
ikọta 1
ozuzu 1
verbs 1
▁Suka 1
▁Yaya 1
▁aiko 1
▁koda 1
▁igosi 1
▁Democr 1
▁Manyan 1
▁akwara 1
▁contro 1
▁inhabit 1
▁farantin 1
▁rundunar 1
▁watching 1
:35 1
alf 1
bai 1
car 1
eed 1
ọna 1
▁Ce 1
llah 1
tics 1
▁Alb 1
▁Ide 1
▁Wis 1
▁rid 1
▁ƙas 1
▁Pass 1
▁dala 1
▁gasa 1
▁meal 1
▁ngwụ 1
▁Abasi 1
▁Njikọ 1
▁aside 1
▁brows 1
▁resol 1
clusion 1
isation 1
▁Elijah 1
▁Shekar 1
▁iyakar 1
▁spring 1
▁Ganduje 1
▁edemede 1
▁Ministan 1
▁Relations 1
▁fuskantar 1
▁understood 1
▁instructions 1
CD 1
hem 1
zhe 1
▁56 1
cred 1
illa 1
▁11. 1
▁Bai 1
▁KWU 1
▁True 1
▁agwọ 1
▁buri 1
▁core 1
▁arụsị 1
▁cajin 1
▁plate 1
▁toshe 1
▁Aịzaya 1
▁Origin 1
▁Player 1
▁kwarai 1
▁natara 1
▁keeping 1
▁trading 1
▁kyawawan 1
▁ntụziaka 1
▁Packaging 1
▁adịghịkwa 1
▁karantawa 1
▁potential 1
45 1
RL 1
:43 1
ịsị 1
▁Av 1
▁av 1
bell 1
guzo 1
▁Sum 1
pedia 1
proof 1
▁luck 1
▁nkwụ 1
ntanet 1
▁Avoid 1
▁Kasar 1
▁Neman 1
▁Smart 1
▁kilom 1
▁damage 1
▁kpebie 1
▁mighty 1
▁mosaic 1
▁stress 1
▁wishes 1
▁Eluigwe 1
▁apostle 1
▁clothes 1
▁succeed 1
▁Category 1
▁kindness 1
▁teachers 1
▁nlereanya 1
▁population 1
▁Unfortunately 1
PN 1
▁ĩm 1
▁10% 1
▁Joe 1
▁Ltd 1
▁tụọ 1
after 1
ander 1
▁Bari 1
▁Line 1
▁Mene 1
▁nama 1
▁rang 1
▁ákwà 1
▁lines 1
▁Single 1
▁cooper 1
▁emeghị 1
▁kulawa 1
▁Ịlaịja 1
▁Osimiri 1
▁Perfect 1
▁formats 1
intenance 1
▁economic 1
▁proclaim 1
▁reserved 1
kwá 1
onu 1
▁64 1
▁Gụ 1
▁Jul 1
▁alf 1
▁gwụ 1
nuche 1
▁(201 1
▁Rock 1
▁tura 1
akarda 1
ghaara 1
letter 1
▁delay 1
▁horse 1
▁shape 1
▁Speaker 1
▁Tuesday 1
▁helping 1
▁contract 1
▁leadership 1
▁inheritance 1
▁traditional 1
-9 1
jja 1
ndị 1
ingu 1
▁16, 1
▁Fit 1
istar 1
▁bill 1
▁daji 1
▁gefe 1
▁kwar 1
▁Bring 1
▁Kafin 1
▁adana 1
▁iyali 1
▁polit 1
▁agbụrụ 1
▁breath 1
▁forbid 1
▁normal 1
▁powder 1
▁Farisii 1
▁consequ 1
▁leaving 1
▁madadin 1
▁wedding 1
▁although 1
▁contains 1
▁recently 1
▁conscious 1
75 1
Am 1
NỊ 1
TO 1
bị 1
wi 1
izo 1
ỤRỤ 1
▁RF 1
▁Zi 1
▁ox 1
berg 1
mine 1
site 1
▁Inn 1
▁Pla 1
▁ate 1
▁tub 1
itoci 1
amakon 1
▁Lines 1
▁Nyere 1
▁Premi 1
▁Wanda 1
▁soldi 1
▁theme 1
▁Making 1
▁Rights 1
▁Sanata 1
▁zagaye 1
▁Igbokwe 1
▁gịnịkwa 1
▁hormone 1
▁samarda 1
▁steroid 1
▁Skirting 1
▁sadarwar 1
▁interests 1
▁sarrafawa 1
▁Washington 1
▁additional 1
▁jagorancin 1
▁prosperous 1
BS 1
abị 1
agu 1
nic 1
quo 1
▁nà 1
ụgbọ 1
▁30% 1
▁KYA 1
▁aim 1
▁lad 1
▁Ọka 1
..... 1
field 1
rairu 1
▁Tour 1
▁rarr 1
▁Livaị 1
▁Niger 1
▁sunad 1
▁Moscow 1
▁Shirin 1
▁instit 1
▁tsafta 1
▁haruffa 1
▁shouldn 1
▁studies 1
▁planning 1
▁reference 1
sue 1
ụta 1
echi 1
▁Ray 1
▁mug 1
▁bond 1
▁flex 1
▁jink 1
▁soja 1
▁trib 1
idents 1
orders 1
▁1,000 1
▁Ocean 1
▁girgi 1
▁layin 1
▁mixed 1
▁relie 1
▁weere 1
▁zanen 1
▁Hunter 1
▁alamun 1
▁forced 1
▁fọdụrụ 1
▁matsan 1
▁starts 1
▁burning 1
▁koyarwa 1
▁nchịkwa 1
▁shimfidar 1
JI 1
ATA 1
GBU 1
Tun 1
ole 1
▁8, 1
▁AF 1
▁DM 1
▁Tu 1
▁nz 1
chel 1
emba 1
iser 1
utan 1
▁Bịa 1
▁Sau 1
▁sty 1
▁wai 1
fairs 1
itain 1
minal 1
▁Sama 1
▁bran 1
▁jawo 1
▁nchọ 1
▁sees 1
apụghị 1
▁Guard 1
▁Talla 1
▁haska 1
▁kalub 1
▁keeps 1
▁ịmara 1
erences 1
utation 1
▁Echere 1
▁Elizab 1
▁Hebrew 1
▁Latest 1
▁Select 1
▁illust 1
▁Blessed 1
▁biggest 1
▁greatly 1
▁growing 1
▁Committee 1
▁receiving 1
cco 1
ego 1
tes 1
▁Il 1
▁Kn 1
▁Ky 1
aded 1
ịiko 1
▁Yus 1
▁ige 1
▁kpụ 1
Izrel 1
anian 1
chain 1
essor 1
▁dies 1
▁duty 1
▁eruo 1
▁maso 1
▁uhie 1
▁uwar 1
▁ịnwụ 1
terday 1
▁Block 1
▁Radio 1
▁exhib 1
▁forms 1
▁limit 1
▁pages 1
▁budget 1
▁farawa 1
▁otitis 1
onavirus 1
▁maximum 1
▁serving 1
▁chemical 1
▁permission 1
▁smartphone 1
▁54 1
▁sn 1
Host 1
▁2:4 1
▁Aba 1
▁Nas 1
▁GỊNỊ 1
▁Jack 1
▁insp 1
▁ịchị 1
▁Fiber 1
▁Guide 1
▁chebe 1
▁proof 1
▁proud 1
▁stret 1
▁ĩmãni 1
▁Letter 1
▁healed 1
▁kunshi 1
▁plenty 1
▁ọnụọgụ 1
ceutical 1
tainment 1
▁Justice 1
▁Mkpughe 1
▁anymore 1
▁bayarwa 1
▁methods 1
▁treated 1
▁assembly 1
▁Nigerians 1
▁agreement 1
▁concerned 1
▁employees 1
▁technical 1
▁messengers 1
▁particularly 1
▁testosterone 1
") 1
35 1
DF 1
__ 1
loy 1
nya 1
Lord 1
anwa 1
etic 1
haya 1
▁000 1
▁180 1
▁Boy 1
▁Sna 1
▁mej 1
cribe 1
▁Mani 1
▁ogwu 1
▁ƙirƙ 1
cetate 1
ursday 1
▁Cloud 1
▁Kwara 1
▁Lelee 1
ecutive 1
▁Gbalịa 1
▁Oktoba 1
▁bright 1
▁harshe 1
▁twenty 1
ghachite 1
▁Labaran 1
▁concept 1
▁duwatsu 1
▁healthy 1
▁wearing 1
▁ịzọpụta 1
portation 1
▁Training 1
▁confident 1
▁providing 1
▁manufacturing 1
!) 1
ókè 1
▁tã 1
burg 1
▁Deb 1
▁Nov 1
▁Rut 1
▁Sah 1
▁sem 1
▁uzo 1
estic 1
isees 1
▁Kudu 1
▁ends 1
▁Ànyị 1
ortion 1
▁Haske 1
▁Whats 1
▁cheap 1
▁gradu 1
▁imere 1
ampions 1
shekara 1
▁Ndịozi 1
▁accord 1
▁guilty 1
▁persec 1
▁Ayyukan 1
▁conveni 1
▁divorce 1
▁siginar 1
▁kwesịkwara 1
▁wickedness 1
▁experienced 1
MT 1
ITE 1
lie 1
alai 1
ette 1
irta 1
wata 1
▁Dog 1
▁Lib 1
▁Tex 1
▁aya 1
▁nak 1
eduzi 1
isode 1
jiria 1
words 1
▁Army 1
▁Shan 1
▁gado 1
▁koyi 1
▁shiry 1
zations 1
▁Madrid 1
▁gbalịa 1
▁stayed 1
▁thirty 1
▁Britain 1
▁confess 1
▁kudaden 1
▁Nchịkọta 1
▁millions 1
▁rejected 1
▁suddenly 1
▁dandamali 1
▁influence 1
▁presented 1
▁sinadaran 1
:: 1
Mu 1
Gwa 1
fen 1
mad 1
vant 1
yake 1
▁asụ 1
gwara 1
▁MERE 1
▁Plus 1
▁fãce 1
▁unit 1
ekwesị 1
▁Chang 1
▁Kwuru 1
▁citiz 1
▁sarka 1
▁severe 1
▁stones 1
▁zurfin 1
ications 1
▁finding 1
▁bringing 1
▁purposes 1
▁offspring 1
▁dangantaka 1
ss 1
▁DO 1
iyon 1
reds 1
▁Cra 1
▁Gee 1
▁jet 1
ahaya 1
chers 1
orida 1
▁Gini 1
▁Grey 1
▁Mand 1
▁Mụta 1
▁Soro 1
▁raya 1
▁shag 1
▁tank 1
liance 1
omever 1
ukansu 1
▁basic 1
▁ideal 1
iveness 1
▁brands 1
▁dịgasị 1
▁tongue 1
▁Bincike 1
▁dabeere 1
▁tafiyar 1
▁Thursday 1
▁shoulder 1
▁agbaghara 1
▁officials 1
▁testimony 1
▁recognized 1
Did 1
ÆTM 1
▁AC 1
▁PE 1
▁aṅ 1
ilan 1
urse 1
▁USD 1
▁Uni 1
gwaje 1
▁Fara 1
▁Lake 1
▁nnye 1
▁Marte 1
▁kadai 1
wayoyin 1
zheimer 1
▁Gịnịzi 1
▁favour 1
▁histor 1
▁output 1
▁Austria 1
▁appears 1
▁duniyar 1
▁karamin 1
▁Director 1
▁Harkokin 1
▁lambobin 1
▁machines 1
▁mgbagwoju 1
▁customized 1
22 1
De 1
Ana 1
gir 1
▁(" 1
:10) 1
rews 1
uchi 1
utch 1
▁15. 1
▁Esi 1
▁Ihu 1
▁Iya 1
▁hay 1
edozi 1
▁Amin 1
▁FREE 1
▁Riga 1
▁bugu 1
▁riba 1
▁sauk 1
ackage 1
reland 1
▁Treat 1
▁brief 1
▁tatto 1
▁Living 1
▁Proper 1
▁Turkey 1
▁ọmịiko 1
poration 1
▁Tuntuɓi 1
▁culture 1
▁harabar 1
▁kwanakin 1
▁lalacewa 1
▁performed 1
▁tambayoyi 1
▁ọchịchịrị 1
▁assistance 1
▁circumstances 1
SC 1
▁rs 1
oust 1
▁(19 1
▁Ill 1
▁Jis 1
▁ens 1
▁hey 1
▁hij 1
▁Ụjọ 1
irmed 1
▁Days 1
▁Exam 1
▁Less 1
▁Zion 1
▁tuba 1
erughị 1
▁2014. 1
▁Devil 1
▁Maris 1
▁Obere 1
▁Paper 1
▁batut 1
▁cable 1
▁ebigh 1
▁train 1
zerland 1
▁Centre 1
▁Yakubu 1
▁vidiyo 1
▁despite 1
▁replace 1
▁Ọchịchị 1
Therefore 1
▁compared 1
▁prophecy 1
▁sarkakiya 1
'? 1
RỌ 1
UR 1
CHỊ 1
pet 1
ups 1
who 1
zza 1
▁99 1
mụma 1
wale 1
▁Tre 1
▁ain 1
▁owo 1
▁cart 1
▁dust 1
▁sina 1
▁tear 1
▁tuto 1
allaka 1
urugwu 1
▁Cikin 1
▁Pouch 1
▁Taima 1
▁altar 1
▁idols 1
▁mmepe 1
▁ngọzi 1
▁onwun 1
▁songs 1
▁troub 1
▁waldi 1
aration 1
ignment 1
▁Comple 1
▁akwado 1
▁divine 1
▁gidaje 1
▁mgbidi 1
▁saduwa 1
achọpụta 1
▁Takarda 1
▁elderly 1
▁hankalin 1
▁họpụtara 1
▁manifest 1
▁recorded 1
▁Pharisees 1
▁nwatakịrị 1
▁industrial 1
▁agụmakwụkwọ 1
!+ 1
azu 1
fit 1
omb 1
sen 1
wọk 1
▁DC 1
jina 1
wuda 1
▁Izu 1
▁Kal 1
▁hoo 1
▁smo 1
igara 1
obere 1
▁hula 1
▁nine 1
▁tons 1
edient 1
▁Trade 1
▁autom 1
▁mbara 1
▁reign 1
▁thick 1
▁toler 1
▁yakin 1
fulness 1
ologies 1
▁Donald 1
▁Safety 1
▁gyaran 1
▁played 1
▁update 1
▁Amerịka 1
▁Further 1
▁intellig 1
▁jupụtara 1
ifications 1
▁Sakamakon 1
▁makarantu 1
▁descendants 1
ịn 1
ezo 1
▁KP 1
rian 1
vanọ 1
what 1
▁Sex 1
▁ark 1
▁ebo 1
▁òkù 1
anger 1
icott 1
▁Akwu 1
▁Kham 1
▁gent 1
▁meat 1
▁onto 1
agbata 1
orious 1
▁ibibi 1
▁sanye 1
ificate 1
respond 1
▁Nation 1
▁begins 1
▁candid 1
▁escape 1
▁fasali 1
▁nights 1
▁scared 1
▁ọdịmma 1
▁Ogologo 1
▁imagine 1
▁limited 1
▁partner 1
▁reviews 1
▁sararin 1
▁sharing 1
▁Yourself 1
▁medicine 1
▁tomorrow 1
▁whomever 1
▁Alzheimer 1
▁transform 1
▁Conference 1
▁Engineering 1
▁engineering 1
LI 1
ƙe 1
osa 1
▁vo 1
Idan 1
ofar 1
▁8:3 1
▁bia 1
abawa 1
erves 1
ogige 1
▁Duba 1
▁Njem 1
▁Nnam 1
▁OLEE 1
▁Self 1
▁Text 1
▁Tsak 1
▁Vers 1
▁Yank 1
▁bane 1
▁dete 1
▁edge 1
▁ọkwọ 1
nesday 1
soever 1
▁Still 1
▁fresh 1
▁murya 1
▁obula 1
adịkarị 1
▁afford 1
Kpachara 1
▁Vietnam 1
▁abincin 1
▁dabbobi 1
▁farashi 1
▁kalmomin 1
▁interesting 1
,. 1
:42 1
had 1
▁FG 1
hics 1
▁asc 1
▁tum 1
▁vit 1
▁Ịgụ 1
▁EFCC 1
▁Four 1
▁clin 1
▁rose 1
urable 1
vision 1
▁birds 1
▁faces 1
ealable 1
▁Masana 1
▁Taking 1
▁bought 1
▁canjin 1
▁manual 1
▁mejọrọ 1
▁mgbalị 1
▁Florida 1
▁Karanta 1
▁Perhaps 1
▁Student 1
▁concent 1
▁launuka 1
▁schools 1
▁storage 1
ilderness 1
▁Egyptian 1
▁attitude 1
▁birthday 1
▁movement 1
▁nọgidere 1
▁Resealable 1
▁processing 1
▁Switzerland 1
zị 1
from 1
insa 1
irai 1
pers 1
ịhịa 1
▁fab 1
▁huh 1
iment 1
olika 1
▁Chọọ 1
▁Fest 1
▁Shop 1
▁lawa 1
▁allon 1
▁curse 1
▁maọbụ 1
▁muhim 1
▁rsquo 1
▁sheet 1
▁Aikace 1
▁lasisi 1
▁rubuce 1
▁struck 1
ervation 1
▁Khamene 1
▁weather 1
▁WhatsApp 1
▁believer 1
▁hukuncin 1
▁intended 1
▁Wednesday 1
▁resources 1
1.9 1
KWA 1
fil 1
kawa 1
yata 1
▁KAR 1
▁gaj 1
▁ziy 1
cohol 1
ifies 1
ordin 1
▁Mesh 1
▁apps 1
▁jiya 1
▁2013. 1
▁Bonus 1
▁Hello 1
▁Price 1
▁latsa 1
▁schol 1
▁agbalị 1
▁magang 1
▁multip 1
▁refuge 1
▁ruleti 1
▁Ezinụlọ 1
▁Janairu 1
▁nụbeghị 1
▁station 1
Converter 1
▁Assembly 1
▁Ellicott 1
▁creating 1
▁hospital 1
▁occasion 1
▁requires 1
▁sentence 1
▁girmamawa 1
▁multitude 1
▁tutocinsu 1
▁Trenbolone 1
▁makarantar 1
27 1
GO 1
HS 1
PP 1
▁OS 1
▁SH 1
ojii 1
▁Esa 1
▁azù 1
addun 1
build 1
ether 1
usive 1
▁Bisa 1
▁Dịka 1
▁Move 1
▁jiho 1
▁quit 1
▁yeah 1
ughter 1
ushing 1
▁2016, 1
▁Store 1
▁depth 1
▁kofin 1
▁tarin 1
▁waste 1
▁worse 1
▁zunub 1
▁Ọnọdụ 1
▁ọwụwa 1
ructure 1
▁Galili 1
▁easier 1
▁mainly 1
▁matara 1
▁secure 1
▁steeti 1
atụkwasị 1
echebara 1
ghachiri 1
▁Ireland 1
▁anabata 1
▁Colorful 1
▁Majalisa 1
▁Yawancin 1
▁amincewa 1
▁clothing 1
▁samfuran 1
▁guarantee 1
▁jijiyoyin 1
▁aghaghịkwa 1
▁countertops 1
▁UniConverter 1
FE 1
vis 1
nụnụ 1
▁11, 1
▁Age 1
▁Own 1
▁anu 1
▁ịta 1
▁ọdọ 1
break 1
kanci 1
oboam 1
▁AIDS 1
▁Edge 1
▁Ever 1
▁Poly 1
▁Pray 1
▁Town 1
▁dasu 1
▁ndia 1
▁ring 1
▁Ọrịa 1
Alaeze 1
encies 1
istoci 1
▁Mount 1
▁halar 1
▁mista 1
▁owner 1
▁radio 1
▁tụfuo 1
▁walls 1
▁ọlụlụ 1
adịgide 1
emetụta 1
ruption 1
▁Direct 1
▁Invest 1
▁ambata 1
▁expert 1
▁kalmar 1
▁launch 1
▁umarni 1
ibration 1
▁Airport 1
▁Muslims 1
▁anxiety 1
▁filayen 1
▁Filistia 1
▁nabatara 1
▁continues 1
▁matsakaici 1
Ad 1
Fi 1
UM 1
ext 1
rug 1
▁lẹ 1
itch 1
▁Dub 1
▁abo 1
▁oro 1
emeso 1
▁Dole 1
▁Gama 1
▁Hụrụ 1
▁Mala 1
▁kwas 1
▁pron 1
▁root 1
chaghị 1
kọtara 1
▁Henry 1
▁Samar 1
▁broke 1
▁emere 1
▁ewere 1
▁horar 1
▁pride 1
▁assist 1
▁terror 1
▁Mgbanwe 1
▁nkwenye 1
▁warning 1
▁Fabrairu 1
▁behavior 1
▁sababbin 1
▁interview 1
▁preaching 1
21 1
Ot 1
ịm 1
▁PP 1
▁ww 1
onym 1
road 1
▁Mir 1
▁Nzu 1
▁Yau 1
▁dys 1
▁ụtụ 1
ciful 1
zanni 1
▁23:4 1
▁Budd 1
▁Kids 1
▁Link 1
▁Maga 1
▁Mass 1
▁Prot 1
▁kụrụ 1
▁surv 1
▁susp 1
▁wuru 1
▁Local 1
▁Naira 1
▁optim 1
▁perce 1
▁views 1
▁zaton 1
▁Concer 1
▁Submit 1
▁chukwu 1
▁dokoki 1
▁dredge 1
▁preach 1
▁stands 1
▁street 1
▁Chegodị 1
▁Knowing 1
▁Sameria 1
▁Naijiria 1
▁Portugal 1
▁tambayar 1
▁celebrate 1
▁stainless 1
GBO 1
▁59 1
▁Op 1
Luke 1
anny 1
char 1
fuka 1
iday 1
ọgbọ 1
▁Nic 1
▁Pub 1
apụta 1
huwar 1
▁Club 1
▁Jing 1
▁KYAU 1
▁Nuwa 1
▁batu 1
▁tone 1
▁vote 1
otions 1
▁Email 1
▁Photo 1
▁Using 1
▁canal 1
▁dozie 1
▁river 1
▁south 1
▁vidio 1
addamar 1
limited 1
▁Dawuda 1
▁Shigar 1
▁fannin 1
▁fields 1
▁nrụọrụ 1
▁Genesis 1
▁Nations 1
▁Removal 1
▁applied 1
▁driving 1
▁enweghi 1
▁jaridar 1
▁oleekwa 1
▁onwunwe 1
▁proceed 1
▁serpent 1
▁shugaba 1
▁testing 1
▁Medicine 1
▁Progress 1
▁approved 1
▁document 1
▁feedback 1
AH 1
AK 1
115 1
▁CP 1
▁gā 1
▁tẹ 1
▁yu 1
ione 1
stal 1
will 1
▁20% 1
▁800 1
▁Eag 1
▁Inc 1
▁Oil 1
▁aja 1
▁ezo 1
apore 1
icone 1
rụndụ 1
uries 1
▁KWES 1
▁Sule 1
▁blue 1
▁conv 1
▁inqu 1
▁laka 1
▁taga 1
iverse 1
▁Young 1
▁amasị 1
▁chọta 1
▁dying 1
▁equal 1
▁jikwa 1
▁wheel 1
pective 1
taining 1
▁Contin 1
▁convin 1
▁jidere 1
piration 1
▁Italiya 1
▁cikinsu 1
▁delight 1
▁hotunan 1
▁rukunin 1
▁ntụrụndụ 1
▁possibly 1
▁translations 1
?. 1
LY 1
nel 1
▁KU 1
▁Opp 1
▁cos 1
▁lan 1
▁rrọ 1
▁Ịme 1
▁ịza 1
every 1
gbere 1
urran 1
▁Achọ 1
▁Loss 1
▁Pers 1
▁Plan 1
▁ntak 1
▁sere 1
alight 1
ateful 1
mptoms 1
▁barga 1
▁gọzie 1
▁heads 1
▁kware 1
▁omimi 1
▁Ọmụmụ 1
Ịntanet 1
▁Bayani 1
▁Rubber 1
▁Screen 1
▁claims 1
▁flight 1
▁mkpịsị 1
▁rubber 1
▁talked 1
graduate 1
kọtachaa 1
▁Gabriel 1
▁Swedish 1
▁bututun 1
▁kwadebe 1
▁sunayen 1
▁daidaito 1
▁pregnant 1
▁whenever 1
▁buildings 1
▁dedicated 1
▁everybody 1
▁littattafai 1
36 1
nwụ 1
▁5: 1
▁Wi 1
▁mẹ 1
▁17) 1
▁2:1 1
▁90% 1
▁Ntị 1
▁ben 1
▁enw 1
▁ken 1
▁maz 1
▁zip 1
▁ụzụ 1
Tunes 1
▁Beth 1
▁Matt 1
▁Muka 1
▁achụ 1
▁edit 1
▁zaba 1
Wannan 1
cision 1
ritory 1
▁Bango 1
▁Frame 1
▁Yayin 1
▁ijeri 1
▁passa 1
▁storm 1
▁sweet 1
▁Agency 1
▁Indian 1
▁Thomas 1
▁ahụike 1
▁kunnen 1
▁lights 1
▁netwọk 1
ximately 1
▁Library 1
▁Mmetụta 1
▁Satumba 1
▁kwetara 1
▁mekwara 1
▁Everyone 1
▁messages 1
▁surprise 1
▁Singapore 1
▁yesterday 1
▁electronic 1
▁kekọtachaa 1
▁revelation 1
▁ɓangarorin 1
ND 1
ɗe 1
.'" 1
ƙar 1
▁ME 1
hand 1
weet 1
▁Cos 1
▁Upd 1
▁kul 1
▁naú 1
crete 1
▁Burn 1
▁Cost 1
▁Date 1
▁Jama 1
▁roof 1
rehens 1
▁2016. 1
▁Austr 1
▁Fence 1
▁Janar 1
▁Nkọwa 1
▁abụrụ 1
▁azumi 1
▁guess 1
▁kalla 1
▁kpere 1
▁kọwaa 1
▁nnyịn 1
▁param 1
▁sashe 1
▁tsoro 1
▁Create 1
▁ahịhịa 1
▁behalf 1
▁emehie 1
▁seemed 1
▁summer 1
▁igbochi 1
▁invited 1
▁kyautar 1
▁optical 1
▁examples 1
▁iyakokin 1
▁shiryawa 1
▁Birtaniya 1
▁conversion 1
:39 1
ezu 1
idu 1
▁58 1
▁Om 1
▁km 1
▁yo 1
atom 1
▁Pil 1
▁Vid 1
▁sif 1
▁www 1
▁ọmọ 1
icted 1
place 1
ushed 1
zinye 1
▁Circ 1
▁Dare 1
▁Phil 1
▁ịghọ 1
Please 1
▁Chris 1
▁Youth 1
▁alamu 1
▁canje 1
▁inner 1
▁kanku 1
▁rawar 1
▁reven 1
Akwụkwọ 1
▁iTunes 1
▁warned 1
▁dalilai 1
▁letters 1
▁nweekwa 1
▁refused 1
▁Katolika 1
▁heavenly 1
▁kpọchiri 1
▁Gigalight 1
▁creatures 1
▁financial 1
▁Protection 1
▁impossible 1
▁wilderness 1
▁disobedience 1
▁automatically 1
Ga 1
sar 1
ste 1
ẽwa 1
alls 1
gozi 1
iaka 1
▁15, 1
▁dil 1
▁ọny 1
alley 1
apers 1
ghari 1
ghere 1
sychi 1
▁Baya 1
▁fans 1
▁igwu 1
▁kofa 1
▁kwus 1
▁spot 1
father 1
onders 1
orough 1
▁Judas 1
▁Sugar 1
▁daina 1
▁feder 1
▁turns 1
▁Mexico 1
▁Rather 1
▁kọwara 1
▁nnyefe 1
▁Gudanar 1
▁awesome 1
▁beloved 1
▁elekere 1
▁gakwuru 1
▁officer 1
▁opinion 1
▁society 1
▁ịchụàjà 1
▁supplier 1
▁introduced 1
▁matsakaicin 1
QL 1
eli 1
oba 1
ysi 1
▁ax 1
▁cm 1
.16_ 1
ango 1
cket 1
fere 1
fits 1
ords 1
rịka 1
ynam 1
▁12. 1
▁4:1 1
▁Fig 1
▁Six 1
▁Thu 1
▁baa 1
▁Ịzụ 1
canje 1
otrop 1
warai 1
▁Cana 1
▁Deep 1
▁Jide 1
▁Past 1
▁Shir 1
▁[1.9 1
▁damu 1
▁jump 1
▁spir 1
▁ịrịọ 1
ulator 1
▁Emela 1
▁Month 1
▁Short 1
▁Solve 1
▁error 1
▁minds 1
▁sashi 1
▁Valent 1
▁honour 1
▁mepere 1
▁gaggawa 1
▁narkewa 1
▁pattern 1
▁sources 1
▁village 1
▁[1.9.16_ 1
▁cochlear 1
▁disbelie 1
▁discover 1
▁exterior 1
▁Wikipedia 1
▁nzaghachi 1
▁department 1
▁Nevertheless 1
CI 1
fị 1
Ama 1
oph 1
sis 1
sol 1
ãli 1
▁nā 1
mers 1
otic 1
▁Atọ 1
▁Bre 1
▁Imo 1
▁NEW 1
▁jac 1
▁ntu 1
▁Unic 1
▁debt 1
▁nasa 1
▁tend 1
ounded 1
▁forty 1
▁homes 1
achịkwa 1
▁akalla 1
▁domain 1
▁explan 1
▁finger 1
▁gospel 1
▁posted 1
▁riches 1
▁verses 1
▁depends 1
▁labarun 1
▁updates 1
▁bambanta 1
▁believes 1
▁critical 1
▁treasure 1
▁forgotten 1
▁frequency 1
▁sunadarai 1
▁institution 1
▁maintenance 1
Gb 1
SI 1
UL 1
▁^ 1
.1. 1
sed 1
sha 1
▁ny 1
▁ỌN 1
ples 1
▁Hur 1
▁Ish 1
▁cro 1
▁det 1
▁ete 1
▁foc 1
▁lon 1
▁naa 1
▁nga 1
▁Ụtọ 1
".... 1
ejide 1
hirin 1
ikima 1
pụkwa 1
▁Hann 1
▁Kaya 1
▁Tech 1
▁rout 1
▁sole 1
▁zụrụ 1
▁2018, 1
▁Adamu 1
▁Ndidi 1
▁Pract 1
▁Texas 1
▁dress 1
▁falls 1
▁quant 1
emegide 1
▁Fasaha 1
▁Higher 1
▁adires 1
▁batara 1
▁esighị 1
▁maraba 1
▁survey 1
▁tsoron 1
▁Tụkwasị 1
▁confirm 1
▁karamar 1
▁thereof 1
▁Yahudawa 1
▁election 1
▁programs 1
▁cututtuka 1
▁messenger 1
▁commitment 1
▁constantly 1
▁everywhere 1
▁[1.9.16_115 1
▁description 1
ZE 1
zai 1
▁Ná 1
▁ai 1
▁wẹ 1
care 1
esty 1
gaba 1
▁20, 1
▁afo 1
▁gen 1
▁lụọ 1
▁Ịga 1
allin 1
olate 1
ophil 1
▁Alal 1
▁kiss 1
▁kotu 1
▁kwụọ 1
▁Glass 1
▁Later 1
▁costs 1
▁virus 1
▁Ekwela 1
▁Little 1
▁Prince 1
▁Yahaya 1
▁judged 1
▁mkpesa 1
▁sharud 1
▁thrown 1
▁Nwankwo 1
▁Philist 1
▁takarar 1
▁yiwuwar 1
▁anabolic 1
▁njirimara 1
▁absolutely 1
▁discovered 1
cm 1
▁é 1
:2, 1
Air 1
▁6: 1
kari 1
kwaa 1
ruct 1
▁Cov 1
▁Ile 1
▁ịla 1
eburu 1
enses 1
graph 1
▁Five 1
▁Hack 1
▁Sale 1
▁busy 1
▁gams 1
▁grew 1
▁hack 1
▁haya 1
▁weap 1
bsites 1
▁Clean 1
▁Dream 1
▁greet 1
▁occup 1
▁Adịghị 1
▁Jagora 1
▁Zamani 1
▁bottom 1
▁incred 1
▁leaves 1
▁signal 1
▁Apostle 1
▁Country 1
▁KWESỊRỊ 1
▁Nuwamba 1
▁Process 1
▁compare 1
▁healing 1
▁Exchange 1
▁Khamenei 1
▁Wasannin 1
▁occurred 1
▁indicator 1
▁[1.9.16_1159] 1
By 1
eyi 1
lix 1
▁LA 1
▁TM 1
▁Hom 1
▁dom 1
▁ker 1
▁spl 1
ayyar 1
dokwa 1
eters 1
▁2004 1
▁Cond 1
▁Foot 1
▁Gina 1
▁Hard 1
▁Jiji 1
▁Nanị 1
▁Phys 1
▁Roma 1
▁Zeal 1
▁flee 1
▁klas 1
▁reco 1
▁ugwo 1
▁ọgba 1
ursing 1
▁Aikin 1
▁Analy 1
▁Influ 1
▁Jọdan 1
▁Yanar 1
▁kauce 1
▁tasks 1
▁ụbụrụ 1
▁elimin 1
▁nkwụsị 1
▁prefer 1
▁rikice 1
▁Command 1
▁Italian 1
▁bonuses 1
▁college 1
▁foolish 1
▁shaidar 1
▁Telegram 1
▁deafness 1
▁patience 1
▁ịchọpụta 1
▁newsletter 1
▁nkwụghachi 1
▁profession 1
dB 1
ãt 1
bas 1
ibe 1
isl 1
ogn 1
owo 1
▁DI 1
▁SO 1
Biko 1
ighi 1
▁Ent 1
▁Maj 1
▁Trị 1
▁rin 1
oving 1
▁Pope 1
▁allo 1
▁dike 1
▁kera 1
▁kifi 1
▁myst 1
Behold 1
ousing 1
▁2020, 1
▁Appro 1
▁facil 1
▁loyal 1
▁north 1
onyinyo 1
outhern 1
▁Island 1
▁Temple 1
▁Yahuza 1
▁abinda 1
▁belata 1
▁breast 1
▁gọziri 1
▁sought 1
▁arzikin 1
▁cikakke 1
▁kpuchie 1
▁tilasta 1
ekwesịghị 1
▁functions 1
▁lalacewar 1
▁matabeghị 1
▁supported 1
▁Australian 1
▁Ekweremadu 1
▁Application 1
▁comfortable 1
FA 1
Sp 1
já 1
arm 1
aya 1
azọ 1
uum 1
▁pu 1
▁ãy 1
Book 1
▁Hab 1
▁gay 1
amide 1
reesị 1
uting 1
▁Both 1
▁Forg 1
▁Gban 1
▁Jess 1
▁Mind 1
▁Sera 1
▁Yara 1
▁east 1
▁iron 1
▁ogbu 1
▁siga 1
pected 1
▁Danna 1
▁Delta 1
▁Frank 1
▁Leban 1
▁adapt 1
▁kasuw 1
▁tebụl 1
▁utter 1
enyocha 1
▁Having 1
▁Modern 1
▁kudade 1
▁kwayar 1
▁fahimta 1
▁peoples 1
▁primary 1
▁traffic 1
▁Tabbatar 1
▁numerous 1
▁valuable 1
adịkarịghị 1
▁Knowledge 1
▁components 1
▁Resurrection 1
32 1
uh 1
Our 1
gid 1
arko 1
osop 1
ọlik 1
▁Lou 1
▁Nda 1
▁Obu 1
▁Rot 1
▁pil 1
▁rod 1
▁sel 1
▁spr 1
▁tam 1
erior 1
osite 1
ruits 1
▁Feel 1
▁Pati 1
▁Very 1
▁ahia 1
▁alhẽ 1
▁auto 1
▁ceto 1
▁heed 1
▁isar 1
▁kuri 1
▁lest 1
▁Absal 1
▁Azịza 1
▁Mista 1
▁adult 1
▁baraz 1
▁redee 1
▁Kowane 1
▁Leader 1
▁Oleezi 1
▁Proble 1
▁Spring 1
▁danger 1
▁dukiya 1
▁tsabar 1
▁bitcoin 1
▁economy 1
▁granite 1
▁uweojii 1
▁resistant 1
▁surprised 1
▁associated 1
▁muhimmancin 1
:+ 1
!"+ 1
:9) 1
Oge 1
▁85 1
▁PM 1
▁Ud 1
enwu 1
izer 1
ktan 1
õyin 1
ịlọn 1
▁Cat 1
▁rat 1
anshi 1
hicle 1
▁Desp 1
▁Rece 1
▁fina 1
▁horn 1
▁izin 1
▁nufi 1
▁tash 1
▁wild 1
▁Grace 1
▁Trend 1
▁Woman 1
▁babba 1
▁ejiri 1
▁jirgi 1
▁nkuzi 1
▁nnụnụ 1
▁shout 1
▁Energy 1
▁Jirgin 1
▁Kanada 1
▁Marine 1
▁burned 1
▁ekworo 1
▁rapara 1
▁Ekwueme 1
▁Western 1
▁chetara 1
▁farfado 1
▁jarraba 1
▁masanin 1
▁wallafa 1
▁Industry 1
▁Sciences 1
▁relevant 1
▁tsarkake 1
▁Community 1
▁nchọgharị 1
▁conference 1
▁shugabanci 1
▁relationships 1
▁\ 1
KWỌ 1
Yes 1
ded 1
iry 1
▁NT 1
▁bẹ 1
"."+ 1
arịị 1
ghan 1
rust 1
▁Ake 1
▁Emb 1
▁Foc 1
▁ghi 1
▁gin 1
▁nzọ 1
alace 1
ester 1
grees 1
ikarị 1
inent 1
rates 1
tains 1
▁Anth 1
▁Stri 1
▁ahwo 1
▁dafa 1
▁grap 1
▁murd 1
▁tiri 1
▁Alham 1
▁Begin 1
▁Layer 1
▁Metal 1
▁ijide 1
▁kwado 1
▁rebel 1
▁valid 1
Mkpughe 1
knowing 1
▁cigaba 1
▁disobe 1
▁hidima 1
▁signed 1
▁sinner 1
▁welded 1
▁Jaridar 1
▁Related 1
▁portion 1
▁turning 1
▁ịnọgide 1
▁Interest 1
▁Standard 1
▁director 1
▁repeated 1
▁shopping 1
▁Newspaper 1
▁documents 1
▁generally 1
▁rigakafin 1
▁satisfied 1
▁Everything 1
▁Description 1
AP 1
:38 1
Ina 1
lli 1
mpi 1
rus 1
▁(5 1
▁Rị 1
days 1
kika 1
opia 1
▁Obs 1
▁Tok 1
▁zum 1
llers 1
▁Auto 1
▁Door 1
▁Fort 1
▁bish 1
▁datt 1
▁mort 1
▁sill 1
manuel 1
▁Ahụhụ 1
▁Malam 1
▁grown 1
anciyar 1
echiche 1
faction 1
▁Laraba 1
▁border 1
▁dalili 1
▁hikima 1
▁ikpebi 1
▁issued 1
▁Charles 1
▁Galilee 1
▁Sabuwar 1
▁edition 1
▁factors 1
▁harsuna 1
▁littafi 1
▁madaida 1
▁sincere 1
▁academic 1
▁measures 1
▁increasing 1
▁Christianity 1
fy 1
pị 1
Otú 1
bul 1
mir 1
▁3- 1
▁57 1
▁UV 1
KWUO 1
edia 1
esọs 1
hire 1
tịnụ 1
ɓaɓɓ 1
▁Nob 1
▁Pra 1
▁Thy 1
▁eva 1
▁nti 1
▁tou 1
ardar 1
arrun 1
▁FTTH 1
▁Fale 1
▁Requ 1
▁Size 1
▁Wait 1
▁Yuni 1
▁boys 1
▁dose 1
▁kedu 1
▁lard 1
▁ment 1
gorith 1
porate 1
ukakin 1
▁Labor 1
▁Makar 1
▁decre 1
▁Ndigbo 1
▁Really 1
▁Return 1
▁Virgin 1
▁adults 1
▁humble 1
▁matsin 1
▁muryar 1
▁unable 1
▁zigara 1
interest 1
kwunyere 1
▁Katọlik 1
▁Thought 1
▁follows 1
▁translated 1
-, 1
At 1
Cl 1
âh 1
▁ú 1
-11 1
itu 1
▁63 1
▁7) 1
Take 1
abet 1
kuna 1
uren 1
▁17. 1
▁Die 1
▁HIV 1
▁MKP 1
▁ekp 1
▁kak 1
▁kif 1
▁kãf 1
▁nnu 1
▁nuk 1
▁wet 1
Every 1
agafe 1
arfin 1
ifier 1
viour 1
▁Girl 1
▁fice 1
▁loud 1
▁ware 1
enyefe 1
gments 1
itinin 1
▁2019, 1
▁birni 1
▁fixed 1
▁laifi 1
▁solid 1
ircraft 1
ophilia 1
▁Bauchi 1
▁Tagged 1
▁akporo 1
▁prompt 1
▁resear 1
▁thread 1
▁zutere 1
atụgharị 1
▁focused 1
▁mkpagbu 1
▁passion 1
▁sanarwa 1
▁seventh 1
▁vehicle 1
abịakwute 1
▁mummunan 1
▁sleeping 1
/# 1
47 1
TC 1
:8. 1
nis 1
unụ 1
ĩƙa 1
▁NỌ 1
:20) 1
arts 1
ekpo 1
▁360 1
▁Dim 1
▁Gil 1
▁whọ 1
asant 1
hamed 1
thren 1
warsa 1
▁auna 1
▁cere 1
▁desk 1
▁zabe 1
cluded 1
▁Ahmad 1
▁Ebere 1
▁estim 1
▁quote 1
abolism 1
▁Abinci 1
▁Mgbasa 1
▁annual 1
▁asleep 1
▁azurfa 1
▁career 1
igration 1
▁concern 1
▁failure 1
▁federal 1
▁kitchen 1
▁martani 1
▁ntakịrị 1
▁records 1
▁Allahnku 1
▁Northern 1
▁achieved 1
▁kilomita 1
▁gudanarwa 1
▁Federation 1
▁administration 1
"; 1
EH 1
ek 1
fs 1
900 1
ALA 1
reg 1
rem 1
ulo 1
▁Bú 1
▁oz 1
Read 1
hara 1
ikar 1
jiri 1
omar 1
othe 1
tube 1
▁17, 1
▁80% 1
▁Aff 1
▁Eee 1
▁ROM 1
▁Ven 1
▁dir 1
axial 1
▁Happ 1
▁Inte 1
▁Intr 1
▁bula 1
▁porn 1
lokaci 1
prises 1
▁Forex 1
▁Kenan 1
▁Nwata 1
▁absor 1
▁cells 1
▁kwaik 1
▁matar 1
▁shafa 1
▁Answer 1
▁Garden 1
▁Misira 1
▁alhẽri 1
▁buying 1
▁bọtịnụ 1
▁haƙuri 1
▁izinin 1
▁mezuru 1
▁powers 1
▁takwas 1
▁thirst 1
adịbeghị 1
▁Article 1
▁Nzọpụta 1
▁Parents 1
▁Popular 1
▁Zealand 1
▁deserve 1
▁fashion 1
▁initial 1
▁Moreover 1
▁halittar 1
▁miracles 1
▁negative 1
▁nsụgharị 1
▁Egyptians 1
Pl 1
ibl 1
bour 1
emer 1
inna 1
▁12, 1
▁18, 1
▁188 1
▁304 1
▁6:3 1
▁URL 1
,000. 1
icing 1
ijing 1
oputa 1
▁Nehe 1
▁dipl 1
▁ebee 1
▁egwú 1
▁ilmi 1
▁lamp 1
▁tomb 1
▁Ọjọọ 1
▁ọdụm 1
porary 1
▁Chọta 1
▁Dutch 1
▁Model 1
▁Nhazi 1
▁Words 1
▁Wurin 1
▁adaba 1
▁fault 1
▁feels 1
▁naira 1
▁ojuju 1
▁altern 1
▁basira 1
▁listed 1
▁sounds 1
▁Ụmụnna 1
▁Abincin 1
▁Against 1
▁Challen 1
▁Intanet 1
▁Private 1
▁Unicode 1
▁choices 1
▁falling 1
▁kamakwa 1
achọgharị 1
▁Manifest 1
▁external 1
▁maimaita 1
▁mkparịta 1
▁schedule 1
▁soldiers 1
▁Olileanya 1
▁institute 1
▁guaranteed 1
▁cryptocurrency 1
/5 1
?) 1
IR 1
▁â 1
mod 1
rit 1
ọhọ 1
alan 1
ales 1
hụhụ 1
rier 1
zugi 1
▁130 1
▁14. 1
▁Gom 1
▁Ice 1
▁Oga 1
▁mix 1
▁scr 1
akọrọ 1
fault 1
garta 1
ishes 1
night 1
useum 1
▁Fare 1
▁Grik 1
▁fann 1
▁maki 1
▁mane 1
▁Among 1
▁Smith 1
▁Topic 1
▁Years 1
▁ejiji 1
ternoon 1
▁Amaghị 1
▁Anaghị 1
▁Better 1
▁Lokaci 1
▁Police 1
▁Rosary 1
▁Savior 1
▁Shirye 1
▁extent 1
▁gentle 1
▁Abubuwa 1
▁Factory 1
▁halayen 1
▁Hospital 1
▁paradaịs 1
▁Secretary 1
▁happening 1
AC 1
OC 1
Ezi 1
TML 1
]". 1
col 1
haa 1
▁9, 1
▁mg 1
Look 1
agwụ 1
amps 1
▁900 1
▁Dad 1
▁Sho 1
▁der 1
▁rot 1
arima 1
▁DMCA 1
▁karu 1
▁nime 1
▁rung 1
▁sịga 1
addada 1
omatic 1
▁Ahmed 1
▁Atụla 1
▁Quran 1
▁backl 1
▁kauri 1
▁rabin 1
▁Canaan 1
▁Korean 1
▁achọrọ 1
▁detail 1
▁Zamfara 1
▁exalted 1
▁fasalin 1
▁sending 1
▁tallafi 1
▁unclean 1
▁Jeremaya 1
▁sanarwar 1
▁shipping 1
▁operating 1
:) 1
leg 1
uga 1
ụmụ 1
data 1
▁Ess 1
▁Ult 1
▁aru 1
▁ihi 1
▁rue 1
▁sum 1
▁typ 1
laced 1
▁Dear 1
▁inch 1
▁sait 1
▁yoke 1
▁zoro 1
masihu 1
▁Kashe 1
▁Total 1
▁Voice 1
▁gonna 1
▁imper 1
▁nwetụ 1
▁smoke 1
▁Pharma 1
▁agreed 1
▁bitter 1
▁smooth 1
▁verily 1
▁wutere 1
▁Disamba 1
▁Halitta 1
▁Jinghao 1
▁besides 1
▁matattu 1
▁Mountain 1
▁announce 1
▁arrested 1
▁articles 1
▁chọkwara 1
▁gọọmenti 1
▁mallakar 1
▁magunguna 1
IB 1
LD 1
La 1
TỌ 1
▁Ṅ 1
MAN 1
juo 1
rie 1
▁dũ 1
▁ul 1
muma 1
▁Chu 1
▁DNA 1
▁Hop 1
▁Jik 1
▁Las 1
▁Oba 1
▁Onw 1
▁Pas 1
▁Tsa 1
▁fon 1
▁nká 1
▁ọsụ 1
ekiri 1
elled 1
iture 1
▁Copy 1
▁Left 1
▁Ruth 1
▁Wood 1
▁weep 1
kwuuru 1
worthy 1
▁Dokar 1
▁Nkebi 1
▁blame 1
▁shafe 1
ataccen 1
▁KYAUTA 1
▁assess 1
▁jawabi 1
▁naúrar 1
anwụrịrị 1
wararrun 1
▁cinikin 1
▁kunnuwa 1
▁manufar 1
▁meghere 1
▁sealing 1
▁totally 1
▁tsamman 1
ibilities 1
▁Tantance 1
▁Yarjejen 1
▁audience 1
▁breaking 1
▁choosing 1
▁fighting 1
▁recovery 1
▁speakers 1
▁weakness 1
▁Oleekwanụ 1
▁Revolution 1
▁remembered 1
Ku 1
-12 1
CHI 1
erg 1
mus 1
osu 1
sey 1
utr 1
vor 1
whe 1
▁IG 1
gery 1
graf 1
ince 1
izes 1
oche 1
pool 1
▁Akw 1
▁Isn 1
▁Pan 1
▁ilu 1
▁mpụ 1
▁nda 1
▁tuk 1
▁Òtù 1
adọrọ 1
agọzi 1
clear 1
ircle 1
▁Bull 1
▁Drag 1
▁Emer 1
▁Hill 1
▁Nebu 1
▁Okon 1
▁bamb 1
▁leba 1
▁miri 1
tanetị 1
▁2019. 1
▁Armen 1
▁Ejila 1
▁Shafi 1
▁hoton 1
▁lands 1
quality 1
▁bukaci 1
▁haraji 1
▁marufi 1
▁njikwa 1
elekwasị 1
▁Beijing 1
▁Litinin 1
▁adopted 1
▁daliban 1
▁nagarta 1
▁ɓangare 1
▁Farashin 1
▁brethren 1
▁identify 1
▁iniquity 1
▁precious 1
▁gbaghaara 1
▁commercial 1
▁appointment 1
▁kwamfutarka 1
NS 1
VE 1
WO 1
olo 1
▁2- 1
▁IV 1
▁WP 1
▁Wu 1
▁nũ 1
aldo 1
anun 1
auna 1
erce 1
ulin 1
▁13. 1
▁18. 1
▁Cze 1
orted 1
ukaka 1
xious 1
▁1960 1
▁Hung 1
▁lips 1
▁push 1
uliaka 1
▁Damas 1
▁Force 1
▁etiti 1
▁funds 1
▁karni 1
▁nkịta 1
▁solve 1
agwakwa 1
▁Border 1
▁Eagles 1
▁Strong 1
▁akpali 1
▁expand 1
▁paying 1
▁Babịlọn 1
▁Littafi 1
▁Release 1
▁complex 1
▁haramta 1
▁jaddada 1
▁Almasihu 1
▁hundreds 1
▁sauraren 1
▁ịntanetị 1
▁confirmed 1
▁gagarumin 1
▁installed 1
▁relatives 1
▁medication 1
dee 1
fra 1
pat 1
▁mũ 1
ghai 1
▁Asa 1
▁Tin 1
▁bie 1
chang 1
ebute 1
gbula 1
point 1
unshi 1
wanda 1
▁Bags 1
▁Mota 1
▁adam 1
▁rent 1
▁snow 1
▁2020. 1
▁Sunan 1
▁bible 1
▁grain 1
▁paint 1
▁sends 1
osimiri 1
▁Future 1
▁attrib 1
▁freely 1
▁haƙĩƙa 1
▁marubu 1
▁proced 1
▁strict 1
▁switch 1
▁Current 1
▁Denmark 1
▁Oleekwa 1
▁attacks 1
▁baptism 1
▁degrees 1
▁excited 1
▁gbochie 1
▁illness 1
▁kamfani 1
▁package 1
▁Aluminum 1
▁anointed 1
▁kyautata 1
▁partners 1
▁suffered 1
▁websites 1
▁tsammanin 1
▁authorities 1
IGH 1
Wor 1
dia 1
oty 1
▁AG 1
▁CC 1
▁ns 1
Land 1
abis 1
bles 1
empe 1
enna 1
iano 1
idem 1
ques 1
▁Lai 1
▁eth 1
▁ice 1
▁nkp 1
icide 1
orses 1
sians 1
▁Euro 1
▁HTML 1
▁Kanu 1
▁Sapp 1
▁acts 1
▁blow 1
▁hall 1
▁rely 1
▁Ebram 1
▁Ident 1
▁Kiwon 1
▁Slate 1
▁Visit 1
▁anwụọ 1
▁dakar 1
▁dịịrị 1
▁kpebi 1
▁mutãn 1
▁viney 1
▁Esther 1
▁Wajibi 1
▁corner 1
▁facing 1
▁famine 1
▁Install 1
▁Whether 1
▁makamai 1
▁database 1
▁properly 1
▁stronger 1
▁Manifesto 1
▁determine 1
▁insurance 1
▁introduction 1
41 1
Se 1
:41 1
Pal 1
gly 1
sea 1
spe 1
tra 1
Ọrụ 1
term 1
ulum 1
unte 1
well 1
▁187 1
▁Eph 1
▁Nkw 1
▁Sar 1
Point 1
ansom 1
liers 1
ummai 1
▁Clin 1
▁Rest 1
▁Stay 1
▁Zere 1
▁chụọ 1
▁dish 1
▁item 1
▁liqu 1
▁slot 1
ensity 1
▁2015, 1
▁Event 1
▁Ghana 1
▁fushi 1
▁ikuku 1
▁manta 1
▁ojiji 1
ctional 1
▁Though 1
▁buried 1
▁dabere 1
▁hakora 1
▁mazugi 1
▁Yanayin 1
▁creator 1
▁kasafin 1
▁license 1
▁yunkuri 1
▁Continue 1
▁Proverbs 1
▁decibels 1
▁kwesịghị 1
▁launched 1
▁abundance 1
▁chegharịrị 1
▁discussion 1
▁institutions 1
UD 1
pm 1
:6, 1
▁"[ 1
▁5) 1
ANTA 1
Love 1
Well 1
abor 1
akpụ 1
▁Anọ 1
▁HGH 1
▁Lah 1
▁OZI 1
▁ode 1
abbai 1
aibol 1
gener 1
igayi 1
lehem 1
ounce 1
uters 1
▁2005 1
▁Mayu 1
▁Ways 1
▁goge 1
▁nupụ 1
▁poll 1
cciyar 1
ronics 1
takịrị 1
▁2017, 1
▁Asiya 1
▁Czech 1
▁Kudin 1
▁Manzo 1
▁Movie 1
▁SOLAS 1
▁appar 1
▁banki 1
▁eriri 1
▁holds 1
▁joint 1
▁manya 1
▁ntutu 1
▁zargi 1
achọghị 1
egbochi 1
iscient 1
▁Talata 1
▁cinika 1
▁dollar 1
▁driver 1
mination 1
▁Ebaibol 1
▁batirin 1
▁browser 1
▁channel 1
▁experts 1
▁managed 1
▁mugunta 1
▁Ịmepụta 1
▁Ụlọikpe 1
▁Policies 1
▁Recovery 1
▁carrying 1
▁husbands 1
▁networks 1
▁referred 1
▁sadaukar 1
▁expressed 1
▁interface 1
▁definition 1
▁inhabitants 1
▁Construction 1
yn 1
:40 1
dis 1
kpi 1
ỌRỌ 1
▁Aj 1
▁QS 1
fast 1
oxid 1
▁Ewe 1
▁jụụ 1
▁lub 1
▁raw 1
comes 1
ptide 1
quari 1
walla 1
▁Bụrụ 1
▁Cele 1
▁Ephe 1
▁guje 1
▁kwam 1
▁lock 1
▁logo 1
▁mabi 1
▁spam 1
▁visa 1
▁2011. 1
▁Award 1
▁Poker 1
▁Sudan 1
▁etern 1
▁hosts 1
▁jiyya 1
▁likit 1
▁nkekọ 1
▁watsi 1
▁weren 1
▁ịkọrọ 1
llywood 1
▁Photos 1
▁Season 1
▁alhãli 1
▁camera 1
▁eduhie 1
▁karɓar 1
▁nnwere 1
▁rebell 1
▁Tarayya 1
▁adreesị 1
▁akwukwọ 1
▁alcohol 1
▁bayyane 1
▁journal 1
▁kumburi 1
▁umurnin 1
▁Archives 1
▁Gentiles 1
▁changing 1
▁creative 1
▁nitrogen 1
▁officers 1
▁rigakafi 1
▁symptoms 1
▁akpọkwala 1
▁eventually 1
▁tabbatarwa 1
▁Administration 1
/0 1
ARS 1
VER 1
aho 1
gwé 1
ibu 1
lan 1
sex 1
▁ii 1
Aịza 1
▁1.1 1
▁1.5 1
▁189 1
▁30, 1
▁Ado 1
▁PDF 1
▁Tam 1
▁err 1
▁tro 1
▁zuo 1
▁ịdọ 1
eduga 1
grade 1
kọghị 1
ocent 1
▁5000 1
▁Save 1
▁icon 1
▁kank 1
teries 1
▁Jonah 1
▁Study 1
▁Touch 1
▁finds 1
▁ordin 1
▁sides 1
▁sugar 1
▁tough 1
▁yanka 1
▁Beauty 1
▁Module 1
▁Posted 1
▁dumama 1
▁famili 1
▁fourth 1
▁manema 1
▁nweere 1
▁saitin 1
▁server 1
▁ƙwarai 1
ekwurịta 1
▁Finland 1
▁Journal 1
▁Nchekwa 1
▁biyayya 1
▁dollars 1
▁noticed 1
▁passing 1
▁shahara 1
▁visited 1
▁accounts 1
▁approval 1
▁hannunsa 1
▁machining 1
▁yarjejeniyar 1
▁organizations 1
23 1
2: 1
Ne 1
▁Ɗ 1
Ilu 1
ebo 1
met 1
uls 1
urg 1
▁(6 1
▁1/ 1
▁5% 1
▁AR 1
▁Du 1
cest 1
erna 1
▁1:1 1
▁Ant 1
▁Gra 1
▁LLC 1
▁tim 1
akara 1
ospit 1
▁Bike 1
▁Joab 1
▁Koda 1
▁Made 1
▁Naij 1
iyarwa 1
▁babur 1
▁brave 1
▁civil 1
▁craft 1
▁crazy 1
▁cream 1
▁guilt 1
▁ignor 1
▁jinsi 1
▁kpara 1
▁noted 1
▁rapid 1
▁sayen 1
Because 1
▁23:43) 1
▁Afrịka 1
▁Tashar 1
▁factor 1
▁gwiwar 1
▁jarida 1
▁lesson 1
▁talent 1
gwurugwu 1
▁Finding 1
▁Islands 1
▁Teacher 1
▁ihuenyo 1
▁publish 1
▁batutuwa 1
▁elements 1
▁exchange 1
▁bambancin 1
▁background 1
▁instructed 1
▁relatively 1
:8) 1
bis 1
pal 1
▁Iz 1
▁ub 1
dịrị 1
ffee 1
furu 1
hare 1
isin 1
wala 1
wing 1
ãnar 1
ãnin 1
▁CEO 1
▁MAI 1
▁nic 1
▁yok 1
These 1
emeri 1
joice 1
rison 1
▁cris 1
▁duhu 1
▁flat 1
▁gaza 1
▁ofis 1
▁park 1
▁stim 1
▁vent 1
▁yawo 1
dancin 1
icking 1
▁Maria 1
▁Third 1
▁cycle 1
▁ninka 1
▁teams 1
adabere 1
▁Greece 1
▁Scient 1
▁kokari 1
▁Nlekọta 1
▁drawing 1
▁manager 1
▁talatin 1
▁yankuna 1
▁achịkọta 1
▁kwenyere 1
▁Analytics 1
▁instrument 1
▁Tantancewar 1
Co 1
Te 1
-30 1
ãne 1
▁Ny 1
idid 1
mere 1
page 1
▁Jet 1
▁cub 1
▁ofu 1
▁van 1
inery 1
usoro 1
▁Jona 1
▁YOUR 1
▁calm 1
▁deny 1
▁fold 1
▁koyo 1
▁mail 1
▁nwed 1
▁salo 1
▁zere 1
▁Allâh 1
▁Amụma 1
▁assum 1
▁robot 1
▁tsamm 1
▁tweet 1
umnuche 1
▁Kratom 1
▁amaala 1
▁covers 1
▁refuse 1
▁rụchaa 1
▁tufafi 1
wareness 1
▁Details 1
▁Express 1
▁Ronaldo 1
▁canzawa 1
▁halarci 1
▁murabba 1
▁rikodin 1
alaghachi 1
▁accurate 1
▁listened 1
▁supports 1
▁wherever 1
▁Financial 1
▁kungiyoyi 1
": 1
-. 1
wr 1
ees 1
pto 1
▁01 1
▁62 1
anwu 1
uese 1
warị 1
▁6.5 1
▁Cin 1
▁Map 1
▁mwe 1
▁ỤMỤ 1
ipped 1
▁Cast 1
▁Jude 1
▁Shem 1
▁Sony 1
▁bold 1
▁diri 1
▁neck 1
▁shel 1
▁taus 1
▁vain 1
▁weta 1
KWỤKWỌ 1
guzosi 1
kamata 1
▁Focus 1
▁Gyara 1
▁Initi 1
▁Skype 1
▁Stage 1
▁Tsaro 1
▁diagn 1
▁ejije 1
▁tribe 1
▁worst 1
▁zurfi 1
▁ƙarar 1
olation 1
▁Doctor 1
▁Echefu 1
▁Middle 1
▁client 1
▁conver 1
▁jagora 1
▁karbar 1
▁sorrow 1
▁theirs 1
▁tseren 1
▁anwụọla 1
▁desired 1
▁killing 1
▁mutuwar 1
▁passage 1
▁spirits 1
▁friendly 1
▁resident 1
▁sanannen 1
▁steroids 1
▁ƙarancin 1
▁kpọlitere 1
▁protected 1
▁properties 1
▁reputation 1
▁sufficient 1
▁communicate 1
▁distribution 1
IG 1
Tru 1
asp 1
iji 1
uji 1
▁DH 1
▁Gọ 1
▁WA 1
luck 1
racy 1
▁Lay 1
▁Sem 1
▁Tab 1
▁Tik 1
alous 1
▁Cash 1
▁Iraq 1
▁grad 1
▁heal 1
▁nana 1
▁ƙari 1
azakwa 1
chekwa 1
▁conqu 1
▁goods 1
▁kaiwa 1
▁maras 1
▁poker 1
▁shoot 1
▁ịhazi 1
agbakwa 1
lements 1
▁Magung 1
▁abanye 1
▁accomp 1
▁bangas 1
▁bigger 1
▁hakika 1
▁hiding 1
▁minute 1
▁negosi 1
▁Success 1
▁diamita 1
▁emetụta 1
▁smoking 1
▁Articles 1
▁Computer 1
▁Sapphire 1
▁diseases 1
▁magazine 1
▁reliable 1
▁Champions 1
▁Pinterest 1
▁Madaukakin 1
▁mkpakọrịta 1
▁principles 1
▁establishment 1
2] 1
Ar 1
:9, 1
otú 1
▁ES 1
▁GỤ 1
▁Mp 1
/201 1
addy 1
odus 1
umer 1
upid 1
ọnye 1
▁Ari 1
▁Arụ 1
▁Awa 1
▁Bes 1
▁Inv 1
▁Oma 1
▁Tan 1
▁nme 1
▁rok 1
adian 1
arily 1
esium 1
kamar 1
lette 1
▁Ball 1
▁Kafa 1
▁Near 1
▁Zaka 1
▁bido 1
▁hagu 1
▁noma 1
▁sako 1
▁suit 1
▁wake 1
atarwa 1
▁Amaka 1
▁Cutar 1
▁Exper 1
▁Ikike 1
▁Image 1
▁Organ 1
▁Stock 1
▁agọzi 1
▁dogar 1
▁iberi 1
▁idanu 1
▁imezu 1
▁immun 1
▁kpata 1
▁makwa 1
▁scene 1
▁shock 1
▁yawon 1
Jenesis 1
viation 1
▁Giving 1
▁Nnamdi 1
▁Yoruba 1
▁hijira 1
▁ikwere 1
▁rahoto 1
▁resist 1
▁zubere 1
▁Alhamis 1
▁Connect 1
▁Despite 1
▁Formats 1
▁Manager 1
▁charged 1
▁missing 1
▁promote 1
▁Features 1
▁affected 1
▁inspired 1
▁yunkurin 1
▁Elizabeth 1
▁adireshin 1
▁glorified 1
▁daidaitawa 1
▁independent 1
▁registration 1
ZU 1
cu 1
fly 1
nce 1
zen 1
ọnọ 1
▁#1 1
▁AV 1
▁EP 1
▁Wo 1
ANYA 1
sell 1
▁16. 1
▁Anụ 1
▁Jah 1
alima 1
ctang 1
ewute 1
jiyar 1
legal 1
oning 1
osity 1
ulous 1
▁(200 1
▁2003 1
▁2006 1
▁Abba 1
▁Dest 1
▁Gizo 1
▁Hong 1
▁Juma 1
▁Mesa 1
▁Room 1
▁boat 1
▁dubi 1
▁enjo 1
▁fest 1
▁fled 1
▁gere 1
▁gwan 1
▁iyak 1
▁shin 1
▁ịchụ 1
▁Brian 1
▁Hotel 1
▁Maran 1
▁Nzuzo 1
▁Posts 1
▁Sound 1
▁Vidio 1
▁arrog 1
▁crown 1
▁kraft 1
▁react 1
▁stuck 1
Genesis 1
emekarị 1
▁Afrilu 1
▁Gụkwuo 1
▁anọghị 1
▁faster 1
▁mahara 1
▁nazari 1
▁rising 1
▁rosary 1
▁writes 1
▁Jenesis 1
▁alhakin 1
▁ashirin 1
▁cochlea 1
▁dakunan 1
▁kwarara 1
▁ƙarfafa 1
▁Learning 1
▁alamomin 1
chargeable 1
▁Mmekọrịta 1
▁persecute 1
▁sharuddan 1
▁tradition 1
▁vibration 1
▁Philistines 1
▁explanation 1
%, 1
JỌ 1
One 1
rah 1
▁CL 1
▁NC 1
▁Ti 1
▁Tw 1
heri 1
hium 1
raim 1
sake 1
this 1
ógbè 1
▁Buk 1
▁Got 1
▁Jee 1
▁Los 1
amawa 1
asses 1
iyata 1
ullah 1
▁Anim 1
▁Buru 1
▁Camb 1
▁Cher 1
▁Kere 1
▁alma 1
▁fage 1
▁info 1
▁ogwe 1
▁taya 1
▁wave 1
▁ziga 1
asonic 1
▁Beige 1
▁Girls 1
▁Jikọọ 1
▁Vegas 1
▁Yusuf 1
▁burnt 1
▁emeli 1
▁jiran 1
▁motiv 1
▁notes 1
▁scale 1
▁spins 1
emption 1
nership 1
ulating 1
▁Asabar 1
▁Efesọs 1
▁Halitt 1
▁combin 1
▁manage 1
▁relief 1
fficient 1
formance 1
▁Hebrews 1
▁parable 1
▁selling 1
abilities 1
▁Birthday 1
▁Economic 1
▁dandalin 1
▁declares 1
▁hukumomi 1
▁wepụtara 1
▁conducted 1
▁manufofin 1
▁principle 1
▁regularly 1
▁Democratic 1
▁Portuguese 1
▁correspond 1
▁industries 1
▁metabolism 1
▁generations 1
.- 1
Le 1
AST 1
hta 1
kad 1
ogu 1
rum 1
zor 1
▁MO 1
-201 1
athy 1
mony 1
▁Eld 1
▁Uwa 1
▁bya 1
▁enh 1
▁mmọ 1
▁ogo 1
▁ỌMA 1
▁ỤLỌ 1
amber 1
ewepụ 1
terol 1
uruwa 1
▁amba 1
▁bala 1
▁dual 1
▁oath 1
▁whis 1
dering 1
idodin 1
▁Carol 1
▁Civil 1
▁Lissa 1
▁Ngozi 1
▁analy 1
▁kweta 1
▁ruler 1
▁smile 1
Knowing 1
▁Indiya 1
▁arrive 1
▁compar 1
▁ekwere 1
▁forest 1
▁injury 1
▁masịrị 1
▁perish 1
▁rescue 1
▁saving 1
▁wakilt 1
▁Imagine 1
▁Ngwaọrụ 1
▁Nothing 1
▁William 1
▁akpọghị 1
▁ashamed 1
▁central 1
▁chọtara 1
▁objects 1
▁strateg 1
▁entirely 1
▁koyaushe 1
▁selected 1
▁yakamata 1
▁perfectly 1
▁characters 1
Can 1
agh 1
nan 1
ỌDỤ 1
▁"? 1
▁MG 1
enia 1
iece 1
kins 1
lers 1
lets 1
manu 1
ngwa 1
▁Ekp 1
▁ite 1
▁pig 1
▁tut 1
etime 1
▁Anal 1
▁Arts 1
▁Coll 1
▁Fund 1
▁Meta 1
▁Sche 1
▁argu 1
▁bush 1
▁cred 1
▁grie 1
▁kudu 1
istent 1
▁Alkur 1
▁Blood 1
▁Defin 1
▁Drive 1
▁Track 1
▁Works 1
▁chain 1
▁choro 1
▁emebi 1
▁grave 1
▁hazie 1
▁liken 1
▁sills 1
▁ọdịdị 1
cipline 1
essions 1
▁Agaghị 1
▁Nasara 1
▁Philip 1
▁abokai 1
▁dogaro 1
▁excess 1
▁lifted 1
▁mepụta 1
▁nyefee 1
▁tabbas 1
▁tattoo 1
▁Anthony 1
▁Levites 1
▁alleged 1
▁kimanta 1
▁nupụụrụ 1
▁recover 1
▁rungumi 1
▁wahalar 1
▁ƙarshen 1
▁Littafin 1
▁Magazine 1
▁Tarayyar 1
▁cleaning 1
▁distingu 1
▁goodness 1
▁grateful 1
▁hayaniya 1
▁mistakes 1
▁mkpanaka 1
▁reakwara 1
▁Production 1
▁Corporation 1
** 1
/7 1
hẹ 1
▁× 1
cop 1
ekp 1
ifa 1
▁NN 1
▁dã 1
▁jũ 1
▁zọ 1
cipl 1
kiah 1
look 1
onwu 1
rast 1
▁70% 1
▁Alj 1
▁arr 1
▁ble 1
▁ikp 1
▁shã 1
▁tip 1
abled 1
emetụ 1
heere 1
iccin 1
rants 1
▁Case 1
▁Esta 1
▁Gaba 1
▁juyi 1
▁loan 1
▁puts 1
▁toro 1
agbaso 1
▁2012, 1
▁Betel 1
▁Karịa 1
▁Ready 1
▁Relig 1
▁Round 1
▁Statu 1
▁admit 1
▁adopt 1
▁barci 1
▁goyan 1
▁haihu 1
▁hears 1
▁shift 1
▁taste 1
iblical 1
▁Akaeze 1
▁Credit 1
▁fought 1
▁sacred 1
▁tables 1
▁Writing 1
▁adịgide 1
▁buƙatun 1
▁ekwensu 1
▁kụziere 1
▁mallaki 1
▁minimum 1
▁overall 1
▁trusted 1
▁ọdịnihu 1
▁algorith 1
▁antioxid 1
▁apụtaghị 1
▁argument 1
▁contrary 1
▁register 1
▁sciences 1
▁tụgharịa 1
▁Meanwhile 1
▁injection 1
▁kwanciyar 1
WH 1
Mun 1
Sai 1
bow 1
hol 1
rif 1
sem 1
wwa 1
Amer 1
alty 1
iban 1
inct 1
ogen 1
▁21, 1
▁Eas 1
▁Ogo 1
▁kum 1
▁muj 1
▁rou 1
Total 1
abbar 1
amine 1
▁Dark 1
▁Kind 1
▁Must 1
▁akai 1
▁calc 1
▁diet 1
▁hole 1
▁ikpo 1
▁maha 1
▁phil 1
▁sans 1
▁swim 1
ebikwa 1
ehihie 1
irikpi 1
ocracy 1
uniyar 1
▁Asiri 1
▁Farin 1
▁Kings 1
▁forum 1
▁kotun 1
▁lambu 1
▁mount 1
▁oblig 1
▁odide 1
▁rates 1
▁sport 1
anapụta 1
kwarima 1
ọchịchị 1
▁Andrew 1
▁gained 1
▁komawa 1
▁nabata 1
▁phrase 1
▁values 1
▁Version 1
▁akpọchi 1
▁claimed 1
▁kunshin 1
▁nwedịrị 1
▁Olympics 1
▁extended 1
▁paragraf 1
▁bangarorin 1
▁possession 1
▁accomplished 1
▁satisfaction 1
▁Understanding 1
OK 1
ƙo 1
dea 1
nwe 1
▁NF 1
alee 1
artz 1
life 1
▁14, 1
▁Ata 1
▁Nze 1
▁PhD 1
▁ach 1
▁asa 1
▁nkọ 1
▁rad 1
aking 1
alibi 1
ocked 1
there 1
trans 1
wakpo 1
ziere 1
▁Chel 1
▁Draw 1
▁Ruhu 1
▁ampl 1
▁exec 1
▁hari 1
▁jail 1
▁mewo 1
▁nara 1
▁runs 1
▁sike 1
▁yace 1
echere 1
encing 1
tụrụla 1
▁Liver 1
▁Metat 1
▁Offic 1
▁edozi 1
▁hanci 1
▁mbido 1
▁omuma 1
▁wakil 1
enwekwa 1
kkyawan 1
▁Experi 1
▁forces 1
▁keɓaɓɓ 1
▁kpọọrọ 1
▁nyekwa 1
▁Ịghọta 1
▁anxious 1
▁ejikere 1
▁matarsa 1
▁nsọpụrụ 1
▁resurre 1
▁soyayya 1
▁Location 1
▁guzobere 1
▁obtained 1
▁struggle 1
▁terrible 1
▁tsohuwar 1
▁seriously 1
▁commission 1
▁convenient 1
▁magungunan 1
▁reasonable 1
▁Environment 1
▁advertising 1
33 1
Ek 1
dam 1
mun 1
ãra 1
èzi 1
ỤLỌ 1
▁BE 1
cken 1
ọngọ 1
▁(4) 1
▁Sch 1
▁Yọọ 1
▁ade 1
▁ikọ 1
▁mbi 1
▁mpị 1
amata 1
ppers 1
stone 1
umble 1
▁Luck 1
▁Okay 1
▁QSFP 1
▁Snap 1
▁astr 1
▁pipe 1
▁roll 1
▁teen 1
▁umur 1
▁Ụgha 1
emokwu 1
urious 1
uwansa 1
▁Ozizi 1
▁entry 1
▁psych 1
▁trave 1
ogether 1
▁10,000 1
▁Events 1
▁Excell 1
▁Midian 1
▁Shafin 1
▁biliri 1
▁meworo 1
▁nchara 1
▁sukari 1
▁Gbanwee 1
▁Introdu 1
▁Kimiyya 1
▁Message 1
▁younger 1
▁ịdabere 1
lications 1
▁Emmanuel 1
▁Military 1
▁Shanghai 1
▁bipụtara 1
▁concerns 1
▁entering 1
▁familiar 1
▁gaskiyar 1
▁kwarewar 1
▁printing 1
▁universe 1
▁alkawarin 1
▁consequences 1
Wa 1
".[ 1
oid 1
▁lụ 1
love 1
obar 1
osph 1
post 1
urdy 1
yyen 1
ƙule 1
▁API 1
▁BTE 1
▁GAS 1
▁Max 1
▁Nji 1
▁Rib 1
▁Rus 1
▁era 1
▁zal 1
amụrụ 1
assed 1
cular 1
going 1
haust 1
plate 1
posal 1
ships 1
▁Bulg 1
▁Mari 1
▁bawa 1
▁genu 1
▁sayi 1
▁zipụ 1
▁Ọfọn 1
▁Early 1
▁Saudi 1
▁bugun 1
▁grind 1
▁idozi 1
▁kpahe 1
▁mmezi 1
▁moist 1
▁rants 1
▁split 1
▁tower 1
▁zubar 1
atullah 1
osoever 1
▁Malays 1
▁Nature 1
▁Sannan 1
▁abroad 1
▁desert 1
▁ekwekọ 1
▁exists 1
▁ikwusa 1
▁kamuwa 1
▁lardin 1
▁models 1
▁occurs 1
▁spouse 1
▁writer 1
▁KARANTA 1
▁Nazaret 1
▁Senator 1
▁Shekaru 1
▁Systems 1
▁igiyoyi 1
▁kirkiro 1
▁neglect 1
▁touched 1
ekwekọghị 1
▁Advanced 1
▁hannunka 1
▁ntuliaka 1
▁thorough 1
▁connected 1
▁requirement 1
97 1
DS 1
TT 1
hid 1
paị 1
sin 1
▁72 1
▁Xi 1
▁nē 1
goya 1
icci 1
nels 1
udun 1
umps 1
▁350 1
▁FDA 1
▁Jaa 1
▁Pap 1
▁Vin 1
▁idu 1
▁pan 1
amari 1
angar 1
astis 1
erosp 1
esote 1
fashi 1
hiere 1
merce 1
metic 1
▁10:2 1
▁1990 1
▁Saut 1
▁Trin 1
▁aged 1
▁aven 1
▁milk 1
▁oghe 1
▁rinj 1
ikieme 1
lessed 1
orters 1
▁Injin 1
▁Okike 1
▁Ranar 1
▁Shigo 1
▁arise 1
▁faced 1
▁iburu 1
▁kulle 1
▁nwute 1
▁pione 1
▁premi 1
▁satan 1
▁tsayi 1
ekpuchi 1
ewetara 1
vereign 1
▁Berlin 1
▁Biafra 1
▁Chrome 1
▁ancest 1
▁assume 1
▁hospit 1
▁isiala 1
▁jikọrọ 1
▁kwance 1
▁mabiya 1
▁silent 1
▁tested 1
erospace 1
▁Explore 1
▁Filipaị 1
▁Reading 1
▁Taimaka 1
▁addinin 1
▁condemn 1
▁garkuwa 1
▁impress 1
▁insight 1
▁matasan 1
▁ngwụcha 1
▁teaches 1
▁ụlọikpe 1
▁discount 1
▁mpịakọta 1
▁Biophilia 1
▁afternoon 1
▁mkpirikpi 1
▁sovereign 1
▁daidaituwa 1
▁previously 1
KỌ 1
mut 1
urt 1
ịna 1
▁61 1
▁78 1
▁IM 1
abas 1
eral 1
hira 1
inal 1
ptop 1
zhou 1
▁Bol 1
▁Gur 1
▁Maq 1
▁Zay 1
▁emo 1
▁kin 1
▁kọn 1
▁maɓ 1
▁ngo 1
▁nin 1
andom 1
kwasa 1
sonaa 1
ukuwa 1
urunụ 1
▁Audi 1
▁Away 1
▁Path 1
▁Sani 1
▁Virt 1
▁WHSR 1
▁adul 1
▁ewee 1
▁flag 1
▁grat 1
▁indu 1
CHUKWU 1
ekweta 1
gwugwu 1
▁Girma 1
▁Hence 1
▁Okoro 1
▁Sales 1
▁Stren 1
▁accum 1
▁dabba 1
▁kusur 1
▁rough 1
▁tayin 1
▁tight 1
▁trend 1
▁zabin 1
▁PayPal 1
▁Quotes 1
▁Simple 1
▁Volume 1
▁assemb 1
▁fright 1
▁height 1
▁income 1
▁karuwa 1
▁lubric 1
▁matala 1
▁medium 1
▁stairs 1
▁tsaron 1
▁Onyeisi 1
▁Shekara 1
▁capable 1
▁enjoyed 1
▁helpful 1
▁ibudata 1
▁tambayi 1
▁tụkwasị 1
▁winning 1
▁ịkụziri 1
▁Benefits 1
▁Nchọpụta 1
▁Following 1
▁Solutions 1
▁mgbazinye 1
▁accordance 1
▁Translation 1
▁kwaskwarima 1
65 1
Mụ 1
Iwu 1
inc 1
umu 1
▁Pu 1
▁uf 1
erer 1
iton 1
mele 1
oral 1
sage 1
ọhịa 1
▁22, 1
▁Cer 1
▁Eri 1
▁MAN 1
▁Ogu 1
▁Ome 1
▁hes 1
▁jit 1
▁sow 1
akila 1
itage 1
which 1
▁Film 1
▁Guru 1
▁Kare 1
▁chap 1
▁damn 1
▁egbe 1
▁gbal 1
▁hare 1
▁nami 1
allery 1
asanjo 1
wering 1
▁2008. 1
▁2014, 1
▁Going 1
▁Large 1
▁Malta 1
▁drawn 1
▁gwani 1
▁gyare 1
▁kisan 1
▁ogige 1
▁shige 1
▁vital 1
▁Ọzụzụ 1
▁Palest 1
▁betray 1
▁ejighị 1
▁fruits 1
▁hotels 1
▁karami 1
▁ngọngọ 1
▁plants 1
▁ransom 1
▁refers 1
▁Foreign 1
▁Members 1
▁Pouches 1
▁anybody 1
▁consent 1
▁creates 1
▁Independ 1
▁Manzanni 1
▁describe 1
▁existing 1
▁wakiltar 1
▁Onyekwere 1
▁expensive 1
▁Industrial 1
▁advantages 1
▁controvers 1
▁onyeisiala 1
▁effectively 1
/20 1
Chi 1
May 1
dio 1
tha 1
▁Ij 1
▁SD 1
▁yã 1
ghee 1
ifer 1
kaya 1
tanụ 1
urai 1
▁160 1
▁Edo 1
▁Enc 1
▁Igb 1
▁LCD 1
▁VPN 1
▁Wak 1
▁Wat 1
▁kow 1
Truly 1
bochi 1
ermon 1
ogram 1
rader 1
ulner 1
▁garg 1
▁writ 1
▁Ịkwụ 1
...... 1
cribed 1
erving 1
hentic 1
ikanin 1
pụtala 1
ọrọgwụ 1
▁tests 1
sonance 1
ultural 1
▁Action 1
▁Mesaya 1
▁ambaci 1
▁cattle 1
▁crisis 1
▁dubban 1
▁gaming 1
▁hunger 1
▁merely 1
▁meters 1
▁movies 1
▁sojoji 1
▁tribes 1
▁ƙunshi 1
▁Premier 1
▁Studies 1
▁circuit 1
▁halittu 1
▁jawabin 1
▁siffofi 1
▁Teaching 1
▁informed 1
▁likeness 1
everything 1
▁expression 1
▁possibility 1
▁successfully 1
▁interpretation 1
▁characteristics 1
vẹ 1
)". 1
:3, 1
ɗan 1
Ukwu 1
cycl 1
gima 1
ulla 1
whel 1
▁30. 1
▁Tax 1
▁Umu 1
▁WHO 1
▁ads 1
▁dos 1
▁fly 1
▁rom 1
▁rum 1
alize 1
ategy 1
maker 1
okọta 1
ville 1
▁Okpu 1
▁Stan 1
▁Trip 1
▁Upon 1
▁buɗe 1
▁clar 1
▁giya 1
▁hasn 1
▁idol 1
▁lọta 1
▁pref 1
▁rela 1
Isaiah 1
agbasa 1
icious 1
woofer 1
▁2012. 1
▁Amara 1
▁Final 1
▁Signs 1
▁Sword 1
▁Tower 1
▁cache 1
▁chụpụ 1
▁drunk 1
▁emezu 1
▁imeri 1
▁imewe 1
▁janar 1
▁nsure 1
▁remar 1
▁upset 1
▁wanke 1
▁ɗauki 1
▁Asiria 1
▁Njikwa 1
▁agency 1
▁beside 1
▁egeghị 1
▁nobody 1
▁paving 1
▁ranked 1
ensation 1
▁Kirista 1
▁Prepare 1
▁Working 1
▁default 1
▁diamond 1
▁knoweth 1
▁planned 1
amakwụkwọ 1
▁Apostles 1
▁Response 1
▁citizens 1
▁ministan 1
oresonance 1
▁converter 1
▁dangerous 1
▁forgiving 1
▁generated 1
▁kpebiziri 1
▁practical 1
▁conclusion 1
▁shawarwari 1
▁statements 1
▁consumption 1
▁approximately 1
/8 1
:45 1
sịa 1
usu 1
viv 1
▁87 1
▁GO 1
▁PH 1
KIYA 1
ican 1
rite 1
sely 1
wayo 1
▁24. 1
▁Kee 1
▁Log 1
▁SMS 1
▁Tes 1
▁cow 1
▁Ịkw 1
▁Ọkụ 1
adịru 1
onent 1
zzage 1
▁Ethi 1
▁ITIL 1
▁Them 1
▁Yeah 1
▁boss 1
▁hutu 1
▁mask 1
▁nawa 1
▁pard 1
▁raun 1
akpọrọ 1
alejin 1
anọchi 1
manent 1
▁Honor 1
▁Tools 1
▁anọwo 1
▁forex 1
▁index 1
▁izere 1
▁kenan 1
▁nkata 1
ensions 1
sonaazụ 1
▁Obinna 1
▁Regard 1
▁Senate 1
▁Tinubu 1
▁advise 1
▁alheri 1
▁bashin 1
▁invite 1
▁jariri 1
▁muscle 1
▁ndokwa 1
▁tiyata 1
chinyere 1
▁Gọọment 1
▁Iranian 1
▁Kitchen 1
▁Richard 1
▁afflict 1
▁azọpụta 1
▁mkpuchi 1
▁monthly 1
▁shiryar 1
▁testify 1
▁warrant 1
▁zumunta 1
▁Delivery 1
▁category 1
▁constant 1
▁provider 1
▁Liverpool 1
▁gathering 1
▁judgement 1
▁transmission 1
)! 1
SE 1
fr 1
ọd 1
:44 1
Aga 1
BET 1
His 1
abo 1
bọn 1
des 1
dim 1
emp 1
gri 1
wid 1
▁AA 1
▁Eh 1
▁MS 1
▁SC 1
▁Yu 1
List 1
acce 1
irci 1
kata 1
made 1
rubu 1
sapp 1
▁15% 1
▁Cla 1
▁FOR 1
▁Pit 1
▁hia 1
▁oda 1
▁por 1
▁ƙwa 1
asịrị 1
endar 1
hovah 1
▁Band 1
▁excl 1
▁hadn 1
▁haɗi 1
▁hụla 1
▁kura 1
▁pour 1
▁Ọnwa 1
giving 1
kọtala 1
phones 1
rosion 1
▁Legal 1
▁Maqle 1
▁Staff 1
▁Wasan 1
▁doors 1
▁fashe 1
▁fears 1
▁kafar 1
▁nkasi 1
▁score 1
▁unity 1
ernacle 1
rencies 1
▁Images 1
▁Taiwan 1
▁Wisdom 1
▁acting 1
▁bịaara 1
▁fabric 1
▁halaka 1
▁idanun 1
▁juyawa 1
▁nkenke 1
▁taushi 1
▁ubangi 1
▁yardar 1
▁zitewo 1
ehichapụ 1
ịntanetị 1
▁Charact 1
▁Johnson 1
▁Mmalite 1
▁gyarawa 1
▁mistake 1
▁Nazareth 1
▁Obasanjo 1
▁Official 1
▁esemokwu 1
▁mepụtara 1
▁Represent 1
▁administr 1
▁ekekọtala 1
▁odeakwụkwọ 1
▁resolution 1
▁cooperation 1
▁suggestions 1
▁presentation 1
00. 1
fet 1
jji 1
ova 1
ụra 1
▁88 1
▁zu 1
Hear 1
city 1
hers 1
osie 1
tech 1
wọrọ 1
▁2.5 1
▁Fra 1
▁Syn 1
▁[1] 1
▁asi 1
▁haa 1
digar 1
finai 1
▁Assy 1
▁Hoto 1
▁Pack 1
▁Wide 1
▁bags 1
▁furn 1
▁kamu 1
▁ọnyà 1
active 1
ataren 1
emecha 1
▁Dakta 1
▁Jerry 1
▁Login 1
▁Maced 1
▁Mmekọ 1
▁Yahay 1
▁adaft 1
▁eaten 1
▁hated 1
▁hujja 1
▁omnip 1
▁rated 1
▁threw 1
▁Amirka 1
▁Robert 1
▁Zigbee 1
▁employ 1
▁ezughị 1
▁larger 1
▁proved 1
▁upload 1
▁Content 1
▁Olympic 1
▁gilashi 1
▁glorify 1
▁hanging 1
▁kankare 1
▁takaice 1
sequently 1
▁Cikakken 1
▁District 1
▁asibitin 1
▁obedient 1
▁samaniya 1
▁settings 1
▁strategy 1
▁ƙirƙirar 1
▁instagram 1
▁kyakkyawa 1
▁organized 1
▁provision 1
▁Kyakkyawan 1
▁participate 1
29 1
85 1
Pe 1
URE 1
etu 1
▁AZ 1
▁EC 1
▁TW 1
▁YH 1
▁Ịn 1
atai 1
itic 1
kụba 1
nụba 1
ulpt 1
uman 1
unts 1
yaya 1
ṅomi 1
▁2-3 1
▁Aid 1
▁Gov 1
▁PSA 1
▁Sac 1
▁Uwe 1
▁spo 1
▁ọnọ 1
▁ỤTỌ 1
▁ụnụ 1
conne 1
▁1999 1
▁Akpa 1
▁Gosi 1
▁Grow 1
▁Jobs 1
▁Mash 1
▁Mini 1
▁enth 1
▁hero 1
▁kọwa 1
▁nasu 1
▁west 1
ambodo 1
lessly 1
makers 1
tering 1
▁Asian 1
▁Cheap 1
▁Depos 1
▁Grant 1
▁Motor 1
▁agent 1
▁aṅụrị 1
▁boost 1
▁inabi 1
▁kalma 1
▁knife 1
▁meela 1
▁recon 1
▁saith 1
▁swear 1
▁towel 1
▁ƙayya 1
▁Divine 1
▁Ilimin 1
▁Kyauta 1
▁Lahadi 1
▁Method 1
▁compat 1
▁gọvanọ 1
▁mayest 1
▁studio 1
▁Ụkpụrụ 1
ushalima 1
▁Meeting 1
▁Mutanen 1
▁Protect 1
▁Rejoice 1
▁Whoever 1
▁acetate 1
▁aspects 1
▁kabilar 1
▁mutãnen 1
▁reveals 1
▁samples 1
▁ọkpụkpụ 1
ctangular 1
▁Halittar 1
▁reaction 1
▁spending 1
▁tsabtace 1
▁bịarutere 1
▁emergency 1
▁hukumomin 1
▁practices 1
▁competition 1
3% 1
44 1
Ọo 1
Bay 1
Get 1
ILL 1
urb 1
ỊBỤ 1
▁ED 1
▁FI 1
▁Mọ 1
▁PU 1
▁sũ 1
Time 1
mgbe 1
real 1
uary 1
▁10) 1
▁186 1
▁Gri 1
▁Oku 1
▁Sib 1
▁bọọ 1
▁eju 1
iform 1
ogide 1
rying 1
taktị 1
▁Irin 1
▁Side 1
▁stre 1
▁wipe 1
▁Aminu 1
▁Based 1
▁Books 1
▁Colum 1
▁Gabas 1
▁Gudun 1
▁Mercy 1
▁abuse 1
▁bride 1
▁flock 1
▁girke 1
▁kallo 1
▁liber 1
▁recip 1
itoring 1
raction 1
▁Chinwe 1
▁GỤKWUO 1
▁Slovak 1
▁aghọwo 1
▁critic 1
▁dabaru 1
▁danshi 1
▁embarr 1
▁ganewa 1
▁mmegbu 1
▁murder 1
▁slight 1
▁slowly 1
▁sufuri 1
▁unjust 1
▁vacuum 1
powerful 1
▁Matsaka 1
▁keɓaɓɓe 1
▁musayar 1
▁reduced 1
▁trained 1
▁Kodayake 1
▁Planning 1
▁Whatever 1
▁distress 1
▁everyday 1
▁fuskanci 1
▁iyakance 1
▁somebody 1
▁subjects 1
▁tantance 1
▁Technical 1
▁musulunci 1
▁investment 1
▁departments 1
▁yarjejeniya 1
▁Bioresonance 1
▁professionals 1
:" 1
HI 1
nn 1
GWU 1
Man 1
cos 1
hai 1
str 1
▁BU 1
▁VN 1
▁ƙo 1
From 1
Shin 1
feed 1
ille 1
lele 1
nala 1
otin 1
sole 1
▁0.0 1
▁CIS 1
▁HNA 1
▁VPS 1
▁gro 1
akụkọ 1
cycle 1
sover 1
▁Caes 1
▁Cold 1
▁Hang 1
▁Inwe 1
▁Iron 1
▁Jeff 1
▁Pict 1
▁Rabi 1
▁Shen 1
▁agbụ 1
▁arms 1
▁cher 1
▁dank 1
▁trem 1
▁zone 1
ancing 1
hapụrụ 1
mistry 1
oustic 1
terfly 1
▁Drink 1
▁Mosis 1
▁Shall 1
▁abụba 1
▁arose 1
▁evalu 1
▁gwụrụ 1
▁miles 1
▁sorry 1
itaccen 1
liament 1
▁Ntọala 1
▁Victor 1
▁Videos 1
▁kweghị 1
▁legisl 1
▁magnet 1
▁rulers 1
▁sacrif 1
▁sammai 1
entially 1
trasonic 1
▁Address 1
▁EZIOKWU 1
▁Feature 1
▁GASKIYA 1
▁Jọnatan 1
▁accused 1
▁blogger 1
▁holiday 1
▁plugins 1
▁symbols 1
rehensive 1
▁Slovenia 1
▁attended 1
▁hardware 1
▁keyboard 1
▁marigayi 1
▁Ịntanetị 1
▁ọmụmaatụ 1
▁Professor 1
▁intention 1
▁Urushalima 1
▁instruction 1
Gu 1
RO 1
Ta 1
",+ 1
IRI 1
Not 1
OLV 1
TER 1
aby 1
tle 1
▁96 1
nace 1
tali 1
taur 1
▁20. 1
▁Fem 1
▁KAS 1
▁Mul 1
▁Sep 1
▁Sla 1
▁Tro 1
▁adọ 1
▁eti 1
▁ped 1
▁zoo 1
abban 1
antic 1
karar 1
vings 1
▁3:13 1
▁Amen 1
▁Area 1
▁Cell 1
▁Doll 1
▁Fair 1
▁Pros 1
▁Rage 1
▁Saka 1
▁rayu 1
▁thri 1
▁tire 1
Christ 1
▁2010. 1
▁Flash 1
▁Santa 1
▁Truly 1
▁bekee 1
▁mashi 1
▁shaft 1
▁zirga 1
▁ịrụsi 1
attered 1
ologist 1
ovation 1
▁Battle 1
▁Bridge 1
▁Common 1
▁Notice 1
▁Provid 1
▁discer 1
▁laifin 1
▁liquid 1
▁menene 1
▁murfin 1
▁sector 1
▁shares 1
▁techni 1
ụlọikwuu 1
▁Chelsea 1
▁Enweghi 1
▁Lazarus 1
▁Neither 1
▁Similar 1
▁Supreme 1
▁archite 1
▁courses 1
▁decades 1
▁defense 1
▁egbugbu 1
▁feeding 1
▁ocheeze 1
▁sallama 1
▁ọdịiche 1
▁Canadian 1
▁Goodluck 1
▁allowing 1
▁chairman 1
▁daidaici 1
▁domestic 1
▁graphics 1
▁ƙungiyar 1
▁Executive 1
▁ịkwanyere 1
▁consistent 1
▁facilities 1
▁Organization 1
EP 1
Su 1
nw 1
AND 1
Ime 1
awụ 1
van 1
▁77 1
▁Yo 1
:15) 1
abwe 1
agon 1
eton 1
gium 1
omen 1
rawa 1
roat 1
zzar 1
▁IME 1
▁Ikw 1
▁Kus 1
▁Nau 1
▁Won 1
▁azu 1
▁gwu 1
▁obọ 1
amala 1
erian 1
lines 1
okoto 1
▁ANYA 1
▁Bush 1
▁Hear 1
▁Jenn 1
▁Kele 1
▁Tool 1
▁Tree 1
▁Whom 1
▁Wild 1
▁biyo 1
▁clic 1
▁fant 1
▁kaka 1
▁lets 1
▁miya 1
▁murm 1
▁namu 1
▁raka 1
▁ruwe 1
erukwa 1
inners 1
rating 1
tsaren 1
▁Expla 1
▁Shehu 1
▁feast 1
▁grief 1
▁imebi 1
▁units 1
▁valve 1
▁wụnye 1
bration 1
imbabwe 1
ummomin 1
working 1
▁Advice 1
▁Afghan 1
▁Buddha 1
▁Magana 1
▁Recomm 1
▁metụrụ 1
▁mpempe 1
▁sauƙin 1
▁stable 1
▁wetara 1
▁Anyanwụ 1
▁Reviews 1
▁Stephen 1
▁bidiyon 1
▁declare 1
▁fannoni 1
▁lambobi 1
▁pụkwara 1
▁session 1
▁updated 1
▁ziyarar 1
▁Transfer 1
▁consists 1
▁deceived 1
▁kimiyyar 1
▁Francisco 1
▁abandoned 1
vailability 1
▁companions 1
▁conscience 1
▁kasancewar 1
▁combination 1
▁competitive 1
▁perspective 1
▁unbelievers 1
31 1
MB 1
PỤ 1
KWE 1
egw 1
eju 1
fol 1
nag 1
shu 1
ụfụ 1
▁AI 1
▁MU 1
fold 1
kowa 1
kuma 1
vity 1
▁24, 1
▁99. 1
▁Cli 1
▁Pak 1
▁SSL 1
▁hab 1
▁ski 1
ccles 1
crets 1
eguzo 1
haala 1
riger 1
▁Agre 1
▁Agụụ 1
▁Bear 1
▁Chic 1
▁Mkpu 1
▁Pent 1
▁Wise 1
▁bore 1
▁goga 1
▁kick 1
▁sadu 1
▁tack 1
allake 1
amarin 1
budata 1
ekworo 1
gender 1
▁2008, 1
▁2009, 1
▁Linda 1
▁Prime 1
▁Teach 1
▁Until 1
▁gabas 1
▁gubar 1
▁jigon 1
▁kwagh 1
▁mmebi 1
▁motar 1
▁yield 1
▁Always 1
▁Celebr 1
▁Mepụta 1
▁actual 1
▁warkar 1
▁winter 1
entation 1
▁beneath 1
▁dunƙule 1
▁gajeren 1
▁garanti 1
▁loading 1
▁outdoor 1
▁parties 1
▁rewards 1
egosipụta 1
▁departed 1
▁dwelling 1
▁gakwuuru 1
▁shepherd 1
▁Mataimakin 1
▁enterprise 1
▁preparation 1
▁entertainment 1
89 1
BỌ 1
Hụ 1
Jen 1
Sur 1
isk 1
tam 1
▁IC 1
OUND 1
agwọ 1
amed 1
atio 1
etry 1
gwar 1
odom 1
tawa 1
ufai 1
▁19. 1
▁25. 1
▁2:2 1
▁Din 1
▁Doc 1
▁III 1
▁Tue 1
▁adm 1
▁ese 1
▁raj 1
▁tay 1
areta 1
▁Anwụ 1
▁Dịrị 1
▁Kogi 1
▁Mont 1
▁Nile 1
▁Pick 1
▁Redu 1
▁Vari 1
▁ages 1
▁evaọ 1
▁pack 1
▁ride 1
▁sequ 1
▁ụnya 1
abijin 1
ungiya 1
urches 1
▁Hoton 1
▁Incre 1
▁Index 1
▁Ogbon 1
▁Print 1
▁flash 1
▁hates 1
▁kujer 1
▁kurma 1
▁minor 1
▁mugun 1
▁okoro 1
▁rahot 1
ewepụta 1
▁Pilate 1
▁Weight 1
▁adding 1
▁advent 1
▁akpọrọ 1
▁centre 1
▁emphas 1
▁filter 1
▁google 1
▁mgbatị 1
▁namiji 1
▁nchedo 1
▁prohib 1
▁shower 1
▁Meaning 1
▁exposed 1
▁makonni 1
▁masters 1
▁moments 1
▁Turkiyya 1
▁directed 1
▁glorious 1
▁halayyar 1
▁humility 1
▁kirkirar 1
▁requests 1
▁agakwaghị 1
▁farfadowa 1
▁sabuntawa 1
▁registered 1
▁researchers 1
▁manufacturers 1
EF 1
ṅa 1
50. 1
Che 1
ESS 1
HIP 1
ilo 1
vie 1
▁HR 1
▁Ih 1
▁RA 1
:11) 1
Fear 1
anga 1
rewa 1
they 1
uddu 1
when 1
zane 1
ỊBỤL 1
▁Jeh 1
▁Mab 1
▁NWA 1
▁Nte 1
▁Pow 1
▁azã 1
▁uto 1
▁Ịrụ 1
adata 1
astes 1
isted 1
kewar 1
ussan 1
▁5:28 1
▁Baba 1
▁Chat 1
▁Cook 1
▁Flow 1
▁Mkpe 1
▁Moto 1
▁Soon 1
▁Vill 1
▁Yuli 1
▁elet 1
▁jera 1
▁kayi 1
▁ochi 1
▁plus 1
▁scar 1
▁stro 1
abetes 1
ardens 1
hicles 1
ounced 1
phrine 1
unduna 1
▁Arsen 1
▁Coast 1
▁Seven 1
▁Style 1
▁Tokyo 1
▁gates 1
▁habit 1
▁kwari 1
▁ndịda 1
▁rufin 1
▁tsaka 1
▁ɗayan 1
Blessed 1
antarwa 1
ikọtara 1
ụrụngwa 1
▁Argent 1
▁Dating 1
▁Dragon 1
▁Onyema 1
▁Polish 1
▁Unique 1
▁aspect 1
▁awanni 1
▁echere 1
▁gotten 1
▁hangen 1
▁horses 1
▁ticket 1
▁ịkwado 1
▁Aljanna 1
▁Exalted 1
▁Weather 1
▁coaxial 1
▁jealous 1
▁kachanụ 1
▁kwurịta 1
▁magazin 1
▁sikelin 1
▁slavery 1
▁Zimbabwe 1
▁ndebanye 1
▁visitors 1
▁backlinks 1
▁territory 1
▁blockchain 1
▁developing 1
▁mahaifinsa 1
49 1
▁© 1
Hib 1
IFA 1
Otu 1
mor 1
pee 1
▁!! 1
▁5- 1
▁6) 1
▁LG 1
▁Ms 1
▁Ri 1
▁ih 1
akaa 1
amic 1
fall 1
gila 1
high 1
udes 1
urra 1
▁CPA 1
▁Fla 1
▁Ikp 1
▁Kwu 1
▁Maa 1
▁OMU 1
▁Reh 1
▁alt 1
ocket 1
pirin 1
riyar 1
▁Trad 1
▁Vice 1
▁Walk 1
▁dawn 1
▁fees 1
▁yaba 1
osophy 1
▁Biden 1
▁Riser 1
▁Space 1
▁adịrị 1
▁alfah 1
▁annoy 1
▁bawan 1
▁bears 1
▁chari 1
▁fraud 1
▁hawan 1
▁heirs 1
▁incor 1
▁lebur 1
▁nlezi 1
▁plain 1
▁veget 1
▁zabar 1
▁Anyasị 1
▁BAỊBỤL 1
▁Okwara 1
▁Praise 1
▁Yankin 1
▁astray 1
▁defeat 1
▁denied 1
▁driven 1
▁echeta 1
▁hoping 1
▁island 1
▁laushi 1
▁pulled 1
▁tasowa 1
▁trials 1
▁wahayi 1
▁Episode 1
▁Ofishin 1
▁advised 1
▁engaged 1
▁privile 1
▁regions 1
▁screens 1
▁stylish 1
▁sustain 1
ictionary 1
▁detailed 1
▁karancin 1
▁opposite 1
▁versions 1
▁discussed 1
▁kasuwanni 1
▁mgbọrọgwụ 1
▁transport 1
▁businesses 1
▁omniscient 1
▁supplement 1
▁promotional 1
▁transgression 1
Lo 1
eg 1
:7) 1
ERT 1
INA 1
ird 1
ref 1
wat 1
▁eg 1
inga 1
pụpụ 1
siri 1
your 1
▁Bon 1
▁Due 1
▁MAT 1
▁NOW 1
▁Pin 1
▁gap 1
▁mpi 1
▁nsị 1
▁tis 1
▁ven 1
ADERS 1
ebili 1
miyar 1
orter 1
rence 1
▁Chap 1
▁Eric 1
▁Kill 1
▁Kong 1
▁Much 1
▁Nine 1
▁Rose 1
▁Suff 1
▁bita 1
▁boye 1
▁kima 1
▁kome 1
▁kpal 1
▁seal 1
▁tymp 1
phoria 1
ƙashin 1
▁2013, 1
▁Allow 1
▁Gombe 1
▁emela 1
▁input 1
▁kauna 1
▁lelee 1
▁mpako 1
▁ntụpọ 1
▁rokon 1
▁spons 1
▁thief 1
▁union 1
▁upper 1
igrants 1
onymous 1
▁Latvia 1
▁bankin 1
▁gbaara 1
▁hashta 1
▁intent 1
▁restri 1
▁strive 1
▁Example 1
▁Lazarọs 1
▁Payment 1
▁Someone 1
▁akpagbu 1
▁classes 1
▁crucial 1
▁dakarun 1
▁saurari 1
▁tweeter 1
▁ọdịnala 1
▁employee 1
▁entrance 1
▁gọọmentị 1
▁identity 1
▁shooting 1
▁visiting 1
▁ayyukansu 1
▁somewhere 1
▁ịgbaghara 1
▁bangaskiya 1
▁efficiency 1
▁redemption 1
▁reportedly 1
▁supporting 1
Ok 1
SU 1
▁▷ 1
Bịa 1
gho 1
goo 1
▁AU 1
▁Py 1
▁UP 1
▁Yã 1
:14) 1
part 1
▁29, 1
▁ink 1
atãwa 1
gaara 1
▁1:18 1
▁Heat 1
▁Nọrọ 1
▁Shah 1
▁Tere 1
▁bone 1
▁disg 1
▁guba 1
▁kora 1
▁shed 1
▁ànyị 1
elines 1
gụkọta 1
▁2,000 1
▁Emplo 1
▁Herod 1
▁Irish 1
▁Kenya 1
▁Liter 1
▁Speed 1
▁datti 1
▁fansa 1
▁frust 1
▁jeere 1
▁larịị 1
▁meals 1
▁nnọkọ 1
amurran 1
oraiton 1
ọghachi 1
▁Bidiyo 1
▁Choice 1
▁Ingila 1
▁Ncheta 1
▁Purple 1
▁Sokoto 1
▁cursed 1
▁daashi 1
▁egbuke 1
▁jituwa 1
▁jupụta 1
▁kantin 1
▁mamaye 1
▁meriri 1
▁refund 1
▁Ngalaba 1
▁Protest 1
▁Samaria 1
▁chances 1
▁hallaka 1
▁mashaya 1
▁miracle 1
▁pointed 1
▁siyasar 1
▁Chinenye 1
▁Ntuziaka 1
▁Sahabbai 1
▁kalubale 1
▁nkwupụta 1
▁nsonaazụ 1
▁watakila 1
▁Ayatullah 1
▁exceeding 1
▁hakikanin 1
▁Collection 1
▁decoraiton 1
▁temptation 1
:1, 1
:3) 1
:46 1
bly 1
ghẹ 1
hot 1
▁Pi 1
:10, 1
arks 1
flix 1
llor 1
para 1
pịrị 1
ugee 1
▁Amp 1
▁DON 1
▁Fel 1
▁Ign 1
▁Uba 1
▁aku 1
▁edi 1
▁muk 1
▁zaž 1
prene 1
urari 1
▁None 1
▁gaje 1
▁gwọọ 1
▁hill 1
▁kwaa 1
▁whit 1
annels 1
ansion 1
▁Cable 1
▁Jacks 1
▁Kashi 1
▁Usman 1
▁agafe 1
▁akpan 1
▁blogs 1
▁cares 1
▁occas 1
▁sikwa 1
▁zagay 1
amental 1
▁Abụghị 1
▁Norway 1
▁decree 1
▁earned 1
▁lonely 1
▁losing 1
▁napụta 1
▁nweela 1
▁planet 1
▁rarrab 1
▁symbol 1
▁takadd 1
▁ọnụego 1
▁Display 1
▁Edition 1
▁Univers 1
▁affairs 1
▁fingers 1
▁tattare 1
▁welding 1
▁Abdullah 1
▁Strength 1
▁disaster 1
▁equipped 1
▁kpochapụ 1
▁quarries 1
▁receives 1
▁blackjack 1
▁depending 1
▁elections 1
▁judgments 1
▁mezukwara 1
▁paragraph 1
▁incredible 1
▁operations 1
▁fulfillment 1
▁Transportation 1
Or 1
Gụọ 1
IME 1
abs 1
cia 1
kit 1
ofe 1
owe 1
riọ 1
Ụmụ 1
▁98 1
▁Kụ 1
▁__ 1
▁gã 1
akai 1
buru 1
ouds 1
ummu 1
vard 1
ọọpụ 1
▁185 1
▁3:2 1
▁AJỤ 1
▁Eye 1
▁Kwe 1
▁Wid 1
▁sme 1
▁ÆTM 1
▁ísì 1
▁Ịna 1
Rufai 1
idodi 1
ongwo 1
▁4:34 1
▁Dred 1
▁Evil 1
▁daki 1
▁imit 1
▁mewe 1
▁mgbọ 1
▁mike 1
▁nkea 1
▁unfa 1
castle 1
cclesi 1
▁Linux 1
▁bulie 1
▁folks 1
▁koodu 1
▁memba 1
▁nkesa 1
▁nurse 1
▁persu 1
▁plane 1
▁solar 1
▁spite 1
▁stake 1
loyment 1
▁Arabia 1
▁agbara 1
▁branch 1
▁chọghị 1
▁grants 1
▁judges 1
▁jụziri 1
▁nunawa 1
▁quotes 1
▁rediyo 1
▁ruling 1
akwadebe 1
▁Besides 1
▁Eastern 1
▁exhaust 1
▁gudumma 1
▁restore 1
▁returns 1
▁rịọwara 1
▁silence 1
▁Flooring 1
▁Malaysia 1
▁gwakwara 1
▁Blackjack 1
▁Cambridge 1
▁Important 1
▁Valentine 1
▁miliyoyin 1
▁qualities 1
▁shepherds 1
▁discipline 1
▁sacrifices 1
▁scientists 1
▁tabernacle 1
▁differences 1
▁littattafan 1
▁recognition 1
86 1
DE 1
sc 1
GBA 1
Gen 1
KPE 1
dọm 1
hyd 1
yid 1
ọlọ 1
▁69 1
▁ek 1
Mark 1
anth 1
enth 1
iste 1
lere 1
madụ 1
odia 1
quar 1
▁(10 1
▁ABỤ 1
▁Egw 1
▁Hid 1
▁ali 1
▁edo 1
▁nhụ 1
▁pal 1
▁ájá 1
ailed 1
gbọrọ 1
olulu 1
otide 1
racts 1
▁Abia 1
▁Java 1
▁Mine 1
▁Weld 1
▁aṅaa 1
▁cars 1
▁cave 1
▁cece 1
▁hunt 1
▁lion 1
▁numb 1
▁phen 1
▁riko 1
▁salt 1
▁soya 1
▁úgwù 1
debere 1
ilinda 1
lights 1
sychic 1
▁Filip 1
▁Mutum 1
▁anụwo 1
▁grass 1
▁honey 1
▁izini 1
▁mijin 1
▁mourn 1
▁winds 1
licated 1
▁Update 1
▁amfana 1
▁column 1
▁emechi 1
▁lọtara 1
▁module 1
▁nmehie 1
▁picked 1
▁poured 1
▁rukuni 1
▁termin 1
nephrine 1
▁Chinedu 1
▁Musulmi 1
▁Wasanni 1
▁assured 1
▁chebara 1
▁cookies 1
▁corrupt 1
▁ikpughe 1
▁kwayoyi 1
▁labaran 1
▁makomar 1
▁nwetụla 1
▁seventy 1
▁species 1
▁tausayi 1
▁torment 1
▁watched 1
abịakwasị 1
▁Hezekiah 1
▁Jeroboam 1
▁Magnetic 1
▁abundant 1
▁assigned 1
▁concrete 1
▁gracious 1
▁innocent 1
▁proposed 1
▁talakawa 1
▁nlezianya 1
▁residents 1
▁appreciate 1
▁completion 1
▁encouraged 1
▁innovation 1
▁kyakkyawar 1
▁worshipped 1
▁experiences 1
▁shahararren 1
39 1
TF 1
▁❤ 1
Duk 1
Heb 1
MPa 1
Spe 1
adv 1
bus 1
kọọ 1
log 1
Ọma 1
▁(7 1
▁95 1
▁KỌ 1
▁MK 1
▁nh 1
EKWU 1
Gakw 1
LITE 1
With 1
anka 1
cers 1
ctic 1
kpot 1
mond 1
werị 1
▁1:8 1
▁Gun 1
▁Jay 1
▁Lic 1
▁Nwo 1
▁Odu 1
▁Onu 1
▁Oyo 1
▁egg 1
▁ịwụ 1
arụsi 1
emenụ 1
eroes 1
ested 1
gines 1
heart 1
iliya 1
width 1
▁Azer 1
▁Cann 1
▁Chee 1
▁Didn 1
▁Drug 1
▁Kiri 1
▁Nkwu 1
▁ONWE 1
▁Omar 1
▁fuck 1
▁gbab 1
▁kole 1
▁vast 1
▁ígwé 1
umbers 1
▁24:37 1
▁Close 1
▁Dubai 1
▁Kọwaa 1
▁alaƙa 1
▁chair 1
▁chịrị 1
▁cruci 1
▁dangi 1
▁kuɗin 1
▁mbibi 1
▁spray 1
▁tsoka 1
reprene 1
▁Agusta 1
▁Awards 1
▁Haruna 1
▁aminta 1
▁apolog 1
▁birane 1
▁config 1
▁defend 1
▁divers 1
▁guzoro 1
▁handed 1
▁mbanye 1
▁mujall 1
▁oldest 1
▁owners 1
▁relate 1
▁Angeles 1
▁Mandela 1
▁Officer 1
▁charity 1
▁earthqu 1
▁faculty 1
▁furnace 1
▁kpọpụta 1
▁kwuwerị 1
▁privacy 1
▁uniform 1
▁visible 1
▁wadansu 1
▁weapons 1
Gakwurunụ 1
▁Southern 1
▁contrast 1
▁janareta 1
▁kunnuwan 1
▁rebelled 1
▁troubled 1
▁Transposh 1
▁acknowled 1
▁highlight 1
▁offerings 1
▁ụkọchukwu 1
▁Companions 1
▁mahaifiyar 1
▁mechanical 1
▁Ingantaccen 1
▁Yarjejeniya 1
▁outstanding 1
3] 1
HD 1
Eze 1
fat 1
yye 1
▁4- 1
▁8: 1
▁Bị 1
▁OP 1
▁vẹ 1
TARA 1
asia 1
limi 1
▁28, 1
▁Ast 1
▁EME 1
▁Kab 1
▁MBA 1
▁Suf 1
▁Too 1
▁Zim 1
▁ari 1
▁ini 1
▁kiy 1
▁ojo 1
▁voc 1
aging 1
arama 1
emeli 1
erite 1
faịlụ 1
hemat 1
onomy 1
ourse 1
taint 1
techn 1
▁Barn 1
▁Diam 1
▁Esau 1
▁Hana 1
▁Summ 1
▁Xbox 1
▁hiri 1
▁hook 1
▁mood 1
▁riƙe 1
ishiri 1
▁2007, 1
▁Hakan 1
▁Hanya 1
▁Maima 1
▁Marsh 1
▁Scott 1
▁Train 1
▁ahọrọ 1
▁akọwa 1
▁edebe 1
▁emeri 1
▁ghere 1
▁hatsi 1
▁iwere 1
▁truck 1
▁Ọdịdị 1
▁Heated 1
▁Indoor 1
▁Krista 1
▁Ogechi 1
▁colors 1
▁divide 1
▁echebe 1
▁feared 1
▁regret 1
▁shafar 1
▁surren 1
▁tsayin 1
▁AKWỤKWỌ 1
▁Armenia 1
▁Azerbai 1
▁almajir 1
▁charges 1
▁entrust 1
▁gwaziri 1
▁intanet 1
▁kunnawa 1
▁kwalabe 1
▁malamin 1
▁okpukpu 1
▁protein 1
▁sịkwara 1
▁therapy 1
▁weeping 1
▁Ọkaakaa 1
olesterol 1
▁Chairman 1
▁explains 1
▁indicate 1
▁investig 1
▁merciful 1
▁nnọchite 1
▁quantity 1
▁Resources 1
▁forbidden 1
▁locations 1
▁obviously 1
▁packaging 1
▁remaining 1
▁teachings 1
▁traveling 1
▁corruption 1
▁scriptures 1
▁surprising 1
▁Certificate 1
▁specialists 1
▁pharmaceutical 1
:48 1
ESI 1
Eme 1
Nig 1
cap 1
eng 1
kor 1
ƙon 1
▁1- 1
▁BC 1
▁EX 1
▁iM 1
▁ud 1
Give 1
adow 1
gari 1
hina 1
mate 1
pọtụ 1
▁19, 1
▁4:7 1
▁EBE 1
▁GPS 1
▁Paị 1
▁Tip 1
▁ude 1
▁unc 1
▁yal 1
buwan 1
gbara 1
glass 1
otent 1
▁2023 1
▁Golf 1
▁Moon 1
▁Nice 1
▁Wash 1
▁arịa 1
▁boro 1
▁bụzi 1
▁liar 1
▁mour 1
▁nata 1
▁plot 1
▁tile 1
▁zụta 1
▁Hands 1
▁Kotun 1
▁Level 1
▁Liber 1
▁Micro 1
▁Okeke 1
▁Yaren 1
▁agric 1
▁alkal 1
▁hyper 1
▁nsọtụ 1
▁rooms 1
▁windo 1
imately 1
resents 1
▁15:20) 1
▁Fortun 1
▁Girman 1
▁Ikekwe 1
▁debere 1
▁galibi 1
▁garken 1
▁họpụta 1
▁mkpara 1
▁pasent 1
agagharị 1
building 1
▁Chicago 1
▁Friends 1
▁Mahadum 1
▁Ndepụta 1
▁Playing 1
▁Website 1
▁anyaụfụ 1
▁context 1
▁dealing 1
▁illegal 1
▁lessons 1
▁lithium 1
▁nuclear 1
▁readers 1
▁revenue 1
▁scholar 1
▁worried 1
▁ọchụchọ 1
▁Opportun 1
▁Thoughts 1
▁Williams 1
▁cancanci 1
▁coverage 1
▁hadaddun 1
▁haihuwar 1
▁internal 1
▁likitoci 1
▁lissafin 1
▁politics 1
▁tsammani 1
▁tsayayya 1
▁Beautiful 1
▁otherwise 1
▁streaming 1
▁zagayowar 1
▁identified 1
▁considering 1
.: 1
/1 1
EG 1
LO 1
Ni 1
YS 1
▁è 1
Cry 1
IDE 1
IST 1
cca 1
edy 1
enw 1
kwà 1
▁86 1
▁GI 1
:10. 1
Abụọ 1
EHOV 1
assy 1
cipe 1
ussa 1
ƙwal 1
▁110 1
▁ALA 1
▁Guy 1
▁Joh 1
▁ast 1
▁suj 1
addan 1
allow 1
celer 1
ctory 1
geria 1
kunan 1
romat 1
▁Bakr 1
▁Dama 1
▁Edit 1
▁Ntak 1
▁Safe 1
▁Wepụ 1
▁golf 1
▁idon 1
▁ogbi 1
▁ohwo 1
▁prev 1
▁soke 1
▁ịnye 1
esoshi 1
urally 1
▁Kpọwa 1
▁Neomi 1
▁Slabs 1
▁adequ 1
▁alert 1
▁burin 1
▁conta 1
▁knock 1
▁kogin 1
▁kwuwe 1
▁layer 1
▁manha 1
▁matan 1
▁tayal 1
▁yashi 1
akpọkwa 1
ictions 1
▁Within 1
▁editor 1
▁erughị 1
▁kuzari 1
▁lyrics 1
▁pillar 1
▁rikici 1
▁sakand 1
▁wasika 1
▁ịgbawa 1
achọkarị 1
▁Arsenal 1
▁Belgium 1
▁Disemba 1
▁LEADERS 1
▁Labarin 1
▁Running 1
▁amongst 1
▁bearing 1
▁contrad 1
▁devoted 1
▁essence 1
▁hadarin 1
▁halatta 1
▁singing 1
▁streets 1
▁thermal 1
▁weekend 1
▁ụnyaahụ 1
▁Covenant 1
▁Creation 1
▁Football 1
▁Judgment 1
▁accommod 1
▁kọntaktị 1
▁nkwalite 1
▁overwhel 1
▁payments 1
▁restored 1
▁ịmatakwu 1
akpagbukwa 1
▁Ephesians 1
▁Treatment 1
▁kwaikwayo 1
▁machinery 1
▁Influential 1
▁antioxidant 1
▁Rechargeable 1
▁specifically 1
Ah 1
Bu 1
HU 1
JV 1
MG 1
km 1
loc 1
nta 1
sun 1
▁07 1
▁Ng 1
▁ew 1
▁mị 1
dium 1
enni 1
gacy 1
idal 1
lizi 1
ocol 1
quis 1
rans 1
scre 1
▁1:2 1
▁40% 1
▁Idi 1
▁JỌN 1
▁Mix 1
▁Wil 1
▁bot 1
▁Ọgụ 1
elata 1
eline 1
erube 1
ismas 1
stall 1
▁Corn 1
▁Dace 1
▁Hara 1
▁Iden 1
▁Kana 1
▁Sure 1
▁acha 1
▁rebu 1
▁toka 1
▁tsir 1
▁tụba 1
▁yaƙi 1
Father 1
adamba 1
itocin 1
rategy 1
unansu 1
▁8:36) 1
▁Akara 1
▁Prize 1
▁Shiba 1
▁accus 1
▁acted 1
▁advis 1
▁aging 1
▁anata 1
▁begun 1
▁crack 1
▁crime 1
▁decor 1
▁haife 1
▁simpl 1
▁spare 1
▁swore 1
▁synag 1
fective 1
ketball 1
▁Exodus 1
▁Hotuna 1
▁Inside 1
▁Paịlet 1
▁Sayyid 1
▁Tarihi 1
▁dorewa 1
▁ganawa 1
▁guided 1
▁hypocr 1
▁jihohi 1
▁mirror 1
▁motion 1
▁pursue 1
▁rangwa 1
▁rating 1
▁sandan 1
▁sharhi 1
▁transa 1
▁wakili 1
▁ziyara 1
▁Alakụba 1
▁Between 1
▁Deposit 1
▁anọgide 1
▁closely 1
▁dropped 1
▁implant 1
▁ranking 1
liziastis 1
▁Material 1
▁Supplier 1
▁currency 1
▁dịnyeere 1
▁exposure 1
▁observed 1
▁rantsuwa 1
▁silicone 1
▁superior 1
▁Equipment 1
▁Unlimited 1
▁instantly 1
▁processes 1
▁promotion 1
▁qualified 1
▁talakawan 1
▁translate 1
▁Countertop 1
▁LEADERSHIP 1
▁cikakkiyar 1
!' 1
34 1
38 1
ỊA 1
▁Í 1
Ver 1
egb 1
hee 1
mis 1
pịa 1
▁NI 1
▁NS 1
▁ec 1
adun 1
agog 1
atre 1
cler 1
empl 1
igbo 1
kọnd 1
▁Bob 1
▁Hit 1
▁Lit 1
▁NDI 1
▁Pee 1
▁maƙ 1
▁wit 1
▁ịsụ 1
Lalle 1
ciyar 1
eziga 1
inson 1
oding 1
▁1980 1
▁Chen 1
▁Fish 1
▁Lviv 1
▁MAKA 1
▁Sake 1
▁Tamb 1
▁bark 1
▁cure 1
▁dina 1
action 1
angers 1
araghị 1
▁Links 1
▁Miami 1
▁Sanar 1
▁Types 1
▁ahụwo 1
▁cease 1
▁iwepụ 1
▁ndina 1
akọtara 1
▁Alamar 1
▁Editor 1
▁Museum 1
▁Onyewu 1
▁Rating 1
▁Shagon 1
▁Summer 1
▁Tsabta 1
▁annabi 1
▁bridge 1
▁estate 1
▁mental 1
▁native 1
▁obeyed 1
▁vulner 1
▁Bayanin 1
▁Harvard 1
▁Rahoton 1
▁Russell 1
▁causing 1
▁forsake 1
▁gbalịrị 1
▁leather 1
▁profess 1
▁rikicin 1
▁smaller 1
ungiyoyin 1
▁Speaking 1
▁Taimakon 1
▁Thinking 1
▁adultery 1
▁charging 1
▁exciting 1
▁Authority 1
▁akpagbuwo 1
▁awareness 1
▁continuous 1
▁television 1
▁ịgbakwunye 1
▁ụmụntakịrị 1
▁Afghanistan 1
▁rectangular 1
▁consideration 1
37 1
56 1
Qu 1
Up 1
▁Á 1
?". 1
eny 1
phy 1
wam 1
▁68 1
▁Ox 1
▁Ịm 1
asas 1
cise 1
ejia 1
ient 1
inki 1
orne 1
sues 1
▁Agu 1
▁Aji 1
▁Dap 1
▁Rap 1
▁oga 1
▁pin 1
▁Ịdị 1
agues 1
ariah 1
ensed 1
erika 1
peace 1
uties 1
water 1
weghị 1
▁Boaz 1
▁Ogbe 1
▁Ogun 1
▁Role 1
▁Soft 1
▁Spot 1
▁Zabi 1
▁bird 1
▁enyo 1
▁huld 1
▁mala 1
▁rant 1
▁ruin 1
▁taru 1
▁taƙa 1
udduka 1
▁Apply 1
▁Autom 1
▁Glory 1
▁Taron 1
▁adadi 1
▁rushe 1
▁scary 1
▁ƙware 1
antages 1
cluding 1
▁19:10) 1
▁Kwanan 1
▁Peters 1
▁Saịmọn 1
▁asọmpi 1
▁linked 1
▁mgbawa 1
▁sarkar 1
▁tsayar 1
▁weekly 1
ofesoshi 1
▁Abimele 1
▁Ephraim 1
▁Kasance 1
▁Lissafi 1
▁Netflix 1
▁Results 1
▁acceler 1
▁centers 1
▁embrace 1
▁gidansa 1
▁instant 1
▁matashi 1
▁Arewacin 1
▁Gambling 1
▁Interior 1
▁Kwankwas 1
▁Pakistan 1
▁divorced 1
▁favorite 1
▁majalisa 1
▁anaghịkwa 1
▁cancantar 1
▁committee 1
▁matalauta 1
▁talabijin 1
▁historical 1
▁represents 1
▁Countertops 1
APC 1
bat 1
opt 1
Matt 1
igue 1
inea 1
izza 1
kiel 1
okan 1
ugal 1
ɗaya 1
▁5:1 1
▁Cub 1
▁Han 1
▁Ohu 1
▁ase 1
▁ash 1
▁caf 1
▁fri 1
▁row 1
▁tee 1
▁wag 1
▁wuo 1
▁ỌRỤ 1
anata 1
anium 1
ashed 1
athon 1
bọchi 1
hawar 1
lland 1
osion 1
ranch 1
▁Cool 1
▁Deal 1
▁Egbu 1
▁Gbaa 1
▁Joel 1
▁Snow 1
▁Thes 1
▁bets 1
▁gboo 1
▁gear 1
▁hire 1
▁kafu 1
▁rabu 1
▁shit 1
▁yaud 1
adinai 1
atụghị 1
ctures 1
▁JEHOV 1
▁Karin 1
▁Libya 1
▁Sanya 1
▁Sleep 1
▁adawa 1
▁repro 1
▁seeks 1
▁widow 1
▁ƙofar 1
▁County 1
▁Elisha 1
▁Histor 1
▁appeal 1
▁clamps 1
▁devast 1
▁dosage 1
▁endure 1
▁extend 1
▁kunshe 1
▁stupid 1
▁troops 1
▁Capital 1
▁girgije 1
▁haskaka 1
▁sabobin 1
▁sananne 1
▁volunte 1
▁wayoyin 1
aboration 1
▁Nasarawa 1
▁Ntugharị 1
▁Specific 1
▁accident 1
▁annabawa 1
▁combined 1
▁conflict 1
▁eternity 1
▁likewise 1
▁ntuziaka 1
▁pleasant 1
▁refriger 1
▁tọhapụrụ 1
▁Copyright 1
▁Responses 1
▁egbugbere 1
▁gradually 1
▁scripture 1
▁Electronic 1
▁Understand 1
▁matsananci 1
▁ndagwurugwu 1
▁Relationship 1
Os 1
Pa 1
YE 1
-17 1
Dan 1
OMO 1
Whi 1
ben 1
cor 1
iii 1
kah 1
▁7: 1
▁Ip 1
▁NK 1
▁RU 1
▁SM 1
▁Ug 1
▁wi 1
aysh 1
chor 1
ders 1
eror 1
ọọdụ 1
▁Bly 1
▁CHE 1
▁Elo 1
▁Pot 1
▁Rab 1
▁Siy 1
▁bac 1
▁lol 1
▁uka 1
▁wus 1
▁zab 1
eties 1
kable 1
kwado 1
kwube 1
odium 1
verty 1
wansu 1
▁Bost 1
▁FIFA 1
▁carb 1
▁cone 1
▁defi 1
▁meta 1
▁rute 1
▁sawa 1
▁wand 1
▁yuan 1
▁ỌNWỤ 1
enwere 1
yancin 1
ũbuwan 1
▁2011, 1
▁Idris 1
▁Judge 1
▁Jumma 1
▁Nwụrụ 1
▁bones 1
▁demon 1
▁equip 1
▁nkebi 1
▁obsta 1
▁overs 1
▁sannu 1
▁screw 1
▁tarbi 1
▁tayar 1
▁tired 1
▁trump 1
▁urged 1
▁wuyan 1
▁ƙirar 1
closure 1
rogenic 1
▁Akwụsị 1
▁Ndukwu 1
▁Rachel 1
▁Sturdy 1
▁Tafiya 1
▁buraka 1
▁drinks 1
▁headed 1
▁magoya 1
▁permit 1
▁topics 1
jupụtara 1
▁Created 1
▁Hadejia 1
▁Morning 1
▁Okpukpe 1
▁abandon 1
▁chineke 1
▁chooses 1
▁element 1
▁girgiza 1
▁martaba 1
▁nọchiri 1
▁tempted 1
▁Enyemaka 1
▁Lantarki 1
▁Tsakanin 1
▁attached 1
▁clinical 1
▁hormones 1
▁kwalliya 1
▁tympanic 1
▁withhold 1
▁ƙwayoyin 1
▁Challenge 1
▁Newcastle 1
▁Political 1
▁centuries 1
▁neighbour 1
▁religions 1
▁tashoshin 1
▁yadudduka 1
▁Azerbaijan 1
▁Experience 1
▁depression 1
▁statistics 1
▁Coronavirus 1
▁resurrected 1
▁shahararrun 1
▁tribulation 1
▁agbamakwụkwọ 1
▁participants 1
▁technologies 1
eh 1
fọ 1
oa 1
py 1
qi 1
′′ 1
ENT 1
UST 1
gov 1
gue 1
hop 1
hor 1
itọ 1
mam 1
ras 1
sak 1
▁BY 1
▁kg 1
dney 1
than 1
▁700 1
▁ATỌ 1
▁Bah 1
▁Bee 1
▁Eat 1
▁Inj 1
▁Ire 1
▁Lux 1
▁SEC 1
▁ket 1
▁odi 1
▁sut 1
▁tea 1
▁tik 1
▁yen 1
abota 1
girke 1
inter 1
omume 1
uplex 1
ureau 1
▁12:3 1
▁Dame 1
▁Drop 1
▁Feed 1
▁HERE 1
▁Jiki 1
▁Kowa 1
▁NCHE 1
▁Nuna 1
▁bomb 1
▁dogs 1
▁inde 1
▁lara 1
▁pair 1
▁saye 1
▁span 1
▁suma 1
▁tsok 1
▁ƙone 1
Listen 1
alaeze 1
iyanci 1
▁2010, 1
▁AJỤJỤ 1
▁Anamb 1
▁Fashi 1
▁Laban 1
▁Magic 1
▁Tụlee 1
▁abide 1
▁dinga 1
▁fence 1
▁ganga 1
▁harin 1
▁stead 1
▁zanga 1
chitere 1
comfort 1
▁Cheryl 1
▁Ngwọta 1
▁Shirya 1
▁ajiyar 1
▁akpata 1
▁bazara 1
▁cleans 1
▁dishon 1
▁enable 1
▁invent 1
▁proven 1
▁repeat 1
▁sinful 1
▁ọbụkwa 1
lessness 1
▁Affairs 1
▁Charter 1
▁Circuit 1
▁Convers 1
▁Traffic 1
▁Virtual 1
▁Wonders 1
▁dismiss 1
▁enthusi 1
▁opposed 1
▁poverty 1
▁saituna 1
▁talents 1
▁Ọganihu 1
forcement 1
▁Brothers 1
▁Prophets 1
▁Strategy 1
▁Victoria 1
▁Whatsapp 1
▁accuracy 1
▁aircraft 1
▁hannayen 1
▁imprison 1
▁kpagburu 1
▁musulmai 1
▁reaching 1
▁studying 1
▁Americans 1
▁authentic 1
▁candidate 1
▁cinikayya 1
▁disappear 1
▁generator 1
▁investors 1
▁integrated 1
▁Performance 1
▁Philippians 1
▁communities 1
▁chegharịrịnụ 1
GW 1
aj 1
sw 1
ANN 1
his 1
lot 1
nia 1
pcs 1
pri 1
pse 1
rat 1
vas 1
vet 1
▁03 1
▁89 1
▁CW 1
▁EZ 1
▁GR 1
▁ẹn 1
Acts 1
asts 1
enda 1
role 1
type 1
▁Hat 1
▁Iru 1
▁PRE 1
▁Wet 1
▁afa 1
▁bọl 1
▁jih 1
▁mud 1
▁nav 1
▁nch 1
▁nha 1
▁pac 1
▁pip 1
▁uba 1
▁upt 1
farta 1
uster 1
vania 1
world 1
ọsiri 1
▁Hair 1
▁Lion 1
▁Tony 1
▁Unit 1
▁Zụrụ 1
▁buso 1
▁bụbu 1
▁doki 1
▁lake 1
▁ster 1
▁urge 1
▁wars 1
akọkwa 1
▁Adams 1
▁Dukan 1
▁Farko 1
▁Ghost 1
▁Kalli 1
▁Quote 1
▁Shari 1
▁alatu 1
▁cyber 1
▁disag 1
▁drown 1
▁filed 1
▁fonts 1
▁ileta 1
▁kulla 1
▁likes 1
▁lunch 1
▁slain 1
▁towns 1
ocation 1
▁Advent 1
▁Maryam 1
▁Sashen 1
▁ethnic 1
▁flower 1
▁gwamna 1
▁harkar 1
▁itacen 1
▁jimlar 1
▁merụrụ 1
▁sigogi 1
▁sujada 1
▁virtue 1
▁wepụta 1
Remember 1
iversary 1
▁Krismas 1
▁awarded 1
▁birgima 1
▁cikinsa 1
▁cikinta 1
▁council 1
▁engines 1
▁katunan 1
▁kujerar 1
▁upright 1
▁wrongdo 1
▁Marriage 1
▁cannabis 1
▁relation 1
▁saukarwa 1
▁yammacin 1
▁Argentina 1
▁algorithm 1
▁bụrụhaala 1
▁complaint 1
▁efficient 1
▁governors 1
▁positions 1
▁pregnancy 1
▁shoulders 1
▁treasures 1
▁maganganun 1
▁destination 1
▁intelligent 1
▁: 1
▁■ 1
"?" 1
600 1
aps 1
cry 1
mee 1
nne 1
zak 1
▁CV 1
▁HP 1
▁Ub 1
:12) 1
:28) 1
agra 1
etra 1
hhhh 1
inta 1
llip 1
lobe 1
rich 1
safa 1
▁21. 1
▁ANA 1
▁Adi 1
▁Fus 1
▁bub 1
▁kne 1
▁mum 1
▁tex 1
angwa 1
elson 1
erate 1
▁3:16 1
▁Ahab 1
▁Hapụ 1
▁Trib 1
▁Yobe 1
▁coal 1
▁drew 1
▁fits 1
▁gbag 1
▁puru 1
▁slee 1
Ubangi 1
ainted 1
akpasu 1
arable 1
idojin 1
tainty 1
▁2007. 1
▁Estab 1
▁Ilimi 1
▁Mmeri 1
▁OMUME 1
▁Rabiu 1
▁adịla 1
▁ahụla 1
▁batir 1
▁bọọlụ 1
▁fifty 1
▁grams 1
▁ibuso 1
▁kelee 1
▁kwusa 1
▁shanu 1
▁sharp 1
▁votes 1
▁ịlele 1
ylvania 1
▁Around 1
▁Babbar 1
▁Blythe 1
▁Boston 1
▁Campus 1
▁Estate 1
▁Koyaya 1
▁Linked 1
▁Sudden 1
▁Supper 1
▁advers 1
▁babies 1
▁breaks 1
▁cancel 1
▁coffee 1
▁convey 1
▁fitilu 1
▁gbasaa 1
▁ikpere 1
▁kafuwa 1
▁kpughe 1
▁kụziri 1
▁mebiri 1
▁mwakpo 1
▁nkwusa 1
▁oriọna 1
▁perpet 1
▁purity 1
▁random 1
▁retail 1
▁senior 1
▁zipụrụ 1
lections 1
▁Durable 1
▁Fikieme 1
▁bitamin 1
▁doctors 1
▁irubere 1
▁operate 1
▁tuntube 1
▁wakilin 1
▁Campaign 1
▁Haliccin 1
▁Patience 1
▁admitted 1
▁alfahari 1
▁bullying 1
▁ceremony 1
▁fassarar 1
▁forgives 1
▁fountain 1
▁hụtụrụla 1
▁ntụgharị 1
▁numbered 1
▁preserve 1
▁ƙaddamar 1
▁ịkpọtụrụ 1
▁conceived 1
▁condemned 1
▁producing 1
▁rebellion 1
cclesiastes 1
▁comparison 1
▁invitation 1
▁furofesoshi 1
▁inspiration 1
EA 1
LU 1
wp 1
Tok 1
WAS 1
acc 1
baa 1
ico 1
tad 1
▁// 1
▁76 1
▁Aa 1
▁Vo 1
▁ay 1
▁dụ 1
-200 1
ador 1
bido 1
emen 1
erry 1
flow 1
isia 1
pter 1
wela 1
▁(5) 1
▁Nin 1
▁Vac 1
▁gid 1
▁nyi 1
▁rau 1
▁tsõ 1
▁ỤWA 1
Cloud 1
arawa 1
clude 1
inton 1
sault 1
thlet 1
ubuta 1
▁Beat 1
▁Bott 1
▁Brid 1
▁Core 1
▁Emma 1
▁Gods 1
▁Lura 1
▁Says 1
▁Slot 1
▁Than 1
▁Vene 1
▁achi 1
▁iPod 1
▁kiri 1
▁kuki 1
▁kyan 1
▁nadi 1
▁nose 1
▁ozhi 1
▁teff 1
▁yiwa 1
▁ọkpa 1
alauci 1
inging 1
mataki 1
waanyị 1
▁Alpha 1
▁Below 1
▁Wuhan 1
▁bingo 1
▁efere 1
▁farfa 1
▁firam 1
▁goats 1
▁mitar 1
▁nteke 1
▁reads 1
▁talks 1
rifugal 1
▁Anyone 1
▁Become 1
▁Degree 1
▁Former 1
▁deeply 1
▁dochie 1
▁dragon 1
▁gender 1
▁hadaya 1
▁kwashe 1
▁mutãne 1
▁Adamawa 1
▁Bayanan 1
▁Koraysh 1
▁Minista 1
▁Romania 1
▁adaftan 1
▁bushewa 1
▁egbochi 1
▁figures 1
▁gishiri 1
▁gwagwar 1
▁jagorar 1
▁kãfirta 1
▁penalty 1
▁Actually 1
▁Kwayoyin 1
▁bambance 1
▁bụghịkwa 1
▁humanity 1
▁numfashi 1
▁Kwankwaso 1
▁alaghachi 1
▁attending 1
▁immediate 1
▁likitanci 1
▁separated 1
▁Scientific 1
▁convention 1
▁electrical 1
▁mahimmancin 1
▁surrounding 1
▁difficulties 1
▁environmental 1
88 1
ọb 1
Yor 1
die 1
low 1
Ụwa 1
▁08 1
▁BS 1
▁mí 1
IGHT 1
bawa 1
deen 1
ethe 1
igen 1
umes 1
zzle 1
ỌNWỤ 1
▁25% 1
▁31, 1
▁60% 1
▁6:2 1
▁Fan 1
▁Hex 1
▁Hub 1
▁Ton 1
▁Twe 1
▁hun 1
▁ili 1
▁ilm 1
▁nwo 1
▁swa 1
▁Ịbụ 1
ATION 1
Psalm 1
amụma 1
astik 1
edonụ 1
otted 1
table 1
urses 1
zikwa 1
zirga 1
▁12:1 1
▁1991 1
▁Cain 1
▁Cand 1
▁Lack 1
▁Lost 1
▁Rana 1
▁Scan 1
▁Ship 1
▁THAT 1
▁Wife 1
▁baza 1
▁coat 1
▁diss 1
▁farm 1
▁impe 1
▁kaza 1
▁leta 1
▁mesh 1
▁onwu 1
▁ragu 1
▁soci 1
▁zana 1
▁Àgwà 1
ampion 1
cribes 1
otoxic 1
outube 1
▁2009. 1
▁Field 1
▁Files 1
▁Koran 1
▁Prior 1
▁Zulum 1
▁aston 1
▁cries 1
▁dread 1
▁foods 1
▁forfe 1
▁ganye 1
▁gwọrọ 1
▁kanmu 1
▁meets 1
▁plays 1
▁risen 1
▁risks 1
▁shiru 1
▁thine 1
▁Ịhazi 1
gations 1
ivalent 1
quarium 1
▁Double 1
▁Easter 1
▁Senior 1
▁Sydney 1
▁Vision 1
▁abomin 1
▁beasts 1
▁engage 1
▁fitowa 1
▁manoma 1
▁superv 1
▁Absalom 1
▁Amerika 1
▁Awesome 1
▁Culture 1
▁Outdoor 1
▁Runduna 1
▁Section 1
▁Thessal 1
▁arrival 1
▁counted 1
▁cutarwa 1
▁enhance 1
▁gizonku 1
▁iberibe 1
▁mystery 1
▁packing 1
▁paspọtụ 1
▁staying 1
▁tabbaci 1
▁ọnụahịa 1
▁Passover 1
▁facebook 1
▁kpataara 1
▁majority 1
▁nukiliya 1
▁profaịlụ 1
▁Macedonia 1
▁confusion 1
▁corrosion 1
▁estimated 1
▁preparing 1
▁ƙarƙashin 1
▁Metatrader 1
▁gabatarwar 1
▁Furthermore 1
▁Matsakaicin 1
▁Philippines 1
▁alternative 1
▁ 1
ALL 1
Hey 1
Ndu 1
het 1
igo 1
lah 1
▁-> 1
▁5? 1
▁83 1
▁Au 1
▁MT 1
▁OR 1
▁dB 1
▁jẽ 1
Will 1
abci 1
alia 1
mkpa 1
star 1
wali 1
▁25, 1
▁26, 1
▁95% 1
▁Apr 1
▁Arm 1
▁Bla 1
▁Dum 1
▁Isọ 1
▁Led 1
▁Nab 1
▁Neg 1
▁SQL 1
▁Uzo 1
▁mụn 1
▁nọọ 1
▁ofe 1
▁waj 1
▁ùnu 1
▁ịbị 1
,000, 1
anged 1
ginen 1
inary 1
otive 1
produ 1
▁1500 1
▁2002 1
▁Eden 1
▁Ezra 1
▁Kwam 1
▁Rele 1
▁Slow 1
▁Subs 1
▁faɗa 1
▁illa 1
▁rear 1
▁rush 1
▁soil 1
rolled 1
▁Aliyu 1
▁Cyber 1
▁Daida 1
▁Hyper 1
▁Ogidi 1
▁Opera 1
▁Sodom 1
▁ceton 1
▁emeso 1
▁fifth 1
▁karɓa 1
▁kpuru 1
▁oware 1
▁shake 1
▁tenth 1
related 1
website 1
ziwanye 1
▁Mmehie 1
▁Ndukwe 1
▁gawara 1
▁kundin 1
▁palace 1
▁sekọnd 1
▁takara 1
▁tender 1
▁ãyõyin 1
▁Ịchọta 1
akparịta 1
ancellor 1
▁Ntanetị 1
▁Respond 1
▁Turkish 1
▁absence 1
▁backlit 1
▁beating 1
▁complim 1
▁consume 1
▁involve 1
▁massive 1
▁mothers 1
▁thirsty 1
▁threats 1
▁victims 1
▁wallafe 1
nsylvania 1
▁Bulgaria 1
▁Damascus 1
▁Festival 1
▁covering 1
▁creature 1
▁gabashin 1
▁preached 1
▁washroom 1
agbakwụnye 1
▁connector 1
▁convinced 1
▁furniture 1
▁literally 1
▁searching 1
▁suppliers 1
▁approached 1
▁attractive 1
▁difficulty 1
▁excellence 1
▁exhibition 1
▁regardless 1
▁tambayoyin 1
▁whatsoever 1
▁coronavirus 1
▁electricity 1
▁regulations 1
▁determination 1
"! 1
7] 1
CP 1
Za 1
aw 1
mọ 1
osh 1
ọsọ 1
▁(9 1
▁EV 1
▁IB 1
▁QC 1
▁iw 1
Gbps 1
ciki 1
gger 1
kwar 1
lọtọ 1
miri 1
mula 1
▁0.5 1
▁1-2 1
▁1.2 1
▁Bor 1
▁CBN 1
▁Cru 1
▁DUN 1
▁Lie 1
▁Ulo 1
▁bla 1
▁saf 1
▁tel 1
▁tsĩ 1
▁vig 1
▁Ọdụ 1
aning 1
atụrụ 1
ayode 1
being 1
groud 1
itics 1
olite 1
▁Decl 1
▁Fool 1
▁Gate 1
▁Haik 1
▁Jima 1
▁Poor 1
▁TWRP 1
▁ease 1
▁haha 1
▁nuts 1
▁rani 1
▁rasu 1
▁rein 1
▁thin 1
▁zinc 1
chelor 1
juanya 1
licted 1
onyere 1
roleum 1
ynamic 1
▁AREWA 1
▁Alexa 1
▁Brain 1
▁Crist 1
▁Flood 1
▁Items 1
▁Jikin 1
▁Judia 1
▁Parts 1
▁Range 1
▁Ukwuu 1
▁Value 1
▁alloy 1
▁bacci 1
▁eburu 1
▁kunya 1
▁lucky 1
▁phase 1
▁royal 1
▁sooro 1
▁sukan 1
▁weigh 1
osphere 1
▁Figure 1
▁Mkpebi 1
▁Moving 1
▁Pastor 1
▁Target 1
▁analog 1
▁anwụrụ 1
▁exceed 1
▁forgot 1
▁takunk 1
▁tallan 1
▁ubochi 1
▁Certain 1
▁Pacific 1
▁Stories 1
▁akụziri 1
▁dispute 1
▁jarirai 1
▁kwagara 1
▁printed 1
▁siyarwa 1
▁Allahnmu 1
▁Intellig 1
▁Presence 1
▁Register 1
▁Tinnitus 1
▁achọpụta 1
▁graduate 1
▁hardened 1
▁improved 1
▁mbadamba 1
▁supplies 1
▁thankful 1
▁vehicles 1
▁Believers 1
▁answering 1
▁backgroud 1
▁correctly 1
▁ekwetaghị 1
▁gagarumar 1
▁gratitude 1
▁Properties 1
▁acceptable 1
▁compliance 1
▁challenging 1
42 1
AA 1
Eb 1
LT 1
MC 1
ht 1
nm 1
sm 1
/10 1
ASS 1
Aka 1
opl 1
rix 1
▁Ai 1
▁fu 1
▁hẹ 1
ciya 1
ifin 1
rive 1
wana 1
▁139 1
▁Egb 1
▁Fif 1
▁Ita 1
▁Oft 1
▁Sid 1
▁VIP 1
▁abị 1
▁bee 1
▁iti 1
▁lip 1
▁mob 1
▁sle 1
After 1
anion 1
hical 1
▁00:0 1
▁2:17 1
▁Brad 1
▁Flat 1
▁INEC 1
▁Nkem 1
▁Scot 1
▁anwa 1
▁chịa 1
▁fuel 1
▁jade 1
▁rika 1
▁stir 1
▁yadi 1
▁ọkpu 1
atakwa 1
chibid 1
ellect 1
essels 1
gidenụ 1
mother 1
olence 1
▁41:10 1
▁Banye 1
▁Benin 1
▁Brace 1
▁Canja 1
▁Enoch 1
▁Exhib 1
▁Issue 1
▁Judea 1
▁Kacha 1
▁Kawai 1
▁Mmasị 1
▁Plate 1
▁Throw 1
▁Wutar 1
▁akọrọ 1
▁fadar 1
▁flame 1
▁kwanu 1
▁murna 1
▁sayan 1
▁withd 1
▁yakan 1
ishment 1
▁Coming 1
▁Enough 1
▁Rayuwa 1
▁TikTok 1
▁ainihi 1
▁awards 1
▁dinner 1
▁guests 1
▁hadari 1
▁kpebis 1
▁lovely 1
▁marked 1
▁merela 1
▁retain 1
▁saints 1
▁samfur 1
▁taurin 1
▁titles 1
▁united 1
▁ọkacha 1
missions 1
utrition 1
▁Ahụmahụ 1
▁Channel 1
▁Diamond 1
▁Driving 1
▁Keeping 1
▁Linlang 1
▁Physics 1
▁Problem 1
▁Sadarwa 1
▁Tambaya 1
▁akụnụba 1
▁chụpụrụ 1
▁couples 1
▁eletrik 1
▁kirkira 1
▁mgbaàmà 1
▁rarrabe 1
▁sanduna 1
▁virtual 1
▁yaduwar 1
▁zuriyar 1
▁Hezekaya 1
▁Ngwaahịa 1
▁barazana 1
▁criminal 1
▁deserves 1
▁halartar 1
▁lifetime 1
▁nkwurịta 1
▁Agreement 1
▁Currently 1
▁bandwidth 1
▁bụrụkwanụ 1
▁disclosed 1
▁exception 1
▁introduce 1
▁maganganu 1
▁magnesium 1
▁occasions 1
▁radiation 1
▁referring 1
▁SharePoint 1
▁impression 1
▁injiniyoyi 1
▁parameters 1
▁prevention 1
,* 1
FI 1
Of 1
Ye 1
oi 1
žž 1
Web 1
elp 1
htt 1
orc 1
▁", 1
▁02 1
▁Ej 1
▁FR 1
▁JA 1
▁NP 1
▁Xp 1
:13) 1
Amma 1
Best 1
Tell 1
aire 1
bert 1
cill 1
enta 1
foot 1
iren 1
omed 1
orie 1
▁14: 1
▁2:5 1
▁5:3 1
▁Owo 1
▁fed 1
▁jis 1
▁kor 1
▁ịpị 1
ahụhụ 1
atern 1
bound 1
class 1
dịghe 1
elect 1
essed 1
etine 1
folio 1
icate 1
oline 1
rical 1
yyade 1
zarta 1
▁Bude 1
▁Cire 1
▁Duke 1
▁IGBO 1
▁Jeho 1
▁Moro 1
▁bath 1
▁cree 1
▁dade 1
▁deck 1
▁mand 1
▁orda 1
▁rere 1
▁ruhu 1
▁taki 1
▁tasa 1
▁wins 1
▁wuka 1
▁Ọhụụ 1
akilai 1
gbanya 1
ummuka 1
▁Chike 1
▁Ejiri 1
▁Elder 1
▁Fight 1
▁Kaadị 1
▁Sauke 1
▁amụta 1
▁asusu 1
▁bowed 1
▁chart 1
▁drove 1
▁eager 1
▁grade 1
▁hurry 1
▁inhib 1
▁iyawa 1
▁karon 1
▁magud 1
▁nzute 1
▁relax 1
▁repay 1
▁siiri 1
▁tiles 1
▁tsaki 1
▁Bethel 1
▁Cancer 1
▁Hannun 1
▁Jihova 1
▁Lesson 1
▁Mashah 1
▁Mmemme 1
▁Venezu 1
▁akpọhu 1
▁amfãni 1
▁dawowa 1
▁deceit 1
▁mechie 1
▁niyyar 1
▁papers 1
▁pilgri 1
clerosis 1
echetara 1
ologists 1
ribution 1
▁Akwukwo 1
▁Battery 1
▁Believe 1
▁Concert 1
▁Employe 1
▁Ifeanyi 1
▁Journey 1
▁abịaghị 1
▁alamomi 1
▁degaara 1
▁elected 1
▁funding 1
▁gargadi 1
▁gbaberu 1
▁injured 1
▁organic 1
▁removal 1
▁vitamin 1
gbanyaaru 1
▁agencies 1
▁gaghachi 1
▁generous 1
▁kingdoms 1
▁lọghachi 1
▁perceive 1
▁sanannun 1
▁sansanin 1
▁tafarkin 1
▁tsaftace 1
▁Statuario 1
▁apartment 1
▁indicates 1
▁sanctuary 1
▁transposh 1
▁tsofaffin 1
▁Initiative 1
▁bayyananne 1
▁beneficial 1
▁celebrated 1
▁countertop 1
▁photograph 1
▁Wondershare 1
▁cholesterol 1
▁continually 1
▁Pennsylvania 1
▁communications 1
Di 1
NG 1
dẹ 1
-40 1
:55 1
Iwe 1
Sab 1
clo 1
fia 1
ipt 1
kem 1
ohu 1
opa 1
von 1
▁AW 1
▁BB 1
▁CF 1
▁gn 1
Just 1
XBET 1
agwu 1
biga 1
fufe 1
gins 1
hind 1
kuru 1
neum 1
upon 1
wani 1
zhen 1
ọọla 1
▁125 1
▁Amb 1
▁Ara 1
▁Azụ 1
▁CPU 1
▁EBI 1
▁FAQ 1
▁Kid 1
▁Obe 1
▁Oje 1
▁Ola 1
▁Ren 1
▁cyl 1
▁glu 1
▁ooo 1
▁ụsụ 1
BỌCHỊ 1
akasi 1
comed 1
ekere 1
salms 1
▁Asib 1
▁Asus 1
▁Clar 1
▁Educ 1
▁Karị 1
▁Prov 1
▁appe 1
▁axis 1
▁coci 1
▁gbas 1
▁kofi 1
▁koko 1
▁plug 1
▁sant 1
▁sear 1
▁unex 1
chaara 1
fected 1
formed 1
itarwa 1
master 1
uttuka 1
ọnyere 1
▁Activ 1
▁KWURU 1
▁Tener 1
▁alfar 1
▁ambal 1
▁chiri 1
▁chụrụ 1
▁dauko 1
▁kishi 1
▁kumfa 1
▁lists 1
▁loose 1
▁magic 1
▁siyan 1
▁tsoho 1
▁ƙafaf 1
ahụrịta 1
ocheeze 1
pection 1
▁Accept 1
▁Bishop 1
▁Hidden 1
▁Nchebe 1
▁cometh 1
▁fairly 1
▁ginshi 1
▁ignore 1
▁latter 1
▁malami 1
▁metall 1
▁repair 1
▁salula 1
▁serves 1
▁tablet 1
▁tsĩrar 1
antattun 1
▁Batirin 1
▁constru 1
▁crystal 1
▁heating 1
▁jigilar 1
▁kafuwar 1
▁letting 1
▁misalin 1
▁mmelite 1
▁Atomatik 1
▁Complete 1
▁Creative 1
▁Managing 1
▁Platform 1
▁Slovakia 1
▁Tsabtace 1
▁chapters 1
▁cultural 1
▁facility 1
▁koyarwar 1
▁petition 1
▁replaced 1
▁Structure 1
▁aghọtaghị 1
▁ancestors 1
▁fayilolin 1
▁marubucin 1
▁submitted 1
▁Synephrine 1
▁categories 1
▁monitoring 1
▁tsaftacewa 1
▁ultrasonic 1
▁Ubangijinka 1
▁centrifugal 1
▁faithfulness 1
▁independence 1
4: 1
IK 1
-50 1
300 1
Col 1
LAH 1
doc 1
kas 1
▁au 1
▁nm 1
:19) 1
INCE 1
chat 1
fear 1
ibai 1
ivia 1
▁1:5 1
▁5:2 1
▁Ads 1
▁Ayi 1
▁Dun 1
▁Eva 1
▁Lam 1
▁Nev 1
▁Ora 1
▁Squ 1
▁ace 1
▁bis 1
▁exh 1
▁ika 1
▁lah 1
▁ono 1
▁tap 1
▁udi 1
▁yum 1
▁ọna 1
anded 1
aunin 1
bacco 1
burin 1
ctive 1
wọọdụ 1
▁1970 1
▁Farm 1
▁Kpọọ 1
▁Pain 1
▁Visa 1
▁Waka 1
▁alum 1
▁hauv 1
▁jũya 1
▁legs 1
Yoruba 1
ahụkwa 1
blings 1
ereign 1
erials 1
uthors 1
▁Brief 1
▁Chair 1
▁Herọd 1
▁Impro 1
▁Naomi 1
▁Worth 1
▁dates 1
▁engra 1
▁gbapụ 1
▁harbi 1
▁iyaye 1
▁kubit 1
▁merch 1
▁naman 1
▁okike 1
▁ratio 1
▁shãfe 1
▁skate 1
▁skill 1
▁ultra 1
▁wanzu 1
cession 1
through 1
▁Agbata 1
▁Basalt 1
▁Dheere 1
▁Empire 1
▁Guinea 1
▁Quartz 1
▁affili 1
▁avenge 1
▁jijiya 1
▁nwalee 1
▁sigari 1
▁sirila 1
▁waited 1
▁wucewa 1
▁Convert 1
▁Healthy 1
▁agabiga 1
▁amounts 1
▁hardens 1
▁housing 1
▁jihohin 1
▁strange 1
▁tongues 1
chibidoro 1
ilization 1
▁Jennifer 1
▁Kwamitin 1
▁churches 1
▁festival 1
▁involves 1
▁measured 1
▁redeemed 1
▁sessions 1
▁ultimate 1
▁Interview 1
▁Similarly 1
▁collected 1
▁graduates 1
▁precision 1
▁whosoever 1
▁Innovation 1
▁celebration 1
▁certificate 1
▁governments 1
▁manufacture 1
▁represented 1
▁Pharmaceutical 1
68 1
GS 1
LP 1
OG 1
▁Ã 1
ANA 1
ITH 1
bek 1
sie 1
wei 1
▁$2 1
▁DN 1
▁FS 1
▁HC 1
▁yọ 1
▁zũ 1
-000 1
Mkpu 1
dens 1
erts 1
essa 1
hane 1
held 1
imin 1
iram 1
urop 1
▁4:2 1
▁Lea 1
▁Tow 1
▁URU 1
▁hug 1
▁wẹẹ 1
▁zaɓ 1
▁zãl 1
▁Ịtụ 1
Moses 1
aired 1
guard 1
idity 1
olved 1
walle 1
▁3000 1
▁Anan 1
▁Anne 1
▁Basi 1
▁Bern 1
▁Carr 1
▁Ebel 1
▁Fiye 1
▁MKPA 1
▁Maid 1
▁Rain 1
▁Seri 1
▁ciwo 1
▁damp 1
▁dash 1
▁elig 1
▁fake 1
▁fale 1
▁fere 1
▁font 1
▁gund 1
▁gung 1
▁hakk 1
▁jing 1
▁jure 1
▁keke 1
▁kisa 1
▁nika 1
▁nwaa 1
▁slip 1
▁ógbè 1
Romans 1
annama 1
ighter 1
ometer 1
unning 1
ịaramb 1
▁Beach 1
▁Filed 1
▁Jenna 1
▁Mmụta 1
▁Rehab 1
▁Sauti 1
▁Whose 1
▁aboki 1
▁clamp 1
▁dilig 1
▁funny 1
▁gwụla 1
▁haifi 1
▁hakar 1
▁naked 1
▁nduru 1
▁noble 1
▁physi 1
▁refin 1
▁sizes 1
▁sunyi 1
▁walks 1
▁weary 1
holders 1
technic 1
▁Afford 1
▁Amaara 1
▁Amount 1
▁Ememme 1
▁Expert 1
▁Mgbede 1
▁Nelson 1
▁Pụtara 1
▁Reason 1
▁Record 1
▁Serbia 1
▁assign 1
▁butere 1
▁crowds 1
▁ikweta 1
▁inflam 1
▁nnọchi 1
▁valley 1
▁washed 1
▁ƙayyad 1
▁Betting 1
▁Ezekiel 1
▁Ogbugbu 1
▁Several 1
▁Taimako 1
▁dabaran 1
▁gardens 1
▁mijinta 1
▁premium 1
▁resolve 1
▁sonyere 1
▁utterly 1
▁voltage 1
ididdigar 1
▁Carolina 1
▁SOLASOLV 1
▁Tenerife 1
▁abũbuwan 1
▁compress 1
▁defeated 1
▁disorder 1
▁gwamnato 1
▁handling 1
▁password 1
▁punished 1
▁siblings 1
▁tsarkaka 1
▁Happiness 1
▁addressed 1
▁akụrụngwa 1
▁nweekwanụ 1
▁stretched 1
▁Enterprise 1
▁Mashahurin 1
▁earthquake 1
▁equivalent 1
▁personally 1
▁ụmụnwaanyị 1
▁medications 1
▁necessarily 1
▁tattaunawar 1
▁Universities 1
▁comprehensive 1
▁Qualitywararren 1
)) 1
.? 1
6: 1
Ji 1
lr 1
▁± 1
"," 1
-18 1
IVE 1
Mee 1
tin 1
ụrị 1
▁05 1
▁84 1
▁92 1
▁97 1
!... 1
bian 1
bies 1
kene 1
kwut 1
ledo 1
shop 1
yade 1
ọgwụ 1
▁5.1 1
▁AJỌ 1
▁CAN 1
▁Geb 1
▁Lut 1
▁Rik 1
▁Tig 1
▁dur 1
▁kaw 1
▁odo 1
▁ras 1
▁tid 1
▁tọn 1
▁Ọsọ 1
allai 1
jekwu 1
kafin 1
orney 1
oters 1
tacks 1
yanci 1
yansu 1
▁1914 1
▁1950 1
▁2001 1
▁Abel 1
▁Gara 1
▁Into 1
▁Khal 1
▁Okwa 1
▁Rank 1
▁Ugbo 1
▁Zuwa 1
▁anwu 1
▁belt 1
▁guru 1
▁mari 1
▁maya 1
▁nwet 1
▁rail 1
▁unre 1
▁ụnwụ 1
▁ụsụụ 1
arịcha 1
idency 1
itudes 1
stones 1
urarka 1
▁1997, 1
▁Aisha 1
▁Didie 1
▁Latsa 1
▁Nweke 1
▁Psych 1
▁Sadly 1
▁Siria 1
▁Wando 1
▁clock 1
▁emerụ 1
▁gwọlọ 1
▁novel 1
▁otiti 1
▁queen 1
▁tashe 1
▁trick 1
assment 1
ondered 1
sterdam 1
ịarukwu 1
▁DUNIYA 1
▁Onwenu 1
▁Points 1
▁Queens 1
▁Survey 1
▁ayyana 1
▁brilli 1
▁bugawa 1
▁clouds 1
▁flying 1
▁gụsịrị 1
▁intend 1
▁labour 1
▁limits 1
▁mostly 1
▁overse 1
▁raguwa 1
▁sallar 1
▁themes 1
ịhụnanya 1
▁Agbanwe 1
▁Bayanai 1
▁Chọọchị 1
▁Holland 1
▁Ikpeazụ 1
▁Mission 1
▁Okpokwu 1
▁annobar 1
▁arrange 1
▁deceive 1
▁discipl 1
▁drivers 1
▁earthly 1
▁filling 1
▁hụkwara 1
▁nootrop 1
▁princes 1
▁restaur 1
▁shafuka 1
▁suicide 1
▁vessels 1
▁wanting 1
▁zazzage 1
▁zukatan 1
▁Anywhere 1
▁Explorer 1
▁Memorial 1
▁Movement 1
▁Position 1
▁acquired 1
▁arewacin 1
▁atụnyere 1
▁flexible 1
▁garments 1
▁jikọtara 1
▁kuskuren 1
▁northern 1
▁welcomed 1
▁ziyartar 1
▁ministers 1
▁candidates 1
▁frequently 1
▁matsanancin 1
▁Testosterone 1
▁nnọchiteanya 1
>> 1
DỊ 1
PU 1
SW 1
yọ 1
:5, 1
BLE 1
HER 1
asm 1
bad 1
eee 1
etị 1
sub 1
▁67 1
▁EE 1
▁FC 1
▁GH 1
▁KE 1
▁ow 1
apor 1
chus 1
even 1
icle 1
inti 1
irus 1
ixel 1
miti 1
ruru 1
wich 1
▁$10 1
▁118 1
▁140 1
▁23, 1
▁365 1
▁ABU 1
▁Bio 1
▁Mbu 1
▁McC 1
▁Nga 1
▁Nku 1
▁Zab 1
▁adi 1
▁avọ 1
▁nut 1
▁rãy 1
▁zụọ 1
aganụ 1
alụso 1
andan 1
aneza 1
burgh 1
eleba 1
found 1
istle 1
llion 1
nwere 1
yacin 1
▁(199 1
▁Akpọ 1
▁Crow 1
▁Dise 1
▁Firm 1
▁Inye 1
▁Josh 1
▁Mars 1
▁Ping 1
▁Siff 1
▁Uhie 1
▁goyi 1
▁reap 1
▁reck 1
asshen 1
flower 1
merman 1
odcast 1
usions 1
▁Akụkụ 1
▁Azure 1
▁Ebola 1
▁Jefet 1
▁Kpọrọ 1
▁Maher 1
▁Nwosu 1
▁Torah 1
▁angle 1
▁brush 1
▁cloth 1
▁clubs 1
▁corre 1
▁exalt 1
▁gains 1
▁giant 1
▁invis 1
▁iskar 1
▁laeze 1
▁mpere 1
WASOUND 1
enụwarị 1
justice 1
▁Bayyan 1
▁Kasuwa 1
▁Labels 1
▁dakuna 1
▁deeper 1
▁faifai 1
▁gajiya 1
▁hakuri 1
▁lawful 1
▁ngwụsị 1
▁perfor 1
▁pounds 1
▁retire 1
▁sakawa 1
annywood 1
▁Gebriel 1
▁Jackson 1
▁Karịsịa 1
▁Oganeza 1
▁Surface 1
▁explore 1
▁failing 1
▁guzosie 1
▁ichegbu 1
▁imegide 1
▁kayyade 1
▁mbipụta 1
▁proport 1
▁sakonni 1
▁talauci 1
▁twitter 1
enyekwara 1
▁Analysis 1
▁Gwamnati 1
▁Princess 1
▁Virginia 1
▁absolute 1
▁ascended 1
▁controls 1
▁district 1
▁division 1
▁harsashi 1
▁jinkirta 1
▁lankwasa 1
▁megidere 1
▁muhimmin 1
▁Aerospace 1
▁Bethlehem 1
▁Character 1
▁converted 1
▁executive 1
▁infection 1
▁integrity 1
▁jarrabawa 1
▁kwadebere 1
▁AREWASOUND 1
▁officially 1
▁questioned 1
▁struggling 1
▁suggestion 1
▁ubangijina 1
▁weghachite 1
▁Enterprises 1
▁partnership 1
▁Manufacturing 1
▁implementation 1
,: 1
DD 1
FC 1
kg 1
yr 1
Ann 1
Shi 1
▁IR 1
▁Zh 1
▁cu 1
▁mọ 1
Thus 1
agar 1
arat 1
aska 1
goro 1
kken 1
omic 1
oves 1
ovie 1
valu 1
zuwa 1
ƙiya 1
▁(6) 1
▁0.1 1
▁6:4 1
▁Ani 1
▁Bed 1
▁Len 1
▁Nam 1
▁Odi 1
▁Omn 1
▁Uma 1
▁alj 1
▁amị 1
▁aye 1
▁ibn 1
▁izo 1
▁nam 1
▁Ịma 1
NYERE 1
angon 1
atell 1
daida 1
hiyar 1
ilers 1
intin 1
▁Echo 1
▁Ekpo 1
▁Ilaị 1
▁Luci 1
▁Nnọọ 1
▁Pump 1
▁Rule 1
▁Sent 1
▁User 1
▁batt 1
▁deed 1
▁keta 1
▁ogbe 1
▁sits 1
▁tuma 1
▁womb 1
acetam 1
antena 1
assing 1
emechi 1
ezienụ 1
finite 1
nually 1
piring 1
▁Barka 1
▁Basic 1
▁Eight 1
▁Guang 1
▁Legas 1
▁Massa 1
▁Ramin 1
▁Sport 1
▁Steve 1
▁Ugbua 1
▁Wanke 1
▁amuma 1
▁cheer 1
▁dighi 1
▁draws 1
▁endea 1
▁gagha 1
▁moves 1
▁raina 1
▁renew 1
▁scope 1
▁shuke 1
▁sixth 1
▁snake 1
▁wings 1
▁workp 1
▁Ịmụta 1
achọkwa 1
rations 1
▁JEHOVA 1
▁Tsalle 1
▁Winter 1
▁amazed 1
▁assets 1
▁duties 1
▁errors 1
▁inject 1
▁ishara 1
▁kwanon 1
▁nkwari 1
▁synthe 1
▁zigbee 1
▁ịkpata 1
amarakwa 1
jections 1
position 1
▁Finance 1
▁Peoples 1
▁Schools 1
▁kiyasta 1
▁markets 1
▁monitor 1
▁ngwugwu 1
▁stretch 1
▁Choosing 1
▁Echefula 1
▁Guardian 1
▁Mmekọahụ 1
▁Starting 1
▁Suddenly 1
▁gosipụta 1
▁mbịaramb 1
▁nyekwara 1
▁priority 1
▁reminded 1
▁slightly 1
▁vineyard 1
▁Alexander 1
▁Amsterdam 1
▁Hollywood 1
▁breathing 1
▁buƙatunku 1
▁dysphoria 1
▁neighbors 1
▁responses 1
▁Protestant 1
▁controlled 1
▁employment 1
▁initiative 1
▁innovative 1
▁waterproof 1
▁specialized 1
▁transformed 1
▁participation 1
▁significantly 1
▁transportation 1
MN 1
ẹe 1
Fil 1
agọ 1
cat 1
isu 1
orp 1
unƙ 1
▁Ov 1
▁Ut 1
Make 1
Muna 1
blog 1
hole 1
kome 1
oler 1
rior 1
tani 1
uals 1
▁105 1
▁18) 1
▁2.0 1
▁CAS 1
▁EUR 1
▁Fay 1
▁Lar 1
▁Lem 1
▁Lik 1
▁MEE 1
▁NSO 1
▁Ott 1
▁PLC 1
▁azz 1
▁bol 1
▁jum 1
▁ntọ 1
▁wra 1
akụta 1
amụba 1
anyar 1
bourg 1
emerụ 1
fying 1
hetic 1
minai 1
month 1
osara 1
ostic 1
▁Gary 1
▁Jeri 1
▁Myst 1
▁Pipe 1
▁Pret 1
▁Sant 1
▁karb 1
▁soma 1
▁symp 1
▁ƙare 1
▁ɗari 1
anniya 1
listat 1
making 1
reated 1
▁Benue 1
▁Crime 1
▁Gburu 1
▁Physi 1
▁argue 1
▁hence 1
▁jinin 1
▁loses 1
▁stops 1
▁wanna 1
▁zukãt 1
Jehovah 1
gbuworo 1
▁Topics 1
▁Xperia 1
▁artist 1
▁banban 1
▁bother 1
▁firist 1
▁imagin 1
▁kushin 1
▁layout 1
▁legend 1
▁letara 1
▁melite 1
▁mkpọtụ 1
▁nkpuru 1
▁pardon 1
▁preced 1
▁remote 1
▁rivers 1
▁scores 1
▁trends 1
commerce 1
guzogide 1
▁Acetate 1
▁Attaura 1
▁Consult 1
▁Defense 1
▁Gịnịkwa 1
▁Silinda 1
▁Walking 1
▁dukiyar 1
▁electro 1
▁genuine 1
▁kusanci 1
▁kwantar 1
▁majalis 1
▁ntarama 1
▁nursing 1
▁sarauta 1
▁whereas 1
▁ƙafafun 1
▁ọkọlọtọ 1
▁Counting 1
▁Daraktan 1
▁Jenụwarị 1
▁Matsayin 1
▁Sulemanu 1
▁advertis 1
▁arrogant 1
▁diabetes 1
▁mazaunan 1
▁opinions 1
▁paswọọdụ 1
▁roulette 1
▁scholars 1
▁ịkwesịrị 1
▁Burtaniya 1
▁Butterfly 1
▁Otherwise 1
▁Salvation 1
▁Taimakawa 1
▁Venezuela 1
▁whitening 1
rastructure 1
▁Specialist 1
▁farashinsa 1
▁makarantun 1
▁opposition 1
▁performing 1
▁protecting 1
▁repeatedly 1
▁accountable 1
▁publication 1
▁residential 1
▁Introduction 1
▁compensation 1
▁illustration 1
▁consciousness 1
4] 1
55 1
69 1
DI 1
FF 1
HC 1
JA 1
MV 1
Ps 1
cr 1
▁% 1
3), 1
AKA 1
Ike 1
bah 1
bro 1
jud 1
mic 1
oku 1
pox 1
ụka 1
▁8) 1
▁CS 1
▁JO 1
▁OB 1
▁UA 1
▁Um 1
ENWE 1
ansi 1
anyo 1
fish 1
ghọm 1
kest 1
only 1
tare 1
yene 1
ọkwá 1
▁4:4 1
▁4:8 1
▁6:9 1
▁Eto 1
▁Gad 1
▁Hua 1
▁TOP 1
▁Tay 1
▁Uku 1
▁das 1
▁vbe 1
arụkọ 1
cised 1
eling 1
front 1
gudun 1
ocate 1
pense 1
▁2:11 1
▁Apps 1
▁Dand 1
▁Desk 1
▁Half 1
▁Jera 1
▁Mail 1
▁Rail 1
▁Roll 1
▁bite 1
▁butt 1
▁clip 1
▁cuts 1
▁dill 1
▁elev 1
▁gada 1
▁gais 1
▁huta 1
▁impl 1
▁leda 1
▁loop 1
▁muni 1
▁roro 1
▁spin 1
▁tiny 1
▁tuki 1
▁wepu 1
kwakwa 1
liness 1
▁Agric 1
▁Masar 1
▁Notre 1
▁Okwud 1
▁amsar 1
▁array 1
▁drank 1
▁ebibi 1
▁ebili 1
▁kwast 1
▁paris 1
▁reshe 1
▁ungod 1
abannin 1
ekpekwa 1
hearing 1
istocin 1
present 1
unction 1
ụlọikpe 1
▁Fatima 1
▁Forces 1
▁Josaya 1
▁Matiyu 1
▁Sculpt 1
▁attach 1
▁collap 1
▁insert 1
▁kwatan 1
▁makami 1
▁medara 1
▁narrow 1
▁nweghi 1
▁onyeka 1
▁winner 1
stalline 1
▁100,000 1
▁Profile 1
▁Respect 1
▁Sojojin 1
▁Tarihin 1
▁classic 1
▁dandali 1
▁deliber 1
▁farmers 1
▁kofofin 1
▁offense 1
▁periods 1
▁protest 1
▁secrets 1
▁tufafin 1
▁unknown 1
▁ƙaramin 1
▁Ọgwụgwụ 1
uteronomy 1
▁Darussan 1
▁Okorocha 1
▁Onyeukwu 1
▁Practice 1
▁Resource 1
▁Silicone 1
▁Tattauna 1
▁chillers 1
▁counting 1
▁emotions 1
▁grinding 1
▁muhimman 1
▁sacrific 1
▁sarautar 1
▁tinyekwa 1
▁Materials 1
▁Onyekachi 1
▁Sovereign 1
▁broadcast 1
▁improving 1
▁privilege 1
▁rarrabuwa 1
▁terrified 1
▁testified 1
▁Republican 1
▁acceptance 1
▁entreprene 1
▁gosipụtara 1
▁hypocrites 1
▁remembrance 1
▁presidential 1
77 1
HV 1
4). 1
:59 1
Add 1
Afọ 1
alk 1
dog 1
inf 1
užž 1
zuo 1
▁DE 1
▁Mũ 1
▁PL 1
▁TE 1
▁pc 1
:17. 1
CHIC 1
arau 1
ffen 1
good 1
hard 1
indu 1
iran 1
isms 1
medi 1
osex 1
pụla 1
taka 1
ìgwè 1
▁3.1 1
▁AMA 1
▁Agh 1
▁Ahl 1
▁Aqu 1
▁Cig 1
▁Det 1
▁FCT 1
▁Hmm 1
▁Keb 1
▁Kpe 1
▁ONE 1
▁Vit 1
▁Wow 1
▁cla 1
▁exe 1
▁haz 1
▁mac 1
▁ona 1
▁pic 1
▁sah 1
▁una 1
arụrụ 1
craft 1
ebube 1
etary 1
gyare 1
imeti 1
indin 1
mates 1
ursec 1
▁Agwu 1
▁Agwọ 1
▁Luka 1
▁arba 1
▁auku 1
▁dawa 1
▁disk 1
▁eBay 1
▁envy 1
▁kona 1
▁lust 1
▁mawa 1
▁nani 1
▁prem 1
▁reno 1
▁tops 1
▁yini 1
▁zart 1
adọgbu 1
allaci 1
aneous 1
iboodu 1
stream 1
ughari 1
ummomi 1
uraron 1
Ụbọchị 1
▁2023: 1
▁Doing 1
▁Ihere 1
▁Ochie 1
▁alarm 1
▁cabin 1
▁drops 1
▁gozie 1
▁guest 1
▁hello 1
▁hydro 1
▁igodo 1
▁kirki 1
▁mecha 1
▁mehie 1
▁paste 1
▁tuntu 1
▁yaron 1
▁yumbu 1
▁zango 1
▁Ịhọrọ 1
ejikarị 1
ishinan 1
▁Ayyuka 1
▁Bitrus 1
▁Bureau 1
▁Ekwesị 1
▁Godiya 1
▁Immedi 1
▁Impact 1
▁Lambar 1
▁Madina 1
▁Valley 1
▁corrid 1
▁export 1
▁gbagoo 1
▁golden 1
▁ichefu 1
▁kaifin 1
▁namely 1
▁ntachi 1
▁percen 1
▁stores 1
▁zažužž 1
fections 1
ursecode 1
▁Bayyana 1
▁Nursing 1
▁Opening 1
▁Station 1
▁Summary 1
▁borders 1
▁decibel 1
▁fitting 1
▁matsawa 1
▁ngụkọta 1
▁satisfy 1
▁shiriya 1
▁western 1
▁Suitable 1
▁Together 1
▁attacked 1
▁cancanta 1
▁channels 1
▁diameter 1
▁fuskanta 1
▁incident 1
▁province 1
▁stranger 1
▁Available 1
▁Zimmerman 1
▁abụkwaghị 1
▁permanent 1
▁prominent 1
▁purchased 1
▁respected 1
▁sakandare 1
▁suggested 1
▁Affordable 1
▁Commercial 1
▁Galvanized 1
▁afterwards 1
▁assignment 1
▁friendship 1
▁protective 1
▁tsarkakewa 1
▁association 1
▁improvement 1
▁personality 1
▁Progressives 1
▁Communication 1
▁concentration 1
48 1
9% 1
;) 1
KS 1
Ko 1
PE 1
KPỌ 1
aks 1
bbe 1
bir 1
may 1
opụ 1
ãyi 1
▁(8 1
▁HX 1
cker 1
mity 1
oven 1
rade 1
rage 1
udin 1
worị 1
▁14) 1
▁50. 1
▁AFỌ 1
▁MAR 1
▁SHA 1
▁[2] 1
▁dia 1
▁hed 1
▁iga 1
▁shy 1
▁spa 1
▁ịde 1
▁ụfụ 1
cepts 1
chian 1
cipal 1
cting 1
ghiri 1
ideon 1
itila 1
mụgwọ 1
▁13:5 1
▁1920 1
▁Bell 1
▁Fọrọ 1
▁Gano 1
▁Jane 1
▁Nemi 1
▁Rise 1
▁Thai 1
▁Wine 1
▁esie 1
▁jeri 1
▁lapt 1
▁lere 1
▁mild 1
▁rumb 1
▁shoe 1
▁tens 1
▁ugly 1
Indeed 1
angila 1
karaya 1
ulates 1
ụrịanụ 1
▁Excel 1
▁Ghọta 1
▁Ndewo 1
▁Nonye 1
▁Optim 1
▁banda 1
▁bụụrụ 1
▁debts 1
▁hired 1
▁horiz 1
▁kpọta 1
▁kwafa 1
▁mpụga 1
▁nlele 1
▁osise 1
▁outer 1
▁prize 1
▁seeds 1
▁taxes 1
atching 1
content 1
zuzuwan 1
▁Asusun 1
▁CHUKWU 1
▁Device 1
▁Female 1
▁Flight 1
▁Gaming 1
▁Ijikwa 1
▁Martha 1
▁Mgbakọ 1
▁Nevada 1
▁Rotary 1
▁Semalt 1
▁Speech 1
▁Vienna 1
▁balaga 1
▁comply 1
▁eruola 1
▁gashin 1
▁indoor 1
▁infant 1
▁mature 1
▁recipe 1
▁reshen 1
ointment 1
▁Achọghị 1
▁Fashion 1
▁Hopkins 1
▁Masters 1
▁Nyochaa 1
▁Ottoman 1
▁Worship 1
▁emepụta 1
▁gudunma 1
▁posting 1
▁raising 1
▁reaches 1
▁shafawa 1
▁strikes 1
▁sunansa 1
▁thyself 1
▁wonders 1
▁Blessing 1
▁Clinical 1
▁Nehemiah 1
▁Problems 1
▁bestowed 1
▁branches 1
▁composed 1
▁dredging 1
▁kiiboodu 1
▁profiles 1
▁touching 1
▁Automatic 1
▁Companies 1
▁Matawalle 1
▁Ogochukwu 1
▁alongside 1
▁barazanar 1
▁corporate 1
▁madaidaic 1
▁nasarorin 1
▁newspaper 1
▁operators 1
▁personnel 1
▁rikitarwa 1
▁sentenced 1
▁synagogue 1
▁compatible 1
▁muhimmiyar 1
▁omnipotent 1
▁provisions 1
▁traditions 1
▁zažužžukan 1
▁Independent 1
▁approaching 1
▁daidaitacce 1
▁demonstrate 1
▁shugabancin 1
FS 1
ZA 1
".) 1
ARI 1
Son 1
eem 1
hal 1
iva 1
nah 1
obu 1
▁"' 1
▁71 1
▁73 1
▁BO 1
▁Họ 1
▁IF 1
▁Ul 1
▁nó 1
fofi 1
gige 1
họde 1
mael 1
maro 1
okur 1
oter 1
ueze 1
uola 1
▁1:9 1
▁2.4 1
▁Ark 1
▁Cow 1
▁HIS 1
▁Hai 1
▁Ila 1
▁LGB 1
▁ROB 1
▁Saf 1
▁ako 1
▁atm 1
▁awụ 1
▁bom 1
▁cas 1
▁eeh 1
▁gly 1
▁sae 1
angel 1
atsun 1
bịbịa 1
emekọ 1
iciye 1
ilize 1
kwanu 1
olled 1
rared 1
riers 1
urawa 1
▁Ampl 1
▁Kirs 1
▁Outs 1
▁Salt 1
▁Tumb 1
▁WILL 1
▁adds 1
▁bana 1
▁daka 1
▁doth 1
▁fate 1
▁lied 1
▁ndin 1
▁nkem 1
▁obst 1
▁rabi 1
▁sabo 1
Surely 1
ejighị 1
okurad 1
onians 1
ọdịmma 1
▁2000, 1
▁5,000 1
▁Ajiye 1
▁Koyar 1
▁Paint 1
▁Shiga 1
▁Swift 1
▁Yemen 1
▁azãba 1
▁dance 1
▁dealt 1
▁edere 1
▁igiya 1
▁kalli 1
▁liked 1
▁marar 1
▁pound 1
▁roads 1
▁shawa 1
▁sigar 1
▁titin 1
▁ɗauka 1
amaokwu 1
because 1
inction 1
▁20,000 1
▁Balaam 1
▁Carbon 1
▁Danish 1
▁Kariya 1
▁Luther 1
▁Magnet 1
▁Matasa 1
▁Onukwu 1
▁Remove 1
▁Samson 1
▁decent 1
▁desper 1
▁emeghe 1
▁ending 1
▁hatred 1
▁haziri 1
▁iyayen 1
▁kamara 1
▁kaunar 1
▁passes 1
▁rataye 1
▁sashin 1
▁scheme 1
▁seized 1
▁settle 1
▁widget 1
▁worker 1
▁ỤBỌCHỊ 1
erughịrị 1
iciently 1
▁Numbers 1
▁Wedding 1
▁Youtube 1
▁baranda 1
▁beliefs 1
▁caption 1
▁demands 1
▁dreamed 1
▁echichi 1
▁editing 1
▁fitowar 1
▁honored 1
▁ilekọta 1
▁kpọtara 1
▁makaman 1
▁painful 1
▁phrases 1
▁settled 1
▁surgery 1
▁tagulla 1
▁typical 1
▁tọgbọrọ 1
▁wronged 1
▁Addition 1
▁Hanyoyin 1
▁Heavenly 1
▁bakuncin 1
▁consumed 1
▁memories 1
▁ototoxic 1
▁addresses 1
▁assembled 1
▁describes 1
▁eliminate 1
▁increases 1
▁programme 1
▁Especially 1
▁courageous 1
▁kwakwalwar 1
▁obligation 1
▁Chukwunyere 1
▁ntaramahụhụ 1
▁expectations 1
▁organisation 1
▁administrative 1
PT 1
RC 1
SỤ 1
bd 1
df 1
yd 1
ịl 1
-25 1
Res 1
SQL 1
Two 1
dec 1
uju 1
ọgụ 1
▁0, 1
▁04 1
▁EB 1
▁ET 1
▁MB 1
▁nẹ 1
▁pi 1
Mary 1
Were 1
aged 1
best 1
earl 1
hesẹ 1
imid 1
juru 1
rama 1
soft 1
▁22. 1
▁Ahú 1
▁DHL 1
▁Eff 1
▁GDP 1
▁Gol 1
▁Ikọ 1
▁Lad 1
▁Mes 1
▁Pos 1
▁Zak 1
▁eyi 1
▁faf 1
▁fro 1
▁ruẹ 1
▁ure 1
▁zak 1
▁ẹrọ 1
Apịrị 1
abụrụ 1
aliya 1
inium 1
leted 1
manya 1
manye 1
pụisi 1
tower 1
ukọta 1
umatu 1
▁2:10 1
▁Ehab 1
▁Gaza 1
▁Kọlọ 1
▁Rịba 1
▁Teta 1
▁Zuru 1
▁gram 1
▁hits 1
▁keys 1
▁muha 1
▁nerv 1
▁rata 1
▁spec 1
▁stom 1
▁vice 1
▁ƙadd 1
aikaci 1
chiela 1
ducing 1
istemụ 1
▁2004. 1
▁2005, 1
▁2019: 1
▁Ginin 1
▁Lucky 1
▁Makka 1
▁Medic 1
▁Often 1
▁Okwui 1
▁Pages 1
▁Punch 1
▁Purch 1
▁Theme 1
▁Wajen 1
▁Yahoo 1
▁ahịrị 1
▁boxes 1
▁calam 1
▁dirty 1
▁edita 1
▁fired 1
▁hopes 1
▁karko 1
▁maịna 1
▁meghị 1
▁ntabi 1
▁reass 1
▁rescu 1
▁shima 1
▁steal 1
▁tresp 1
▁tsere 1
Apịrịla 1
Eziokwu 1
uscript 1
▁Commit 1
▁Nwanyị 1
▁Okpara 1
▁Thread 1
▁backup 1
▁nickel 1
▁santsi 1
▁shekel 1
▁solemn 1
▁takobi 1
▁uptime 1
akpatara 1
function 1
ilingual 1
▁Absalọm 1
▁Anambra 1
▁Anxiety 1
▁Clearly 1
▁Nebukad 1
▁Prevent 1
▁Promise 1
▁affects 1
▁defined 1
▁despise 1
▁examine 1
▁fitness 1
▁ichekwa 1
▁jọgburu 1
▁kpaliri 1
▁kwekọrọ 1
▁lifting 1
▁likitan 1
▁merakwa 1
▁mũminai 1
▁pharmac 1
▁praised 1
▁servers 1
▁suppose 1
▁tremend 1
▁Ṅụrịanụ 1
▁Blogging 1
▁Discover 1
▁Rehoboam 1
▁Zekaraya 1
▁asambodo 1
▁confront 1
▁doctoral 1
▁flooring 1
▁mambobin 1
▁multiply 1
▁policies 1
▁regional 1
▁simintin 1
▁strongly 1
▁Emergency 1
▁Njirimara 1
▁behaviour 1
▁consumers 1
▁emotional 1
▁nhụjuanya 1
▁stability 1
▁substance 1
▁engagement 1
▁frightened 1
▁girlfriend 1
▁laboratory 1
▁literature 1
▁techniques 1
▁threatened 1
▁whomsoever 1
▁instruments 1
▁ƙayyadaddun 1
▁investigation 1
▁unrighteousness 1
.5 1
ôn 1
.26 1
OBI 1
hrẹ 1
ius 1
ịdị 1
▁Nụ 1
Sura 1
bino 1
eled 1
enwa 1
mped 1
opes 1
orse 1
pedo 1
rost 1
ruka 1
some 1
stan 1
wear 1
▁2.1 1
▁27, 1
▁Kum 1
▁Lau 1
▁Sor 1
▁Tel 1
▁Ude 1
▁WOR 1
▁hai 1
▁lod 1
▁vin 1
Kwụsị 1
Which 1
ahazi 1
duled 1
estly 1
ingly 1
kwasi 1
lects 1
megwu 1
ukaki 1
uputa 1
▁Brun 1
▁Cape 1
▁Emir 1
▁Fans 1
▁Lamp 1
▁Levi 1
▁Pred 1
▁Said 1
▁Used 1
▁kõme 1
▁kọfị 1
▁ọkpọ 1
comple 1
egwuri 1
ezigbo 1
quency 1
uminai 1
▁2006, 1
▁ALLAH 1
▁Deter 1
▁Fayil 1
▁Gwara 1
▁Major 1
▁Motar 1
▁Nnyịn 1
▁Offer 1
▁Sheet 1
▁belun 1
▁ikele 1
▁newly 1
▁roles 1
▁sokwa 1
▁texts 1
▁tụụrụ 1
▁undes 1
▁waves 1
ebipụta 1
funnels 1
karshen 1
▁Birnin 1
▁Chapel 1
▁Driver 1
▁Hassan 1
▁Huawei 1
▁Memory 1
▁Paving 1
▁Prepar 1
▁Tabbas 1
▁ebighi 1
▁enmity 1
▁fitina 1
▁gently 1
▁haɗuwa 1
▁idolat 1
▁masara 1
▁omeiwu 1
▁publis 1
▁stages 1
▁tamkar 1
▁truths 1
▁wadata 1
iliation 1
kpụrụkpụ 1
▁Continu 1
▁Solomọn 1
▁agwaghị 1
▁burdens 1
▁citizen 1
▁coating 1
▁farfesa 1
▁flights 1
▁hanzari 1
▁ijuanya 1
▁karkara 1
▁praises 1
▁studied 1
▁survive 1
▁tsayawa 1
▁walƙiya 1
▁wayarka 1
adịghịkwa 1
akwadoghị 1
gbanyeghị 1
ilitation 1
resistant 1
▁Chemical 1
▁Columbia 1
▁Ethiopia 1
▁Lighting 1
▁LinkedIn 1
▁Withdraw 1
▁azuzuwan 1
▁convince 1
▁cosmetic 1
▁filastik 1
▁kwangila 1
▁prophesy 1
▁Palestine 1
▁Samaritan 1
▁Something 1
▁concluded 1
▁intellect 1
▁kwalliyar 1
▁possessed 1
▁procedure 1
▁recording 1
▁sentences 1
▁witnessed 1
▁Makarantar 1
▁Mgbakwunye 1
▁equipments 1
▁mbịarambịa 1
▁Nkechinyere 1
▁achievements 1
▁certification 1
▁conversations 1
▁Communications 1
BO 1
CK 1
KI 1
Ph 1
ụm 1
▁◆ 1
:56 1
:6) 1
ARỊ 1
ATE 1
CHA 1
ufu 1
zan 1
ịbụ 1
▁(0 1
▁DS 1
▁FL 1
bish 1
chad 1
text 1
urgy 1
wane 1
▁30- 1
▁Ame 1
▁Fed 1
▁Gay 1
▁Hyd 1
▁KRA 1
▁Kot 1
▁MOV 1
▁ODM 1
▁Ski 1
▁Ted 1
▁Tee 1
▁Tic 1
▁Trụ 1
▁Ume 1
▁dit 1
▁mig 1
▁ịka 1
▁ịpụ 1
Omume 1
Those 1
Today 1
amsin 1
anted 1
ensus 1
idays 1
inely 1
kward 1
ports 1
saken 1
thodo 1
ọtara 1
▁4000 1
▁Anna 1
▁Dean 1
▁Debe 1
▁Eyes 1
▁Fata 1
▁Femi 1
▁Husb 1
▁Mort 1
▁Okpo 1
▁Pill 1
▁Prag 1
▁Soul 1
▁baut 1
▁dasa 1
▁dial 1
▁extr 1
▁feat 1
▁gaji 1
▁idem 1
▁kurk 1
▁pace 1
▁rair 1
▁tail 1
▁tort 1
▁wane 1
agbara 1
orelin 1
uruchi 1
ókèala 1
▁1939. 1
▁Apart 1
▁Bulus 1
▁Cause 1
▁Crazy 1
▁Facts 1
▁Haiti 1
▁Musta 1
▁Putin 1
▁Sayar 1
▁Tesal 1
▁admon 1
▁backs 1
▁badly 1
▁banza 1
▁bunch 1
▁daura 1
▁fails 1
▁janyo 1
▁mebie 1
▁nọghị 1
▁sakin 1
▁stamp 1
▁therm 1
▁tooth 1
▁wkwkw 1
attalin 1
chariah 1
factory 1
kwutenụ 1
▁ANAGHỊ 1
▁Behind 1
▁Bright 1
▁Caesar 1
▁Hakika 1
▁Mulkin 1
▁ROBERT 1
▁Switch 1
▁Zọpụta 1
▁counts 1
▁direba 1
▁kifaye 1
▁recall 1
▁sharar 1
▁styles 1
▁tafkin 1
▁tagged 1
▁timing 1
▁tsinka 1
▁wepụrụ 1
ordinary 1
▁Assyria 1
▁Israeli 1
▁Kananan 1
▁Loading 1
▁Trinity 1
▁Unknown 1
▁aspirin 1
▁casting 1
▁discern 1
▁disobey 1
▁enlight 1
▁existed 1
▁gazawar 1
▁gbapụta 1
▁gurbata 1
▁karkata 1
▁kungiya 1
▁kọwaara 1
▁marmaro 1
▁motocin 1
▁peptide 1
▁rijista 1
▁samuwar 1
▁zãlunci 1
▁ịnabata 1
fearfully 1
ọchịchịrị 1
▁Baptizim 1
▁Breaking 1
▁Division 1
▁Dukkanin 1
▁Kwalejin 1
▁Likewise 1
▁Matsalar 1
▁Whenever 1
▁atụkwasị 1
▁complain 1
▁karkatar 1
▁mourning 1
▁prisoner 1
▁ọmarịcha 1
▁Cristiano 1
▁Kannywood 1
▁Kirsimeti 1
▁Sakataren 1
▁assistant 1
▁discharge 1
▁displayed 1
▁extension 1
▁firistoci 1
▁nweghịkwa 1
▁Petersburg 1
▁originally 1
▁professors 1
▁revolution 1
▁vulnerable 1
▁embarrassed 1
▁lubrication 1
▁Ecclesiastes 1
▁appreciation 1
▁publications 1
▁significance 1
66 1
GG 1
]: 1
xe 1
▁¶ 1
▁ã 1
-13 1
24. 1
Isa 1
Men 1
gel 1
sab 1
uph 1
yad 1
ụba 1
▁Lã 1
▁TT 1
▁Ọk 1
...? 1
Kada 1
Ugbu 1
fụma 1
ggen 1
guna 1
ucin 1
unce 1
▁10: 1
▁316 1
▁Edi 1
▁Nka 1
▁OTU 1
▁Tap 1
▁agu 1
▁bug 1
▁cik 1
▁esị 1
▁gbẹ 1
▁lal 1
▁owe 1
▁pel 1
▁yie 1
INỤLỌ 1
World 1
atsam 1
berry 1
dịghị 1
elele 1
entia 1
erver 1
ilson 1
kporo 1
level 1
riors 1
shuke 1
unior 1
urnar 1
xture 1
▁100. 1
▁Aren 1
▁Bond 1
▁Gana 1
▁Igbe 1
▁Josi 1
▁Lots 1
▁Miri 1
▁Narị 1
▁Osin 1
▁Raba 1
▁Warr 1
▁____ 1
▁arts 1
▁cous 1
▁duru 1
▁itat 1
▁kõma 1
▁mabu 1
▁mist 1
▁ogbo 1
▁palm 1
▁pity 1
▁scan 1
▁tabo 1
▁tada 1
▁tsay 1
▁vary 1
▁zato 1
ejikwa 1
idemic 1
laimed 1
online 1
racted 1
▁Ammon 1
▁Corps 1
▁Delhi 1
▁Doesn 1
▁Jason 1
▁Joana 1
▁Nurse 1
▁Shoes 1
▁Sites 1
▁Smile 1
▁bayin 1
▁chewe 1
▁debit 1
▁doses 1
▁duhie 1
▁furta 1
▁gịnwa 1
▁hasum 1
▁niche 1
▁nwuru 1
▁route 1
▁sojin 1
▁tsawa 1
▁watau 1
▁ƙarya 1
ilation 1
▁Anyway 1
▁Atlant 1
▁Circle 1
▁Detail 1
▁Either 1
▁PRINCE 1
▁abughi 1
▁agents 1
▁assert 1
▁barasa 1
▁dabino 1
▁emails 1
▁habits 1
▁impair 1
▁karafa 1
▁ladies 1
▁negoti 1
▁poison 1
▁regime 1
▁uphold 1
quarters 1
▁Alexand 1
▁Changes 1
▁Clinton 1
▁Dalilin 1
▁Jinping 1
▁License 1
▁Players 1
▁Records 1
▁Rubutun 1
▁Started 1
▁applies 1
▁assault 1
▁designs 1
▁ekwuola 1
▁elekọta 1
▁episode 1
▁fasting 1
▁mazauna 1
▁tickets 1
▁upgrade 1
▁washing 1
▁zunuban 1
▁ọkpụkpọ 1
▁Kachikwu 1
▁Nọgidenụ 1
▁cikakkun 1
▁forsaken 1
▁rejoiced 1
▁trusting 1
▁wondered 1
▁Ụlọikwuu 1
▁Chemistry 1
▁Magunguna 1
▁Operation 1
▁associate 1
▁bookmaker 1
▁contained 1
▁crucified 1
▁developer 1
▁engineers 1
▁indicated 1
▁perceived 1
▁processor 1
▁providers 1
▁returning 1
▁strangers 1
▁worshiped 1
▁accessible 1
▁thoroughly 1
▁trenbolone 1
▁Electronics 1
▁ingantattun 1
▁malitekwara 1
▁supplements 1
▁postgraduate 1
▁Entertainment 1
▁encouragement 1
43 1
58 1
BB 1
Ed 1
FT 1
0.1 1
400 1
:50 1
EBI 1
Mak 1
OME 1
ajọ 1
bok 1
iso 1
kim 1
oye 1
rey 1
roc 1
ỊST 1
Ụzọ 1
▁9: 1
▁GU 1
▁PT 1
:16, 1
Gbal 1
Jere 1
alek 1
asis 1
bene 1
case 1
daki 1
erra 1
eshi 1
ftis 1
full 1
host 1
hour 1
ibịa 1
ilet 1
kace 1
merụ 1
omie 1
rica 1
vals 1
▁4:3 1
▁ATM 1
▁Ach 1
▁Aro 1
▁Bos 1
▁CON 1
▁CSS 1
▁Dor 1
▁HIM 1
▁Ise 1
▁Kem 1
▁NAD 1
▁Rid 1
▁TCS 1
▁Woe 1
▁fle 1
▁tuf 1
▁Ịmụ 1
Ahụrụ 1
acity 1
altar 1
anahụ 1
angle 1
aryng 1
asphe 1
bbean 1
ekewa 1
okoro 1
ukaci 1
yable 1
▁24/7 1
▁2:13 1
▁Abịa 1
▁Dike 1
▁Gris 1
▁HXHV 1
▁Ikon 1
▁Lith 1
▁Nyob 1
▁Sere 1
▁Wars 1
▁akpo 1
▁baku 1
▁clim 1
▁gayy 1
▁kart 1
▁kaso 1
▁kida 1
▁mmer 1
▁prol 1
▁rube 1
▁titi 1
▁vest 1
▁webu 1
▁wept 1
alarta 1
emegbu 1
irarin 1
itated 1
korita 1
weight 1
▁Adobe 1
▁Ciwon 1
▁Enugu 1
▁Exerc 1
▁Front 1
▁Garba 1
▁Jesse 1
▁Kraft 1
▁Sinai 1
▁Sweet 1
▁armed 1
▁arrow 1
▁congr 1
▁entit 1
▁essay 1
▁gadon 1
▁garke 1
▁ilmin 1
▁miser 1
▁nwara 1
▁ƙauna 1
onement 1
rubucen 1
verning 1
▁Compet 1
▁Edward 1
▁Rechel 1
▁Sabbin 1
▁adopts 1
▁anụghị 1
▁borrow 1
▁cutter 1
▁debate 1
▁delete 1
▁harder 1
▁labaru 1
▁racing 1
▁sealed 1
▁shield 1
▁tissue 1
▁unlike 1
agogical 1
aribbean 1
ographer 1
▁Effects 1
▁Organic 1
▁Reasons 1
▁barrier 1
▁capture 1
▁comprom 1
▁cooling 1
▁founder 1
▁hunturu 1
▁kirtani 1
▁loyalty 1
▁mabiyan 1
▁scribes 1
▁tabarau 1
▁tonight 1
▁yammaci 1
Gbalaganụ 1
▁Consumer 1
▁Shenzhen 1
▁duration 1
▁gharakwa 1
▁irighiri 1
▁kusantar 1
▁mujallar 1
▁napụtara 1
▁nnupụisi 1
▁pleasing 1
▁sickness 1
▁ịsụgharị 1
▁Nlereanya 1
▁adventure 1
▁akwụmụgwọ 1
▁computers 1
▁invisible 1
▁Watchtower 1
▁agbanweela 1
▁basketball 1
▁impressive 1
▁insulation 1
▁kpagbuworo 1
▁proclaimed 1
▁withdrawal 1
▁Ọkachamara 1
▁enterprises 1
▁availability 1
▁capabilities 1
▁daidaitaccen 1
▁ejikerewokwa 1
Ts 1
UU 1
YI 1
800 1
Ass 1
Mai 1
ORY 1
Sir 1
lyn 1
omo 1
oru 1
ppa 1
two 1
tọn 1
why 1
ãfi 1
ụtụ 1
▁($ 1
▁09 1
▁FM 1
▁Mî 1
▁Uh 1
▁ƙi 1
:15, 1
TỤTỤ 1
Ugwu 1
arni 1
athi 1
bajo 1
bobi 1
daya 1
enyi 1
have 1
ilds 1
town 1
ọhụụ 1
▁170 1
▁750 1
▁Alụ 1
▁Cas 1
▁Dur 1
▁Hay 1
▁NAB 1
▁NIV 1
▁NWE 1
▁Sit 1
▁Teh 1
▁Tum 1
▁Waɗ 1
▁iyo 1
▁ndọ 1
▁owa 1
▁Ɗan 1
▁ọgọ 1
▁ụma 1
emeka 1
gidan 1
inger 1
ormal 1
▁1997 1
▁Abun 1
▁Addu 1
▁Amos 1
▁BỤRỤ 1
▁Cike 1
▁Dawn 1
▁Gibe 1
▁Grap 1
▁Igba 1
▁Kull 1
▁Lara 1
▁Lies 1
▁Sons 1
▁Task 1
▁beam 1
▁bibi 1
▁boot 1
▁dumb 1
▁inev 1
▁mate 1
▁scal 1
▁shor 1
▁subt 1
▁tari 1
▁tsib 1
▁util 1
▁worn 1
Agaghị 1
CHICHE 1
Heroes 1
Motion 1
aserin 1
ashawa 1
kpụkpọ 1
loride 1
ndrome 1
onaịka 1
urruka 1
▁4,000 1
▁Asked 1
▁Brows 1
▁Dress 1
▁Ejike 1
▁Falls 1
▁Fresh 1
▁Guest 1
▁Nasir 1
▁Songs 1
▁Sọdọm 1
▁Wanne 1
▁Zayọn 1
▁alike 1
▁apple 1
▁coins 1
▁haifa 1
▁hulda 1
▁karta 1
▁kyale 1
▁label 1
▁olulu 1
▁opens 1
▁rashi 1
▁sauna 1
▁slots 1
▁yarwa 1
▁ƙimar 1
arụpụta 1
attarar 1
istence 1
mitting 1
respect 1
urities 1
▁Depart 1
▁Inweta 1
▁Launch 1
▁Monkey 1
▁Nọgide 1
▁Writer 1
▁akwụli 1
▁banned 1
▁caring 1
▁fifiko 1
▁fitila 1
▁pastor 1
▁quoted 1
▁rahusa 1
▁thinks 1
▁transf 1
▁tweets 1
▁umarci 1
▁visits 1
gosipụta 1
ungiyoyi 1
▁Amazing 1
▁Casinos 1
▁Forgive 1
▁Hadakar 1
▁Matakai 1
▁Theresa 1
▁Tsakiya 1
▁Village 1
▁ambaton 1
▁damaged 1
▁exchang 1
▁hukunta 1
▁iguzosi 1
▁madawwa 1
▁nbudata 1
▁omekome 1
▁onyinyo 1
▁outcome 1
▁rapidly 1
orcaserin 1
▁Gọọmenti 1
▁Mgbapụta 1
▁Nehemaya 1
▁Orlistat 1
▁Rundunar 1
▁biblical 1
▁commonly 1
▁despised 1
▁discoura 1
▁distinct 1
▁featured 1
▁manhajar 1
▁ngwongwo 1
▁parables 1
▁rangwame 1
▁retained 1
▁summoned 1
▁throwing 1
▁tracking 1
okuradiyya 1
▁Ebumnuche 1
▁Suffering 1
▁component 1
▁ignorance 1
▁imperfect 1
▁nchegharị 1
▁ofisoshin 1
▁proceeded 1
▁surrender 1
▁sụgharịrị 1
▁temporary 1
▁wholesale 1
▁Ịkwanyere 1
▁Laboratory 1
▁Queensland 1
▁colleagues 1
▁contribute 1
▁disclosure 1
▁kụzichaara 1
▁membership 1
▁surrounded 1
▁Tesalonaịka 1
▁examination 1
▁translators 1
▁Consequently 1
63 1
DU 1
RM 1
qa 1
ụt 1
-16 1
ADA 1
ANE 1
ORO 1
eda 1
inụ 1
ooo 1
plu 1
tax 1
udd 1
ugs 1
vol 1
wen 1
õji 1
▁79 1
▁81 1
▁Iy 1
▁KO 1
▁PI 1
▁RO 1
▁nẽ 1
:17) 1
ache 1
acts 1
ambo 1
atir 1
atty 1
diga 1
erob 1
etts 1
irce 1
maki 1
mith 1
nara 1
ntop 1
rink 1
sect 1
umph 1
▁1:7 1
▁31. 1
▁450 1
▁Abs 1
▁CRI 1
▁Dro 1
▁Ian 1
▁Ibi 1
▁PRO 1
▁Rog 1
▁SAR 1
▁fak 1
▁fis 1
▁kọọ 1
▁Ịkụ 1
▁Ịla 1
▁ọwa 1
Power 1
anied 1
eleta 1
emefu 1
finan 1
ganga 1
ilton 1
ishan 1
izhou 1
ldren 1
style 1
wayen 1
ọmụmụ 1
▁Baki 1
▁Flex 1
▁Manu 1
▁Nick 1
▁Poss 1
▁Ross 1
▁Taka 1
▁UGBU 1
▁Yake 1
▁aike 1
▁bare 1
▁cock 1
▁cute 1
▁fewe 1
▁leap 1
▁metụ 1
▁mèzi 1
▁nest 1
▁upgr 1
Annabi 1
Verily 1
aghọrọ 1
anners 1
arfafa 1
asịkwa 1
cerity 1
llipop 1
uwansu 1
▁2002, 1
▁Athen 1
▁Chain 1
▁Chere 1
▁Crown 1
▁Enjoy 1
▁Kogin 1
▁Tears 1
▁chịwa 1
▁daure 1
▁dikwa 1
▁embra 1
▁knees 1
▁mmefu 1
▁owned 1
▁prose 1
▁remed 1
▁trail 1
▁tunda 1
▁yarin 1
ararren 1
▁Abinda 1
▁Animal 1
▁Canjin 1
▁Domain 1
▁Gideon 1
▁Josiah 1
▁Lights 1
▁Sanusi 1
▁Tushen 1
▁Weekly 1
▁Wilson 1
▁Wouldn 1
▁agwụla 1
▁aikawa 1
▁bestow 1
▁breach 1
▁buƙata 1
▁circle 1
▁dagawa 1
▁elelie 1
▁giciye 1
▁kwarin 1
▁lambun 1
▁league 1
▁mining 1
▁shadow 1
▁stored 1
▁tọhapụ 1
▁umurni 1
▁wished 1
achịkọta 1
chusetts 1
kekọrịta 1
▁Carrara 1
▁Doctors 1
▁EZINỤLỌ 1
▁Element 1
▁Receive 1
▁chronic 1
▁gamsuwa 1
▁ganuwar 1
▁gbaziri 1
▁joining 1
▁regards 1
▁sabanin 1
▁silicon 1
▁tidings 1
▁ɗaukaka 1
▁ịchịkwa 1
▁ọkàikpe 1
criptions 1
▁Septemba 1
▁Shekarar 1
▁aikatãwa 1
▁collabor 1
▁corridor 1
▁deceased 1
▁heritage 1
▁mathemat 1
▁pointing 1
▁sarakuna 1
▁warranty 1
▁Generator 1
▁Nebukadne 1
▁Transport 1
▁basically 1
▁batteries 1
▁monuments 1
▁obstacles 1
▁reactions 1
▁residence 1
▁slaughter 1
▁specified 1
▁subwoofer 1
▁thickness 1
▁vineyards 1
▁ịkpachara 1
▁Definition 1
▁Investment 1
▁Italiyanci 1
▁Magungunan 1
▁Statistics 1
▁affliction 1
▁enweghịkwa 1
▁fulfilling 1
▁sanctified 1
▁encouraging 1
▁trustworthy 1
,) 1
.2 1
Mt 1
TU 1
ša 1
ɗu 1
-22 1
:49 1
:52 1
Hon 1
OLA 1
bor 1
isy 1
lst 1
pan 1
ruo 1
▁FO 1
▁KN 1
▁MY 1
▁NU 1
:18. 1
Amen 1
Does 1
Eche 1
Thou 1
Yana 1
alam 1
atul 1
auni 1
chịa 1
fire 1
five 1
gate 1
indi 1
name 1
olis 1
ooko 1
osom 1
ukin 1
ulan 1
vour 1
zyme 1
Ọnwụ 1
ụọnụ 1
▁1.0 1
▁101 1
▁184 1
▁1:3 1
▁CIA 1
▁Mfe 1
▁Ros 1
▁SSD 1
▁ber 1
▁inu 1
▁lau 1
▁max 1
▁muo 1
▁sne 1
Aware 1
James 1
arahụ 1
cerpt 1
kwato 1
kwọrọ 1
uguri 1
yaren 1
▁Base 1
▁Bing 1
▁Dies 1
▁Fani 1
▁Fuji 1
▁Koma 1
▁Pull 1
▁Qual 1
▁Tomb 1
▁Wear 1
▁ajụọ 1
▁cake 1
▁cycl 1
▁daft 1
▁esca 1
▁fesa 1
▁gaga 1
▁gand 1
▁hafs 1
▁hist 1
▁okwa 1
▁otua 1
▁rọrọ 1
▁Ọkwa 1
Crypto 1
aganda 1
alolin 1
commun 1
isting 1
minals 1
ulties 1
wasaki 1
▁Along 1
▁Brook 1
▁Cubes 1
▁Gifts 1
▁Hasan 1
▁Iraki 1
▁Jones 1
▁Kevin 1
▁Louis 1
▁Osisi 1
▁Shape 1
▁antib 1
▁asara 1
▁auren 1
▁awake 1
▁biyun 1
▁bount 1
▁crops 1
▁didie 1
▁gamsu 1
▁himma 1
▁karba 1
▁kpobi 1
▁kwang 1
▁loans 1
▁locks 1
▁moral 1
▁pitch 1
▁ruled 1
▁straw 1
▁tsira 1
▁tsoma 1
▁uncer 1
Amerịka 1
anthate 1
anyanwu 1
itative 1
viously 1
▁Active 1
▁Altern 1
▁Budget 1
▁Hotels 1
▁KRAỊST 1
▁Kraist 1
▁Mechan 1
▁Mining 1
▁Oticon 1
▁Parent 1
▁Region 1
▁Sample 1
▁Sexual 1
▁Sister 1
▁Strike 1
▁Tumblr 1
▁akpịrị 1
▁anaghi 1
▁asirin 1
▁chefuo 1
▁fushin 1
▁hamsin 1
▁hatimi 1
▁insult 1
▁kpọlit 1
▁missed 1
▁nearby 1
▁nkwakọ 1
▁nkwarụ 1
▁roller 1
▁scroll 1
▁seated 1
▁shinka 1
▁titled 1
▁turare 1
▁vaccin 1
atellite 1
ognitive 1
security 1
▁Amaokwu 1
▁Ancient 1
▁Collect 1
▁Courage 1
▁Gallery 1
▁Kụziere 1
▁Tasirin 1
▁barkono 1
▁kwatsam 1
▁mafarki 1
▁nkeonwe 1
▁planted 1
▁tablets 1
▁wherein 1
▁writers 1
▁Customer 1
▁Shafukan 1
▁annually 1
▁dementia 1
▁emehiewo 1
▁honestly 1
▁ignorant 1
▁keywords 1
▁kodayake 1
▁maɓallin 1
▁ordained 1
▁ordinary 1
▁rairayin 1
▁somewhat 1
▁sụgharịa 1
▁troubles 1
▁vacation 1
▁Ƙungiyar 1
▁Certainly 1
▁Regarding 1
▁commented 1
▁dependent 1
▁ebumnuche 1
▁encounter 1
▁justified 1
▁objective 1
▁permitted 1
▁prostrate 1
▁reduction 1
▁sincerely 1
▁telephone 1
▁ọkpụrụkpụ 1
▁artificial 1
▁assessment 1
▁containing 1
▁directions 1
▁explaining 1
▁faithfully 1
▁guidelines 1
▁iniquities 1
▁prescribed 1
▁Ekliziastis 1
▁distributed 1
▁exceedingly 1
▁intelligence 1
▁respectively 1
▁Relationships 1
▁transgressions 1
!? 1
.* 1
7: 1
;" 1
Br 1
GỤ 1
HO 1
MW 1
xa 1
ịk 1
ịt 1
▁✔ 1
ITI 1
OST 1
Yah 1
fus 1
jis 1
len 1
php 1
rod 1
sus 1
uch 1
zel 1
▁TU 1
▁iS 1
▁zụ 1
-100 1
:18) 1
Free 1
Good 1
Ishi 1
asty 1
card 1
huma 1
rank 1
redi 1
sale 1
thur 1
vall 1
▁103 1
▁Amn 1
▁Azu 1
▁CoQ 1
▁Dab 1
▁GET 1
▁Isl 1
▁Les 1
▁NAS 1
▁Ohi 1
▁Ost 1
▁Ple 1
▁Pun 1
▁Xia 1
▁Yam 1
▁bun 1
▁saa 1
anyen 1
atoes 1
buchi 1
buwal 1
cilia 1
imize 1
ivest 1
mitii 1
▁$100 1
▁Alum 1
▁Amọn 1
▁Coil 1
▁Egbe 1
▁Fill 1
▁Husa 1
▁Jean 1
▁Kalu 1
▁Kash 1
▁Late 1
▁Leon 1
▁Nord 1
▁Okue 1
▁Rebe 1
▁Rekọ 1
▁WiFi 1
▁abuo 1
▁bact 1
▁conc 1
▁cẽwa 1
▁dage 1
▁dịla 1
▁kpaa 1
▁leaf 1
▁melt 1
▁meso 1
▁mmas 1
▁nemo 1
▁ojoo 1
▁ours 1
▁vert 1
ignity 1
imedia 1
inaụlọ 1
owered 1
▁Andre 1
▁Chine 1
▁Decor 1
▁Emere 1
▁Extra 1
▁Luxem 1
▁Michi 1
▁Names 1
▁Plant 1
▁Steam 1
▁Uzbek 1
▁Yanke 1
▁agbọn 1
▁deals 1
▁ebute 1
▁emume 1
▁enorm 1
▁fatar 1
▁flour 1
▁karim 1
▁manne 1
▁mụụrụ 1
▁ohuru 1
▁ransa 1
▁rehab 1
▁revol 1
▁sekit 1
▁wages 1
▁ọkụkọ 1
Ishiagu 1
aduates 1
anninku 1
chịagha 1
uttukan 1
▁Abokin 1
▁Arabic 1
▁Buying 1
▁Course 1
▁Gọvanọ 1
▁Jacket 1
▁Jigawa 1
▁Lãhira 1
▁Okonjo 1
▁Orange 1
▁accred 1
▁achọta 1
▁agbasa 1
▁cultiv 1
▁deputy 1
▁doubts 1
▁enjoin 1
▁graven 1
▁gumaka 1
▁hakowa 1
▁hayaki 1
▁hụworo 1
▁kwusaa 1
▁marvel 1
▁nakasa 1
▁rumbun 1
▁shades 1
▁umurce 1
▁youths 1
agbalịsi 1
▁Ability 1
▁Akaụntụ 1
▁Chronic 1
▁Dokokin 1
▁Iceland 1
▁Morocco 1
▁Nnyocha 1
▁Premium 1
▁Saviour 1
▁alfarwa 1
▁kartani 1
▁mashiga 1
▁muminai 1
▁netting 1
▁nrụgide 1
▁obeying 1
▁offices 1
▁pụtaghị 1
▁quarter 1
▁rashawa 1
▁tallata 1
▁thereby 1
▁wuyansa 1
ustachian 1
▁Aviation 1
▁Chukwuma 1
▁Extended 1
▁Gbaghara 1
▁Odumegwu 1
▁Original 1
▁Pictures 1
▁Polished 1
▁clicking 1
▁compound 1
▁dominion 1
▁enjoying 1
▁executed 1
▁ileghara 1
▁muhawara 1
▁normally 1
▁scanning 1
▁strictly 1
▁swimming 1
▁wireless 1
▁Caribbean 1
▁Customers 1
▁Territory 1
▁boyfriend 1
▁childhood 1
▁evolution 1
▁injustice 1
▁prisoners 1
▁rayuwarsu 1
▁unlimited 1
▁Connection 1
▁complaints 1
▁continuing 1
▁remarkable 1
▁skateboard 1
▁strategies 1
CryptoHeroes 1
▁Educational 1
▁Polytechnic 1
▁appreciated 1
▁distinguish 1
▁gwagwarmaya 1
▁kpọlitesịrị 1
▁demonstrated 1
▁Massachusetts 1
oz 1
pn 1
"). 1
:2) 1
:53 1
MCH 1
Pre 1
aah 1
aja 1
div 1
exp 1
lak 1
pay 1
tag 1
ths 1
ọzọ 1
▁() 1
▁91 1
▁JP 1
▁Mẹ 1
▁Nh 1
▁Va 1
▁ft 1
▁ỤF 1
"."" 1
?... 1
Agwa 1
Here 1
KWAS 1
ccer 1
core 1
eric 1
gave 1
http 1
iest 1
igma 1
insu 1
isor 1
olen 1
sara 1
sied 1
yers 1
▁(7) 1
▁144 1
▁145 1
▁5:4 1
▁ASA 1
▁Anu 1
▁Enọ 1
▁Fix 1
▁Fru 1
▁JES 1
▁Mam 1
▁NCS 1
▁Ode 1
▁Rod 1
▁Rou 1
▁Shĩ 1
▁Thi 1
▁UNU 1
▁khẹ 1
▁onw 1
▁rar 1
▁ƙoƙ 1
akarị 1
antan 1
bayan 1
ckets 1
emebi 1
erers 1
jiang 1
licit 1
onian 1
othes 1
oxide 1
▁1930 1
▁Dani 1
▁Fine 1
▁Gear 1
▁Hank 1
▁Info 1
▁Inọk 1
▁Kate 1
▁Pool 1
▁Porn 1
▁Sens 1
▁Sett 1
▁babi 1
▁bute 1
▁daba 1
▁doct 1
▁fury 1
▁igba 1
▁lend 1
▁neme 1
▁noon 1
▁suyi 1
▁zobe 1
Iweala 1
Kayode 1
Knower 1
agbụrụ 1
amanye 1
ccarat 1
hedrin 1
people 1
thodox 1
utable 1
▁12:32 1
▁2021. 1
▁Cards 1
▁Citiz 1
▁Comes 1
▁Crypt 1
▁Entry 1
▁Gmail 1
▁Horse 1
▁Jenny 1
▁Jioba 1
▁Maker 1
▁Nwabu 1
▁Rober 1
▁Spins 1
▁cared 1
▁chọwa 1
▁ewepụ 1
▁herds 1
▁kakar 1
▁marks 1
▁nerve 1
▁nisha 1
▁nomin 1
▁ruhun 1
▁sever 1
▁ships 1
▁tausa 1
▁veter 1
▁ọnụma 1
▁ỤFỌDỤ 1
attafan 1
umbling 1
▁Appear 1
▁Beware 1
▁Contro 1
▁Cooper 1
▁Giallo 1
▁Ikokwu 1
▁Ikwere 1
▁Luxury 1
▁Nwagbo 1
▁Rahama 1
▁Rivers 1
▁Saraki 1
▁adighi 1
▁bịaruo 1
▁coupon 1
▁dakile 1
▁donkey 1
▁firmly 1
▁ijikwa 1
▁lovers 1
▁marine 1
▁meghee 1
▁ntụhie 1
▁rabawa 1
▁rebuke 1
▁tanada 1
▁tsirar 1
▁vessel 1
▁weapon 1
▁Ọgbakọ 1
etụbeghị 1
▁Akwatin 1
▁Amfanin 1
▁Answers 1
▁Archite 1
▁Baptist 1
▁Barbara 1
▁ISIOKWU 1
▁Motocin 1
▁Trading 1
▁acquire 1
▁bishara 1
▁bottles 1
▁execute 1
▁fitilar 1
▁imitate 1
▁kwalite 1
▁mahaifa 1
▁makiyan 1
▁mamakin 1
▁nkwanye 1
▁receipt 1
▁reminds 1
▁shigowa 1
▁somehow 1
▁stomach 1
▁tallafa 1
▁tension 1
▁terrace 1
▁ungodly 1
▁Elizabet 1
▁InMotion 1
▁Physical 1
▁Scotland 1
▁Solution 1
▁acoustic 1
▁adequate 1
▁contents 1
▁gundumar 1
▁historic 1
▁makiyaya 1
▁managing 1
▁tarbiyya 1
▁tashoshi 1
▁youngest 1
▁Certified 1
▁Establish 1
▁Righteous 1
▁Zechariah 1
▁afflicted 1
▁democracy 1
▁falsehood 1
▁firstborn 1
comfortable 1
▁Conditions 1
▁fiberglass 1
▁perfection 1
▁procedures 1
▁Opportunity 1
▁anniversary 1
▁collections 1
▁importantly 1
▁Constitution 1
▁agbanwebeghị 1
▁contribution 1
▁intervention 1
▁collaboration 1
1- 1
8] 1
Ir 1
Ke 1
▁É 1
▁🙂 1
Hub 1
Ikọ 1
Job 1
Kat 1
New 1
Pay 1
alo 1
cas 1
dem 1
due 1
irt 1
isc 1
oug 1
wụt 1
zur 1
ũta 1
▁06 1
▁6- 1
▁Fu 1
▁Rh 1
▁SK 1
▁py 1
▁ụt 1
:15. 1
:16) 1
WARE 1
akun 1
arre 1
atis 1
chin 1
gina 1
kafa 1
note 1
supp 1
usar 1
▁178 1
▁5:8 1
▁Ahi 1
▁Aja 1
▁Bru 1
▁EZE 1
▁HTT 1
▁Iju 1
▁MKV 1
▁OGE 1
[...]
